<unk>	0
<s>	0
</s>	0
<pad>	0
xxfld	0
xxmaj	0
xxup	0
xxrep	0
xxwrep	0
,	-2.06696
!	-3.69331
▁,	-3.74086
?	-4.0212
...	-4.56027
▁நீ	-4.64591
▁	-4.67066
▁என்	-4.69989
்	-4.7325
▁நான்	-4.90775
▁உன்	-5.09803
ும்	-5.14118
....	-5.22716
:	-5.27857
ே	-5.31521
ா	-5.33623
ம்	-5.37087
▁வா	-5.41734
▁-	-5.56473
ு	-5.60844
▁ஒரு	-5.6145
க்	-5.71921
?...	-5.73566
▁காதல்	-5.74202
ப்	-5.74424
▁என்ன	-5.78255
...,	-5.80286
?....	-5.99849
ை	-6.01233
ாய்	-6.01847
ன்	-6.05461
ில்	-6.05654
▁ஹே	-6.06215
▁ராஜா	-6.13182
ோ	-6.14805
த்	-6.22144
ல்	-6.23586
ச்	-6.24149
▁ஏன்	-6.33459
)	-6.38139
▁எந்தன்	-6.39922
▁உந்தன்	-6.41602
▁(	-6.4163
▁மீனா	-6.44965
▁விஜய்	-6.46847
▁தான்	-6.47443
ின்	-6.48732
▁இந்த	-6.5054
▁இது	-6.5305
▁ப	-6.5515
கள்	-6.55257
தான்	-6.57342
▁அது	-6.57464
▁க	-6.57962
▁எல்லாம்	-6.59175
▁போல	-6.6064
து	-6.62039
▁அந்த	-6.66737
▁:	-6.70139
▁ஓ	-6.71168
▁பவித்ரா	-6.71413
▁இல்லை	-6.72062
▁கொஞ்சம்	-6.72516
▁நீங்க	-6.76967
ல	-6.78945
டா	-6.82816
▁என்னை	-6.83903
▁அவன்	-6.84606
▁ஆட	-6.87372
▁உன்னை	-6.90981
▁போ	-6.94142
▁இல்ல	-6.94798
▁சந்தோஷ்	-6.94919
▁நானும்	-6.97243
▁என	-6.97951
▁போலே	-6.98494
▁டா	-6.98612
.	-6.98831
▁ம	-6.99456
▁வந்து	-6.9975
▁நீயும்	-6.9984
ன்னு	-7.01915
▁என்று	-7.02064
ேன்	-7.02258
யே	-7.03384
▁ஓர்	-7.03392
▁எனை	-7.04852
ி	-7.08791
ெல்லாம்	-7.08946
▁போதும்	-7.09579
.....	-7.09736
ங்க	-7.10878
▁கூட	-7.1092
!...	-7.1142
▁சித்தப்பா	-7.11573
▁வானம்	-7.119
▁யார்	-7.1205
வா	-7.12459
▁உனை	-7.13498
u	-7.13802
▁உங்க	-7.13816
▁த	-7.13903
க்கு	-7.14299
▁உள்ளே	-7.15751
ங்கள்	-7.1576
▁எங்க	-7.15888
க்கும்	-7.16482
▁ஏ	-7.16513
y	-7.16551
▁பூமி	-7.16845
▁இதயம்	-7.17098
▁அதை	-7.18016
க்க	-7.19197
;	-7.19737
▁ரகுபதி	-7.19881
▁கை	-7.20079
▁எனக்கு	-7.20209
டி	-7.22049
▁தீ	-7.22441
▁நாம்	-7.22555
▁இனி	-7.22693
▁கொண்டு	-7.22705
▁அவள்	-7.23945
▁முத்தம்	-7.24754
▁வாங்க	-7.24901
யா	-7.24916
t	-7.2513
▁வ	-7.25533
▁நீயே	-7.26989
▁அ	-7.27935
தே	-7.28177
▁மேலே	-7.28281
▁இவள்	-7.28509
▁பெண்ணே	-7.30836
▁சொல்ல	-7.30905
▁நெஞ்சம்	-7.32064
▁இங்க	-7.33068
▁உன்ன	-7.3384
ைக்	-7.34267
▁அன்பே	-7.35178
▁விட்டு	-7.36388
▁ச	-7.37595
▁போது	-7.37951
யும்	-7.40226
▁திரை	-7.40345
▁யாவும்	-7.40863
▁ஒன்று	-7.41116
▁இன்னும்	-7.4203
▁வாசம்	-7.42157
▁தா	-7.42174
த்தான்	-7.4245
▁ந	-7.42571
▁மேல	-7.42898
▁இவன்	-7.431
’	-7.43124
▁இங்கே	-7.43456
▁ஆ	-7.45512
▁வந்த	-7.46163
▁முத்து	-7.46192
▁தானே	-7.46204
▁உயிரே	-7.46969
2028	-7.48033
▁ஹோ	-7.48983
▁வந்தா	-7.50244
▁போல்	-7.50549
▁கண்	-7.50584
▁உண்மை	-7.50923
▁தினம்	-7.52042
▁தே	-7.5215
▁எது	-7.52593
....,	-7.54406
▁ஏனோ	-7.54602
▁வர	-7.55289
▁வேணா	-7.5571
ென	-7.5654
▁உனக்கு	-7.56877
வே	-7.56965
▁வருதல்	-7.57286
▁முன்னே	-7.5748
▁நம்ம	-7.57547
ன	-7.57979
▁அட	-7.58437
▁உலகம்	-7.58789
ோட	-7.59724
▁இன்று	-7.60259
▁யாரு	-7.60639
▁உயிர்	-7.60882
▁வாழ்க்கை	-7.60914
▁சொல்	-7.61178
▁இன்பம்	-7.61588
▁நாள்	-7.62065
▁சொல்லு	-7.62085
க	-7.62569
▁நா	-7.62743
டீ	-7.62896
s	-7.63071
▁நெஞ்சில்	-7.63106
▁சில	-7.63108
▁போக	-7.63191
▁....	-7.6321
னே	-7.63509
னா	-7.63967
ையும்	-7.65113
▁my	-7.65921
▁மீது	-7.66312
▁பாரு	-7.66893
▁சரி	-7.6702
▁தம்பி	-7.67508
▁இ	-7.67878
▁யாரும்	-7.6826
ிடும்	-7.6917
▁போதை	-7.69289
▁போன	-7.69382
▁எங்கே	-7.69415
ோடு	-7.69953
▁வழி	-7.70169
▁வேற	-7.70408
▁கண்கள்	-7.70801
▁செல்ல	-7.71567
▁மேல்	-7.72135
▁வெறி	-7.72199
▁வாழ	-7.72252
▁உனது	-7.72294
▁மட்டும்	-7.72536
▁போயி	-7.72873
▁ஆசை	-7.73146
▁நம்	-7.7333
▁கண்ணா	-7.73505
▁இருக்கு	-7.7367
▁டேய்	-7.73716
▁நல்லா	-7.73939
▁மனம்	-7.74094
▁ஆடு	-7.74346
▁பூ	-7.74531
▁கூமர	-7.74897
ைத்	-7.75308
▁மீண்டும்	-7.75443
தோ	-7.75696
▁காலம்	-7.75782
▁யாரோ	-7.78982
▁எங்கும்	-7.79823
\	-7.804
ற	-7.80609
ள்	-7.80636
▁கா	-7.80695
▁மாறும்	-7.80987
si	-7.8122
▁அலை	-7.82031
▁நிலை	-7.82162
▁you	-7.82182
▁எப்படி	-7.82208
▁பொய்	-7.82261
த்தில்	-7.8248
லே	-7.82693
▁மாமா	-7.8279
▁எ	-7.82823
▁ராஜ	-7.83369
ரு	-7.83531
ஆ	-7.83631
▁கோடி	-7.84047
▁பாக்க	-7.84846
மே	-7.85
▁நிலா	-7.85159
▁இரு	-7.85462
▁கண்ணு	-7.85698
▁ஒண்ணு	-7.85699
▁கிட்ட	-7.85923
▁அதில்	-7.86141
ிலே	-7.86165
▁பாதை	-7.86445
▁இங்கு	-7.86494
▁இல்லா	-7.86598
▁காட்சி	-7.86792
▁தேடி	-7.87047
யில்	-7.87492
.,	-7.876
▁De	-7.8762
▁நேரம்	-7.87884
▁இப்ப	-7.87942
▁நானா	-7.88343
▁மா	-7.88478
▁என்னோடு	-7.88602
▁அடி	-7.89125
▁சொல்லி	-7.8914
மா	-7.89162
ான்	-7.89202
▁போட்டு	-7.89375
▁சிறு	-7.89839
▁விழி	-7.90048
ுக்கு	-7.90778
▁புது	-7.90782
▁be	-7.90921
▁பேச	-7.91027
ைப்	-7.91389
▁எல்லாமே	-7.91499
▁எனது	-7.92519
▁மாதிரி	-7.93428
▁அவ	-7.93456
▁செம்புலி	-7.93563
▁கண்ணில்	-7.93642
▁வெளியில்	-7.93955
▁காதலி	-7.94031
▁உ	-7.94507
▁அத	-7.95263
▁உன்னாலே	-7.95569
▁ரெண்டு	-7.95582
▁வான்	-7.95675
!....	-7.95854
▁பார்	-7.96013
வன்	-7.96677
ர்	-7.97752
▁உள்ள	-7.98256
▁பாத்து	-7.98667
▁என்றே	-7.98957
▁I	-7.99214
▁அப்புறம்	-7.99592
▁ஒளி	-8.00008
▁ஆமா	-8.00311
▁ஆனா	-8.00436
▁துளி	-8.00704
▁கட்டப்பா	-8.00743
▁வேண்டாம்	-8.01781
▁பாடல்	-8.01787
▁பொண்ணு	-8.02313
ோம்	-8.02325
▁பேசும்	-8.02529
ால்	-8.03262
▁பாட	-8.03325
▁நீயா	-8.03347
e	-8.03528
▁ஒன்றை	-8.03786
உ	-8.03792
▁ஒரே	-8.03909
▁ஏதும்	-8.04221
▁காதலே	-8.04481
▁பொண்ண	-8.0461
▁ஏத்தி	-8.0517
▁பா	-8.05532
▁அண்ணன்	-8.05538
▁என்னோட	-8.06413
தும்	-8.07398
▁பாராயோ	-8.0834
▁ஆயிரம்	-8.08358
▁டாக்டர்	-8.08453
▁அழகு	-8.08782
▁காதல	-8.09089
▁காட்டு	-8.09497
லாம்	-8.09883
▁ரஜினி	-8.10657
▁மேகம்	-8.10957
▁கண்ட	-8.11153
▁முதல்	-8.1164
கையில்	-8.11905
▁வாழ்க்க	-8.12109
▁இவ	-8.12203
..	-8.12397
ியே	-8.12664
▁நடிப்பு	-8.13081
▁பூக்கள்	-8.13338
▁a	-8.13909
▁அண்ணா	-8.14094
▁நீதான்	-8.14174
▁கால்	-8.14483
▁ஆடை	-8.14681
னம்	-8.15136
▁நாளை	-8.15244
▁பல	-8.15254
▁மழை	-8.15272
▁–	-8.15476
▁என்றால்	-8.15533
ய	-8.1578
▁நல்ல	-8.15864
▁மாறி	-8.15964
ாதே	-8.15986
▁கட்டி	-8.16385
▁கொண்ட	-8.17055
த	-8.17322
▁தொடு	-8.17623
ாக	-8.17957
▁செல்லுதல்	-8.18001
▁நாட்டு	-8.18053
▁நாங்க	-8.18085
வும்	-8.18087
▁என்னில்	-8.18248
▁யார	-8.18565
▁என்ற	-8.18964
▁ஒத்த	-8.19304
றேன்	-8.19711
▁சின்ன	-8.19925
▁கண்ண	-8.20171
▁சிங்கிளு	-8.20556
▁இப்படி	-8.20683
▁நெஞ்சின்	-8.20734
▁பார்வை	-8.20809
ாமல்	-8.20879
-	-8.21548
▁கனா	-8.21646
▁வரை	-8.21676
ில்லை	-8.22165
▁கொஞ்ச	-8.22732
ய்	-8.23067
▁high	-8.23172
▁கேட்க	-8.23172
▁தேசமே	-8.23191
▁காற்றில்	-8.23417
▁அழகே	-8.23551
▁இதோ	-8.23554
▁தரகர்	-8.23802
▁ராணி	-8.23958
▁அதன்	-8.24159
▁வெச்சு	-8.24189
▁எம்	-8.24593
?..	-8.24659
▁இருந்து	-8.24938
ிய	-8.24983
▁தலை	-8.25231
ன்னா	-8.25716
இல்	-8.25943
▁ஏதோ	-8.26102
▁ஏறி	-8.26107
டு	-8.26218
▁பின்னே	-8.26271
டும்	-8.2661
ட்டு	-8.26641
▁காட்ட	-8.26767
▁மொழி	-8.26979
அ	-8.27323
▁மாற்ற	-8.2762
ட	-8.27781
யோ	-8.27797
▁என்னைக்	-8.28071
▁கனவு	-8.28085
▁மாப்பிள்ள	-8.28207
▁பவி	-8.28408
▁தானா	-8.2863
▁முனிம்மா	-8.28652
▁Bang	-8.28653
▁தோழா	-8.28672
▁வண்ணம்	-8.28905
▁கேளு	-8.29176
▁போட	-8.29262
ம்மா	-8.3089
▁சேர	-8.309
▁அங்க	-8.31135
ச்சி	-8.31396
▁என்னுள்	-8.31577
யை	-8.31595
▁மனச	-8.31665
▁வீசும்	-8.31896
தை	-8.32192
▁நானே	-8.32388
▁...	-8.32423
▁நின்று	-8.32427
▁சொல்லும்	-8.3252
▁ஆலி	-8.32556
▁போகும்	-8.32696
▁மாற	-8.32733
▁பண்ணி	-8.33391
▁முன்ன	-8.33416
ப்பா	-8.33554
▁போனா	-8.33721
▁காண	-8.33794
▁me	-8.34067
யின்	-8.34492
▁தல	-8.34548
▁இல்லாமல்	-8.34615
▁கண்டேன்	-8.3466
▁உன்னோடு	-8.34804
▁கண்டு	-8.34815
▁கல்யாணம்	-8.35
த்தின்	-8.35135
▁இன்னிக்கு	-8.35152
ாத	-8.35154
▁உன	-8.35222
ொரு	-8.35635
த்து	-8.35648
▁அப்பா	-8.35899
▁அல்ல	-8.35938
விஜய்	-8.35946
த்தை	-8.36016
▁காற்ற	-8.3608
▁குல	-8.36093
ெங்கும்	-8.3611
ென்று	-8.36153
லா	-8.36316
வ	-8.36997
ட்டும்	-8.37173
▁நாம	-8.37175
▁வானில்	-8.37258
▁மறு	-8.37605
▁கண்ணாடி	-8.37783
▁the	-8.3784
▁தந்த	-8.38116
▁வேறு	-8.38165
யாய்	-8.39213
ட்டா	-8.39248
▁ஓட	-8.39262
▁காலி	-8.39605
re	-8.39609
▁மு	-8.39801
▁மின்ன	-8.39849
▁முறை	-8.4035
▁குட்டி	-8.40378
▁வெவ்வெவ்வே	-8.40606
▁fear	-8.40606
ுடன்	-8.40629
▁கேட்டு	-8.40633
▁Wa	-8.40665
▁மௌனம்	-8.40757
லை	-8.40785
▁வேலை	-8.40868
▁எடுத்து	-8.40928
▁பாயும்	-8.40942
▁நாளும்	-8.4106
▁உன்னால்	-8.41406
▁மனுச	-8.41523
ந்து	-8.4154
▁வார்த்தை	-8.41659
▁சொன்ன	-8.41699
▁இருக்க	-8.41939
ko	-8.42566
னை	-8.42712
▁ஊர்	-8.42773
ய்யா	-8.42812
▁புன்னகை	-8.42894
▁பின்ன	-8.42986
▁நெஞ்சை	-8.43006
▁ஆக	-8.43055
▁தன்	-8.43083
▁zero	-8.43832
▁முழுதும்	-8.43862
▁எந்த	-8.4435
▁கொண்டேன்	-8.44415
▁பின்	-8.44767
▁தொட	-8.44779
i	-8.44852
க்கா	-8.44961
▁நெஞ்ச	-8.45103
▁பாதி	-8.45765
மோ	-8.46002
▁வெளிய	-8.46165
▁இனிமே	-8.46532
ர	-8.46564
▁தர	-8.46721
▁செய்த	-8.4689
▁வீடு	-8.46968
▁ரொம்ப	-8.47165
▁தூரம்	-8.4742
▁தந்தாய்	-8.47432
▁உங்களுக்கு	-8.47779
ையில்	-8.47828
▁எங்கள்	-8.48113
▁போர்	-8.48129
ினில்	-8.4845
▁பாருங்க	-8.48633
▁அதே	-8.48652
▁உங்கள	-8.49034
▁நொடி	-8.49252
▁இத	-8.49289
ுங்க	-8.49518
னும்	-8.49615
m	-8.49694
ுதல்	-8.4996
▁சொன்னா	-8.50313
▁?....	-8.5057
▁எல்லை	-8.50751
▁இல்லையே	-8.50831
▁உடை	-8.50838
▁காதில்	-8.50851
▁ஆனாய்	-8.50917
▁பணம்	-8.50929
▁சென்று	-8.51043
▁நாளைக்கு	-8.51151
▁மின்னல்	-8.51243
▁போனாய்	-8.51257
▁வீழ	-8.51546
▁செய்ய	-8.51577
▁டிக்	-8.51596
ச்சு	-8.51615
▁அடுத்த	-8.51722
ரா	-8.51893
▁எனில்	-8.52048
▁உயிர	-8.52417
▁மண்	-8.52598
ுதே	-8.52809
▁அழக	-8.53101
▁t	-8.53135
▁கோ	-8.535
▁\	-8.53545
▁வி	-8.53776
▁அவன	-8.54073
▁கொண்டே	-8.54107
▁பொப்பப்ப்போ	-8.54185
▁சிகரம்	-8.54243
▁ஆடும்	-8.54266
▁பண்ண	-8.54436
▁மண்ணில்	-8.5445
ber	-8.54512
▁உறவே	-8.5453
▁கு	-8.55134
தா	-8.5544
▁புள்ள	-8.55634
▁கேட்ட	-8.55777
▁எதுக்கு	-8.56241
▁அவள	-8.56371
▁பக்கு	-8.56634
f	-8.57233
▁பேர	-8.57627
▁பயணம்	-8.57907
▁சீ	-8.57947
▁காமி	-8.57967
னு	-8.58001
▁ஒன்றாய்	-8.58061
▁எத்தனை	-8.58331
▁கரை	-8.58358
▁காலில்	-8.58441
ுது	-8.5852
▁இல்லாத	-8.58528
▁காணும்	-8.58613
▁கண்ணீர்	-8.58682
ுல	-8.58797
▁ஆள	-8.58797
▁விரல்	-8.58984
ேனே	-8.59025
▁தாண்டி	-8.59052
num	-8.59278
▁கொ	-8.59363
▁பார்க்க	-8.59707
ing	-8.59735
▁நான	-8.5978
▁திறக்க	-8.59975
ராஜா	-8.60121
▁தூக்கி	-8.60121
▁மூடி	-8.60914
▁வெற்றி	-8.61071
▁கால	-8.6137
ிடம்	-8.61721
▁love	-8.61729
▁குறும்பா	-8.61768
▁பண்ணுவேன்	-8.61777
▁எதிரியே	-8.6181
▁மன்னன்	-8.61821
▁போகிறேன்	-8.61878
▁விழியில்	-8.61955
▁தேன்	-8.62078
ாயோ	-8.62736
▁மறந்து	-8.62873
o	-8.63042
ுவேன்	-8.63374
▁கேள்வி	-8.63408
தானே	-8.63617
▁தூங்க	-8.6363
▁நிலவு	-8.63696
▁மனசு	-8.63882
தேன்	-8.64077
a	-8.64256
▁தூறல்	-8.64271
வில்லை	-8.64834
▁வரும்	-8.64906
▁தான	-8.64956
▁வெள்ளை	-8.65514
▁காதலை	-8.65542
▁விட	-8.65748
▁மாலை	-8.65792
▁ஆனாலும்	-8.65828
▁சங்கே	-8.65842
▁ஐ	-8.65844
▁பக்கம்	-8.65851
▁ஊர	-8.65971
n	-8.66013
▁பூவ	-8.66047
▁கேக்க	-8.66078
▁டாடி	-8.66147
▁வேண்டும்	-8.66199
▁நொடியே	-8.6621
▁கூட்டம்	-8.66266
▁அங்கே	-8.66362
▁சிறகு	-8.66473
▁இன்றி	-8.66514
▁மை	-8.66573
▁மனதை	-8.66818
▁இருக்கற	-8.66902
கிட்ட	-8.66962
d	-8.6706
த்த	-8.67404
▁pra	-8.67672
...!	-8.6782
▁பூட்டி	-8.68101
▁வெ	-8.68528
னாய்	-8.68592
▁அப்ப	-8.69106
▁பேரு	-8.69459
▁கொடுத்த	-8.69871
▁your	-8.69917
▁அதிசயமே	-8.69927
▁சும்மா	-8.69938
▁உடனே	-8.70004
▁கேட்கிறேன்	-8.70026
▁நினைவுகள்	-8.70038
ாயா	-8.70045
▁எரி	-8.70074
▁கட்ட	-8.70084
▁கோலே	-8.70107
▁m	-8.70171
▁இசை	-8.70296
▁குமார்	-8.70313
▁இருந்தா	-8.70372
ந்தான்	-8.70414
▁வந்தேன்	-8.70595
▁si	-8.70673
▁காடா	-8.70776
▁வான	-8.70877
▁ரெண்டும்	-8.7115
▁நேர	-8.71151
▁போறேன்	-8.71291
▁வெச்ச	-8.71719
▁வைத்த	-8.71905
▁இந்தப்	-8.71922
▁இந்தக்	-8.72159
▁கஸ	-8.7222
ப்பேன்	-8.72271
▁படை	-8.72355
▁sho	-8.72375
▁மேடை	-8.72524
ணும்	-8.72782
▁ஆற	-8.72841
▁ர	-8.72906
▁மண்ண	-8.73013
ூரு	-8.73177
▁கைய	-8.73246
▁போடு	-8.73326
▁ஒற்றை	-8.73488
▁என்றும்	-8.737
▁பி	-8.73744
▁இவள	-8.73864
ையே	-8.74004
ண்ணா	-8.74011
▁பேசி	-8.74075
▁வீட்டுக்கு	-8.74219
▁baby	-8.74249
▁Hola	-8.7425
▁பெரிய	-8.74254
▁தகிட	-8.74261
▁அய்யோ	-8.74269
▁விநாயகா	-8.74285
ந்த	-8.74324
▁ஆச	-8.74337
▁சொற்கள்	-8.7434
▁மனதில்	-8.7436
▁நாணம்	-8.74517
▁அடியே	-8.74562
▁ஆட்டம்	-8.74617
▁எங்களுக்கு	-8.75109
▁அம்மா	-8.75264
ென்ன	-8.75274
▁கனவ	-8.75339
▁பேர்	-8.75455
▁மெய்	-8.75616
மாட்டிக்கொண்டேன்	-8.7566
▁சர	-8.75709
▁உன்னில்	-8.7589
ந்திடும்	-8.76027
▁வெளியில	-8.76211
▁முன்	-8.76262
▁பெண்	-8.76453
ட்ட	-8.76475
▁வெண்	-8.76591
▁கடைசி	-8.7685
கிறேன்	-8.77002
▁?...	-8.77792
▁பாத்தா	-8.77866
▁முழு	-8.78145
▁ஆள்	-8.78229
▁வே	-8.7849
▁வெண்ணிலா	-8.78727
▁Wow	-8.78796
▁மெல்ல	-8.78867
▁உலகமே	-8.7891
▁நெஞ்சிலே	-8.78911
▁வலியே	-8.78918
▁கேட்காதே	-8.78939
த்தானே	-8.78964
▁மனமே	-8.78994
▁அன்று	-8.78995
▁பாராய்	-8.79005
▁கோபம்	-8.79132
▁காயம்	-8.79267
ில்ல	-8.79422
▁வைக்க	-8.79481
▁விழும்	-8.79796
▁ஓடும்	-8.80137
▁பத்தி	-8.80194
▁கைகள்	-8.80318
ிட	-8.80337
வோ	-8.80472
▁விட்டுப்	-8.80759
ாலும்	-8.80802
▁போடா	-8.81203
▁முடியாது	-8.81908
▁மூட	-8.81933
▁b	-8.82153
▁கதை	-8.82374
கிறாய்	-8.82974
தானா	-8.83049
l	-8.83097
▁பங்காளி	-8.83471
▁வாரா	-8.83579
▁பையன்	-8.83618
▁போயிட்டு	-8.83709
▁அய்யா	-8.83788
டியா	-8.83789
▁கனவுகள்	-8.83798
▁ஒன்றில்	-8.83811
▁என்னுள்ளே	-8.83813
▁செ	-8.83898
▁சார்	-8.8393
▁தெரியும்	-8.84051
▁ஆனால்	-8.84184
la	-8.84292
▁முகம்	-8.84562
▁நீதானே	-8.84646
!!!	-8.84688
▁மீனாவ	-8.84764
▁அதான்	-8.85188
▁ஒண்ணும்	-8.85312
▁ஒன்றே	-8.85519
▁செஞ்ச	-8.85522
▁கொள்ள	-8.85609
▁என்னடா	-8.85627
▁தொலை	-8.85661
தான	-8.85895
▁ஆளு	-8.85991
▁பறவை	-8.86413
▁பாட்டு	-8.86513
▁உடல்	-8.86521
▁அள்ளி	-8.86619
▁முத்த	-8.86878
▁காணா	-8.87267
▁துடிக்க	-8.87278
▁யா	-8.87468
▁விஜய	-8.87538
▁தேகம	-8.87569
▁காலை	-8.87583
▁முடி	-8.87671
▁கூடு	-8.87911
▁எங்கு	-8.88014
▁காசு	-8.88022
▁மீதி	-8.88209
வரும்	-8.88274
▁காதலா	-8.88295
ze	-8.88544
ட்டம்	-8.88555
▁heart	-8.88557
▁party	-8.88558
▁ஒசக்க	-8.88561
▁வாரான்டி	-8.88564
▁காளி	-8.88646
▁சிங்கம்	-8.88721
▁வேகம்	-8.8875
▁சுத்த	-8.88762
▁நிலவே	-8.88843
▁சோகம்	-8.8888
▁பாதம்	-8.89017
▁ஏறும்	-8.89077
▁விழிகள்	-8.89095
▁வீட்ட	-8.89107
▁கர	-8.8917
லும்	-8.8922
▁கடவுள்	-8.89273
▁வீழும்	-8.89354
▁போய்	-8.89357
▁வாழ்வை	-8.89494
▁.....	-8.89535
▁புகழ	-8.89625
▁கேட்கும்	-8.89638
றி	-8.89693
▁கொடுக்க	-8.89772
▁உள்ளம்	-8.898
▁புயல்	-8.89825
▁அன்ப	-8.89851
லாமா	-8.89871
▁மாயா	-8.9
▁அவரு	-8.90224
▁சாலை	-8.90301
▁You	-8.90325
▁ஒவ்வொ	-8.90369
னில்	-8.90404
▁நேற்று	-8.90603
த்துல	-8.90689
▁கூ	-8.90838
ப்ப	-8.91247
▁இரண்டு	-8.91287
▁வானவில்	-8.91412
▁அப்படி	-8.91447
வள்	-8.91481
▁என்னால	-8.91556
ாலே	-8.91575
▁காத	-8.91784
▁மார்பில	-8.91807
▁கிறுக்க	-8.91827
னோ	-8.91893
மீனா	-8.92006
▁என்னைப்	-8.92067
▁நன்றி	-8.9214
பவித்ரா	-8.92221
▁வர்றேன்	-8.92362
யில	-8.92556
க்குள்ள	-8.92847
ிருந்து	-8.93115
▁அழ	-8.93122
▁கூவ	-8.93171
▁பே	-8.93267
▁o	-8.93492
ண்டு	-8.93509
ாட்டம்	-8.93687
▁go	-8.93786
▁கோழை	-8.93819
▁Let	-8.93822
▁ஏதாவது	-8.93831
▁யோடா	-8.93833
▁தலவரே	-8.93836
▁எழுந்து	-8.93862
fy	-8.9388
▁கோதை	-8.93906
▁தூக்கம்	-8.93981
▁இருதயம்	-8.93996
▁காரணம்	-8.94115
ாள்	-8.94141
▁காமம்	-8.94244
▁எதுவும்	-8.94391
பா	-8.94424
▁உண்ட	-8.94557
▁செய்து	-8.94634
▁வரு	-8.94651
▁பட்ட	-8.95049
▁fy	-8.95396
k	-8.95427
▁கண்ணை	-8.95596
▁கண்ணீர	-8.95642
▁பொய்யா	-8.95732
ீங்க	-8.95741
▁மோதி	-8.95961
▁சாரி	-8.96029
▁டி	-8.96223
▁வெப்ப	-8.96289
▁இவன	-8.96456
▁பொன்	-8.97076
▁வேல	-8.97099
▁ஒ	-8.97134
ிக்	-8.97216
▁இருந்த	-8.97534
களின்	-8.97681
▁கேட்டா	-8.98036
ீ	-8.98116
ம	-8.98301
▁அள்ள	-8.98345
▁எடுக்க	-8.98463
▁கையில	-8.98475
▁தீண்ட	-8.9867
▁மூச்ச	-8.98951
▁ஹல	-8.99176
கொண்டு	-8.99269
▁மொத்தம	-8.993
▁முன்னாடி	-8.99331
▁வந்தேமாதரம்	-8.99375
▁Baby	-8.99377
▁சுரையா	-8.99378
▁பார்வதி	-8.99398
மாய்	-8.994
▁தினமும்	-8.99446
விண்வீரா	-8.99455
▁தரகரே	-8.9948
▁கண்டேனே	-8.99494
▁வேணும்	-8.99501
வர்	-8.99506
▁வானிலே	-8.99581
▁பாசம்	-8.99614
▁போகிறாய்	-8.99686
▁போதுமே	-8.99729
▁தாளம்	-8.99801
▁முடியும்	-8.99821
▁எண்ணம்	-8.99933
▁ஈரம்	-9.00014
▁பூக்கும்	-9.00037
▁மெய்மறந்	-9.00083
▁உள்	-9.00107
▁மறைத்த	-9.00135
▁கவிதை	-9.0014
▁தண்ணி	-9.00239
▁மாஸு	-9.00274
▁இருக்கும்	-9.00506
▁பொண்ணே	-9.00532
ைச்	-9.0057
▁கேட்டேன்	-9.00636
▁மலை	-9.00683
ாம	-9.00766
▁கெட்ட	-9.00882
▁நிழல்	-9.00903
வை	-9.01065
▁வெட்டி	-9.01119
▁வலி	-9.01158
▁கள்ள	-9.01173
ிப்	-9.01271
க்கோ	-9.01336
▁விழுந்து	-9.01526
th	-9.016
▁ஈ	-9.01609
வாயா	-9.01614
▁மற	-9.02109
▁பேச்ச	-9.0226
▁சொல்லுங்க	-9.02301
க்குள்	-9.02404
▁ரே	-9.02525
▁இதழ்	-9.02593
ியா	-9.02783
ுறியே	-9.02814
▁உலகில்	-9.02826
▁இழுக்க	-9.02841
▁M	-9.03065
▁காற்று	-9.03135
?.....	-9.03227
▁வீச	-9.03307
▁எண்ண	-9.03332
▁பால	-9.03364
▁ஓடி	-9.03494
▁கி	-9.03657
ரும்	-9.03747
ுற	-9.03805
தல்	-9.0383
▁அவை	-9.03903
▁பொ	-9.03923
▁விழ	-9.03972
▁கல	-9.04136
▁வாழ்வ	-9.04308
▁தனி	-9.04805
▁அவங்க	-9.05196
▁சுவாச	-9.052
விட்டு	-9.05353
▁ஓடாதே	-9.05395
▁வரைக்கும்	-9.05435
களை	-9.05449
▁கண்ணோடு	-9.05467
▁மயக்கம்	-9.05472
▁வேண்டுமே	-9.05484
▁one	-9.05516
▁தேசம்	-9.05526
▁இதயத்தில்	-9.0553
▁சொந்தம்	-9.05544
▁ஆனேன்	-9.05551
▁உலக	-9.05603
ோமே	-9.05668
▁அழகாய்	-9.05671
▁தீரும்	-9.05694
▁ஊ	-9.05733
▁போற	-9.05785
▁அச்சம்	-9.05789
▁திறக்கும்	-9.06021
ுமே	-9.06158
▁J	-9.06172
▁உனில்	-9.06247
▁வாய்	-9.06392
▁முத்தங்கள	-9.06522
மை	-9.06563
▁நெஞ்சு	-9.06774
g	-9.07025
▁பேசு	-9.07226
▁கூடும்	-9.07228
▁தீயை	-9.07264
▁அழைப்ப	-9.0735
▁c	-9.07543
▁இசையில்	-9.07547
▁இதயத்த	-9.0771
▁தள்ளி	-9.08132
ார்	-9.08363
யிலே	-9.08638
▁ரா	-9.08722
▁நிற	-9.088
▁இமை	-9.08843
▁சிரிப்ப	-9.08996
▁பிடித்து	-9.09048
▁நாள	-9.09048
போல்	-9.09403
▁கன	-9.09469
ve	-9.09545
த்தி	-9.09736
▁கொடு	-9.09763
▁ஆன	-9.09885
▁s	-9.09944
▁பறக்க	-9.09985
ல்ல	-9.10093
▁தோழி	-9.10129
▁இப்போ	-9.1053
தம்	-9.10602
▁மனதின	-9.10666
▁இந்திய	-9.10708
▁உலகை	-9.10785
▁குரல்	-9.10872
▁B	-9.11261
▁வண்ண	-9.11308
ினை	-9.11418
▁சிசிலியா	-9.11508
▁சோஃபியா	-9.11508
▁கோகிலா	-9.11508
▁ரோபோ	-9.11509
▁bang	-9.11511
▁Ola	-9.11514
▁நண்பியே	-9.11515
▁யாக்கை	-9.1155
▁காரிகா	-9.11552
▁கலரு	-9.11617
▁அப்படியே	-9.11639
▁சே	-9.11665
▁தேவையில்லை	-9.11801
னேன்	-9.11837
ப	-9.11838
▁போட்ட	-9.11877
▁திண்டாடி	-9.11894
▁உண்டு	-9.1192
▁விட்டா	-9.11964
▁உதிரம்	-9.12018
▁எல்லா	-9.1202
▁நீர்	-9.12032
▁றெக்கை	-9.12092
▁மன்னா	-9.1211
▁A	-9.12112
▁தமிழ்	-9.12131
▁றெக்க	-9.12394
த்துப்	-9.12422
ைகள்	-9.12425
▁பாரம்	-9.12442
யெல்லாம்	-9.12473
▁சென்ற	-9.12516
▁தட்டி	-9.12735
▁இதய	-9.12913
▁கால்கள	-9.12931
ட்சி	-9.12956
டக்கு	-9.13041
▁வந்தாய்	-9.13124
ரம்	-9.1345
▁நாட்கள	-9.13474
▁வேணாம்	-9.13766
▁தேட	-9.13935
▁தப்பு	-9.14033
▁கோர்த்து	-9.14072
▁கட	-9.14312
ிட்டு	-9.14449
▁வாழ்வே	-9.14619
ியோ	-9.14856
கு	-9.15187
ுன்னு	-9.15234
▁வேலைய	-9.15319
▁விரி	-9.15886
▁எங்கண்ணன்	-9.15906
▁அற	-9.1593
▁தொட்டு	-9.16051
▁வாழ்வின	-9.1635
is	-9.16375
▁ஏற	-9.16405
▁தீண்டும்	-9.16424
யில்ல	-9.16594
▁கையை	-9.16604
▁வெடி	-9.16648
▁அவர	-9.16951
▁செஞ்சு	-9.16978
▁மூ	-9.17106
nd	-9.17196
ந்தேன்	-9.17313
▁ஒண்ணா	-9.17321
▁முத்தத்தில	-9.17425
ப்பு	-9.17667
கா	-9.17705
ra	-9.17805
▁ஒன்ற	-9.18105
னால்	-9.18145
ச்சா	-9.18158
▁Girl	-9.18174
▁கரைபுரண்ட	-9.18174
▁மன்னார்குடி	-9.18174
▁மறுபடி	-9.18195
▁பார்க்கிறேன்	-9.18204
▁இறைவா	-9.18245
▁ஓஹோ	-9.18246
▁பேசுதல்	-9.18252
▁பாய்ந்திடும்	-9.18266
▁அர்த்தம்	-9.18267
▁அருகில்	-9.1827
▁அருகிலே	-9.18279
▁it	-9.18284
▁மொத்த	-9.18302
▁நேத்து	-9.18362
க்கி	-9.18403
▁வானமே	-9.18478
▁ஆழம்	-9.18555
▁விழா	-9.18568
▁தீயில்	-9.1858
▁நூறு	-9.1861
ோடுதே	-9.18625
▁ஒருத்தி	-9.18719
▁சொன்னால்	-9.18731
▁பதில்	-9.18759
▁உனதே	-9.18789
▁பார்த்த	-9.18862
▁அல்லா	-9.18895
▁எழு	-9.18924
▁கடல்	-9.19028
▁துணை	-9.19108
▁தேடிப்	-9.19161
ில்லா	-9.19186
▁பார்க்கும்	-9.19318
▁வீரம்	-9.19321
▁பயம்	-9.1943
▁உயிரை	-9.19433
▁பேரை	-9.19593
▁அண்ணே	-9.19601
▁விடை	-9.19934
▁கண்ணே	-9.20009
▁தடை	-9.20199
▁செத்த	-9.2043
▁எழுதி	-9.20437
ாயே	-9.20507
ப்பது	-9.20514
▁உசுர	-9.20659
▁கடவுள	-9.20705
▁ஒண்ண	-9.20834
சா	-9.20857
▁ஒன்றாக	-9.20948
▁முகில்	-9.20963
ஸ்	-9.21321
▁கேள	-9.21545
▁முடியாத	-9.21633
▁கல்ல	-9.21671
▁சி	-9.21778
▁அழகை	-9.21831
▁ஓசை	-9.21862
▁நின்னா	-9.21933
▁தீயின்	-9.22252
▁அண்ணன	-9.22741
ான	-9.22753
▁ட	-9.22792
▁வீசி	-9.22803
▁பாத்த	-9.22859
▁நட	-9.23083
▁செல்	-9.2314
in	-9.23178
▁சாமி	-9.23387
▁மாத்தி	-9.23424
▁கொஞ்சும்	-9.23476
▁ஓர	-9.23535
உன்	-9.23588
▁இலை	-9.24186
கும்	-9.24279
L	-9.24315
ஞ்சு	-9.24374
▁மேக	-9.24515
▁பூமிய	-9.24757
▁மயங்கி	-9.2476
▁தெறி	-9.24794
▁விடு	-9.24994
▁சிரிக்க	-9.25085
▁கே	-9.2525
▁வீட்ல	-9.25267
▁ஜுவாலாமுகி	-9.25317
▁damn	-9.25318
▁மொதல்ல	-9.25319
▁ராத்திரி	-9.2532
▁கன்னம்	-9.25344
▁காத்து	-9.25354
▁கோமானே	-9.25354
▁Ay	-9.25363
▁உன்னோட	-9.25393
▁கோப	-9.25394
▁சொன்னாலும்	-9.25395
▁தெய்வம்	-9.25404
▁கேட்டேனே	-9.25404
▁தனிமையே	-9.25466
▁விண்ணில்	-9.25501
▁இன்பங்கள்	-9.25518
▁மாறாதே	-9.25521
▁தப்பா	-9.25588
▁வந்தேனே	-9.2559
▁நின்றேன்	-9.25594
▁பார்க்கிறாய்	-9.25623
▁இருக்கேன்	-9.25631
▁திரும்பும்	-9.2565
▁நேரில	-9.25773
▁நீங்களும்	-9.25775
▁மாயம்	-9.25788
▁சிறக	-9.25808
▁சுற்ற	-9.25899
வேன்	-9.2595
▁பண்ணு	-9.26067
▁2	-9.26098
▁இதுவே	-9.26103
ப்பாயா	-9.26134
▁நாங்கள்	-9.26152
▁சிறை	-9.2617
▁நி	-9.2621
▁விளக்க	-9.2624
▁எனும்	-9.26354
um	-9.26443
▁தங்கச்சி	-9.26495
▁பேச்சு	-9.26526
▁நடக்கும்	-9.26554
▁நெஞ்சே	-9.26575
▁வாங்கி	-9.26583
▁மீன்	-9.26653
er	-9.26844
▁விடிய	-9.26851
த்திடும்	-9.26863
▁தேடல்	-9.26898
▁பறந்து	-9.26948
▁தரை	-9.26995
வது	-9.27086
யம்	-9.27098
▁எதிர்	-9.27126
ளே	-9.27209
▁டம	-9.27242
▁சிரி	-9.27248
▁do	-9.27255
▁கூட்டி	-9.27331
▁கத	-9.27546
▁போட்டா	-9.27567
▁புள்ளி	-9.27649
▁1	-9.27883
ொன்றை	-9.27971
▁காட்டும்	-9.2824
▁இருள்	-9.28329
▁துடிப்ப	-9.28356
சம்	-9.28444
▁காடு	-9.28526
▁சூட	-9.28577
▁இறுதியி	-9.28622
படி	-9.28989
▁போன்	-9.29142
▁in	-9.29292
▁di	-9.2934
....!	-9.29519
ளும்	-9.30096
ல்கள்	-9.30159
▁எனக்கும்	-9.30293
▁Yo	-9.30444
▁எத	-9.3053
▁கிளி	-9.30604
▁அழகா	-9.3061
தின	-9.30873
▁நடந்து	-9.30894
▁அணைக்க	-9.30985
▁பிழை	-9.31063
▁மூட்ட	-9.31154
வோம்	-9.31163
ங்கி	-9.31229
▁போச்சு	-9.31256
▁கனவா	-9.31304
▁முன்னாள	-9.31447
▁ஊரு	-9.31544
▁காட்டி	-9.31588
▁பட்டு	-9.31783
லம்	-9.3179
கின்றேன்	-9.31852
▁கனவை	-9.31864
▁ஓட்டு	-9.31904
▁சிறித	-9.31927
▁ஹ	-9.3208
▁விண்ண	-9.3209
▁புத்தி	-9.32092
▁மையல	-9.32108
ங்	-9.3213
ாமலே	-9.32193
▁மாத்த	-9.3253
▁மூக்க	-9.32596
கிறோம்	-9.32956
▁மென்	-9.32978
▁darling	-9.33009
▁கணேசா	-9.3301
▁மனோகர	-9.3301
▁waiting	-9.3301
▁ஆராரோ	-9.33011
▁ஆயினும்	-9.33014
▁மெள்ள	-9.33014
கொண்டிருக்க	-9.33019
▁போதவில்லையே	-9.3302
▁வயவா	-9.33045
▁விழுதல்	-9.33046
▁கேட்கிறாய்	-9.33052
▁துகளாய்	-9.33057
▁உன்னுள்	-9.33068
▁தென்றல்	-9.33073
▁சந்தோஷமா	-9.33093
▁தந்தாயே	-9.33108
▁புதிதாய்	-9.33128
▁துன்பம்	-9.33153
▁யாழினி	-9.33155
▁நிலவாய்	-9.33192
▁போகுதே	-9.33197
▁நெஞ்செல்லாம்	-9.33217
டம்	-9.33222
▁பூம்	-9.33229
▁கீழே	-9.33231
▁ரெண்டில்	-9.33233
▁உன்னால	-9.3327
▁தீயாய்	-9.33293
▁வார்த்தைகள்	-9.33375
▁தோள்	-9.33386
▁மக்கா	-9.3339
▁f	-9.334
▁எங்கெங்க	-9.33422
▁உடல	-9.33432
▁ஊரில்	-9.33516
▁நொடியில்	-9.33531
▁கட்டு	-9.33575
▁விடியும்	-9.33619
▁காம	-9.33655
▁ஆண்	-9.33663
▁வெல்ல	-9.33685
▁இட	-9.33813
▁குடும்பத்த	-9.33847
▁என்னங்க	-9.33893
▁ஒண்ணுமில்ல	-9.34086
▁காதலாய்	-9.34122
▁நிறம்	-9.34124
▁மோகம்	-9.3414
▁நேற்ற	-9.34197
▁சிறகை	-9.34207
▁இனிய	-9.34432
oh	-9.34484
▁வெள்ள	-9.34625
ையிலே	-9.34628
ுகள்	-9.34815
▁பற்றி	-9.34816
▁bon	-9.34878
▁அதோ	-9.34906
▁மேனி	-9.35023
▁சா	-9.3504
▁முடியல	-9.35099
!\	-9.35111
▁கூத்த	-9.35266
▁திரும்பி	-9.35277
▁கடந்து	-9.35426
▁பந்த	-9.35433
லி	-9.35485
▁மின்னல	-9.35746
▁don	-9.35854
ogg	-9.35887
ுகிறாய்	-9.35957
▁மின்	-9.3597
▁மீ	-9.36003
▁போடும்	-9.36175
▁இதை	-9.36299
▁பு	-9.36345
▁பார்த்து	-9.36398
▁குப்பை	-9.36527
▁அவளை	-9.36539
▁எவ்வளவ	-9.36554
hous	-9.36755
லையே	-9.36773
ொன்று	-9.37098
▁கொள்ளும்	-9.37153
▁சேர்த்த	-9.37273
▁போகா	-9.37387
▁அவர்	-9.37515
▁வித	-9.37599
▁எடு	-9.37841
▁சோ	-9.37846
▁பரவ	-9.37852
▁தி	-9.37894
க்கிறேன்	-9.37903
▁பனி	-9.37934
த்திலே	-9.37945
▁நீள்	-9.37975
▁விதி	-9.38067
ிலிருந்து	-9.38074
▁மீன	-9.38339
▁மாப்பிள்ளைய	-9.38416
▁கோத்து	-9.38418
ிருக்கு	-9.38448
▁கூத்து	-9.38848
▁கூட்ட	-9.3887
▁கொடுத்து	-9.3893
▁பசி	-9.39094
தி	-9.39118
▁கட்	-9.39314
▁k	-9.39341
st	-9.39382
G	-9.39496
▁கூச்ச	-9.39509
▁ஆவ	-9.39522
▁பய	-9.39631
சந்தோஷ்	-9.39659
▁ஆலா	-9.39747
▁கொண்டா	-9.39932
▁நாவில்	-9.40002
▁உதிரா	-9.40033
▁தின்ன	-9.40092
▁ஜெய	-9.40211
▁ம்ம்	-9.40253
ற்	-9.4028
சு	-9.40478
▁ஏத்த	-9.40567
▁தந்து	-9.4058
▁கருவ	-9.40592
▁மாட்டி	-9.4066
த்தேன்	-9.40818
▁மீண்டு	-9.40924
▁நானு	-9.41052
ியும்	-9.41191
▁வெளி	-9.41216
▁சிலுக்குவார்	-9.41337
▁அனாமிகா	-9.41343
▁எஸ்ஸாலாமா	-9.41343
▁life	-9.41343
▁வாஹ்	-9.41345
▁Hey	-9.41345
▁சாலக்காரா	-9.41345
▁Amigo	-9.41345
▁oye	-9.41347
▁கண்மூடி	-9.41348
▁ஒசானா	-9.41349
▁அழுத்தவும்	-9.41349
▁மயக்காத	-9.41356
▁எதற்கு	-9.41368
▁தினக்கு	-9.41405
▁விழியிலே	-9.41409
▁காற்றை	-9.41411
▁எனக்காக	-9.41425
▁நிறைந்தாய்	-9.41427
▁முடியுமா	-9.41432
▁என்னாச்சு	-9.41439
▁திறந்தேன்	-9.4144
▁எனக்காய்	-9.41451
▁விழியால்	-9.41489
▁மாறாது	-9.41502
▁வண்ணங்கள்	-9.41506
h	-9.41511
▁மச்சான்	-9.41516
▁நெஞ்சோடு	-9.41522
▁பிடி	-9.41525
▁தெரிஞ்சா	-9.4153
க்காரா	-9.41538
▁இங்கில்லை	-9.41544
வென்று	-9.41553
லில்	-9.41553
▁நடுவினில	-9.4157
▁வாராய்	-9.41575
▁நின்ற	-9.41578
▁சொல்லடீ	-9.41617
உம்	-9.41631
▁சரக்கு	-9.41631
▁மனசுல	-9.41652
▁தோழன்	-9.41655
▁வேண்டாமே	-9.4167
▁ஹலோ	-9.41672
▁மாட்டான்	-9.4171
▁பூவின்	-9.41731
▁ஒருவனே	-9.41737
▁நாளில்	-9.41739
▁ஓவியம்	-9.41765
்கள்	-9.41796
▁மறக்க	-9.41803
▁நியாயம்	-9.41827
▁maaro	-9.41847
▁இப்பதான்	-9.41854
▁யாருன்னு	-9.41884
▁நொடிகள்	-9.41884
▁மட	-9.41916
▁வந்தாயே	-9.41926
▁வழியும்	-9.41942
▁இருந்தால்	-9.4197
▁மாட்ட	-9.41976
▁காற்றாய்	-9.41998
▁கூந்தல்	-9.42045
ட்டி	-9.42049
▁உலகே	-9.42101
▁காக்க	-9.42107
▁நீங்கிப்	-9.42155
▁மணம்	-9.42155
றீங்க	-9.4221
▁கணம்	-9.42219
▁உன்னைத்	-9.42288
▁விண்	-9.42326
று	-9.42426
▁கதைய	-9.42497
▁இடம்	-9.42512
▁போட்டோவ	-9.42526
▁ya	-9.4255
தன்	-9.42557
▁அடிச்சா	-9.42581
▁வானை	-9.42668
▁இளமை	-9.42679
▁குழல	-9.42698
ூபிடூப	-9.42727
▁இரவை	-9.42768
▁தேடும்	-9.42838
▁நடந்த	-9.42954
ரி	-9.42974
▁என்னிலே	-9.42996
ண்ணே	-9.43014
▁என்றாய்	-9.43046
▁முடிந்த	-9.43134
▁லோல	-9.43165
▁ஆகும்	-9.43194
ற்ற	-9.43217
▁மாய	-9.43342
▁இன்ப	-9.43393
ேதும்	-9.43571
▁வேர	-9.43698
▁பாடும்	-9.43772
ala	-9.4397
ாகி	-9.44215
▁D	-9.44298
▁நதி	-9.44412
▁அழுது	-9.44506
▁எதிரி	-9.44533
யென	-9.446
▁காய	-9.44611
▁அச்சமில்ல	-9.44714
▁யாரி	-9.44774
▁திற	-9.44824
▁சொன்னேன்	-9.44841
▁உனக்கென	-9.44944
▁ஒலி	-9.45186
are	-9.45227
▁g	-9.45315
▁sa	-9.45472
▁பொழுது	-9.45579
▁இழுத்து	-9.45627
▁சொன்னது	-9.45632
▁வண்ணமா	-9.45686
▁மாப்பிள்ளை	-9.45789
▁நிலவ	-9.458
▁தித்தி	-9.45827
▁விழுந்த	-9.46238
▁குடி	-9.46239
▁இருள	-9.4624
▁ம்ம்ம	-9.46306
▁போலாம்	-9.46308
▁கிடந்த	-9.46414
▁w	-9.46715
ிலுக்குவார்பட்டி	-9.46833
ெ	-9.46894
▁பட	-9.47035
▁தாண்ட	-9.47154
ஞ்ச	-9.47207
ுவோம்	-9.47242
ுகிறேன்	-9.47449
▁முட்டி	-9.47556
▁பிறந்த	-9.47775
▁வெச்சா	-9.47832
▁கண்ணின்	-9.47849
▁புயல	-9.47876
கி	-9.47982
▁மைய	-9.48196
▁வேளை	-9.48238
▁தனிமை	-9.48317
▁கொண்டாட	-9.48326
▁பூனை	-9.48372
▁மண்ணை	-9.48427
ோர்	-9.48546
▁cha	-9.48685
▁தூரிகை	-9.48712
▁தாவி	-9.48738
▁ஸ	-9.48837
▁கனவில்	-9.48987
க்கலாம்	-9.49018
▁நுழைந்த	-9.49099
▁தை	-9.4927
z	-9.49294
▁முடிவிலி	-9.49401
▁அழகென	-9.49409
▁வாழ்க்கைய	-9.49518
▁கடந்த	-9.49575
▁தேவை	-9.49697
கிட்டு	-9.49752
?\	-9.49799
▁நெஞ்சுக்குள்	-9.49802
▁வைத்து	-9.4981
▁கொடி	-9.49944
▁மௌன	-9.4995
us	-9.49981
ிங்கே	-9.50071
வனோ	-9.50108
ென்றால்	-9.50122
▁மன	-9.50165
▁இதழ	-9.50381
▁கொட்ட	-9.50385
▁வெங்காயம்	-9.50434
▁ரோமியோ	-9.50434
▁பிறந்தநாள்	-9.50437
▁சொல்லிவிடவா	-9.5044
▁தொழுவோம்	-9.50441
▁காண்கிறேன்	-9.50451
▁மென்மையாய்	-9.50454
▁இன்னொரு	-9.50459
▁நில்லாமல்	-9.5048
▁நானென்ன	-9.50483
▁தட்ட	-9.50491
▁பெண்ண	-9.50503
▁வழியிலே	-9.50508
▁தோளில்	-9.50539
▁தோழியே	-9.50553
▁குரலாய்	-9.50558
▁அத்தனை	-9.50578
▁நீயடா	-9.50578
▁நாளடி	-9.50581
▁எப்போதும்	-9.50603
▁S	-9.50634
▁சொல்லாமல்	-9.5065
▁காலங்கள்	-9.50653
▁அழுதல்	-9.50672
▁வேடம்	-9.50689
▁கண்ணிலே	-9.50739
▁கிட்னிய	-9.50744
▁ரத்தம்	-9.50782
▁பார்த்தேன்	-9.50803
▁இரவில்	-9.50804
▁எரியும்	-9.50819
▁வாழ்வில்	-9.50926
▁அச்ச	-9.50965
▁நல்லது	-9.50984
றியே	-9.51058
▁வீழ்ந்த	-9.51074
ப்போறேன்	-9.51088
▁கீழ்	-9.51118
▁பறக்கும்	-9.51256
▁துள்ளி	-9.51264
▁பூங்கா	-9.51285
▁ஆசைகள்	-9.51291
▁சூடும்	-9.51327
▁பாவி	-9.51352
▁தங்க	-9.51361
▁முடிவ	-9.51411
▁நெருப்பு	-9.51429
ூ	-9.51496
ுமா	-9.51556
▁தூ	-9.51595
▁கனவே	-9.51653
▁காற்றிலே	-9.517
▁மீறி	-9.51754
▁செய்யும்	-9.51782
▁ஏன்னா	-9.51818
▁ஏக்கர	-9.51841
▁ஷூ	-9.51907
▁போதைய	-9.51917
▁மர	-9.51976
▁p	-9.51983
▁இம்	-9.52004
▁மூளை	-9.52008
▁கரம்	-9.52025
▁நாமும்	-9.52086
▁!....	-9.52094
க்குது	-9.52186
▁சொல்லாய்	-9.52327
▁தூற	-9.52403
▁செய்	-9.52429
▁தீயே	-9.52429
ிருந்தேன்	-9.52476
ive	-9.5264
▁தீட்டி	-9.52761
▁moment	-9.52816
▁முயல	-9.52941
▁ஒற்ற	-9.5295
▁வேலைக்கு	-9.53079
▁பச்ச	-9.53101
▁போங்க	-9.53208
▁காத்த	-9.53224
▁உனைப்	-9.53244
▁மான்	-9.53356
▁எங்கள	-9.53401
▁தாய்	-9.53579
▁இதயத்தை	-9.53596
▁on	-9.53624
▁நீயோ	-9.53631
▁குளிர்	-9.53631
▁கொள்	-9.53647
▁நீக்க	-9.53712
▁சூப்பர்	-9.53726
▁ஏற்ற	-9.53732
ரின்	-9.53792
▁ரெண்ட	-9.53871
▁மி	-9.53882
▁பிடிக்க	-9.53915
▁அழை	-9.53918
▁da	-9.54137
ானே	-9.54156
ட்	-9.54229
வாய்	-9.54312
▁தேடு	-9.54352
▁பச்சை	-9.54612
ட்டுப்	-9.54642
▁இருக்கா	-9.54887
▁அன்னை	-9.5498
▁தெரி	-9.55327
ுப்	-9.55435
▁தவற	-9.55501
க்கிறாய்	-9.55526
▁கடல	-9.55656
▁se	-9.56002
▁பெ	-9.56192
▁எடுத்த	-9.56275
▁மயில	-9.56367
▁நமக்கு	-9.56466
▁தங்கச்சிக்கு	-9.56473
▁கரு	-9.56544
▁தேவதை	-9.56883
▁கட்டிப்	-9.56933
▁காச	-9.57027
னி	-9.57036
▁நாடு	-9.57092
▁சந்தன	-9.57128
▁திரி	-9.57147
ங்கும்	-9.57195
ெடுத்து	-9.57201
▁he	-9.57481
▁கூற	-9.57539
▁பூவை	-9.57798
ுதடி	-9.57802
ந்	-9.57882
▁எங்கண்ணன	-9.57947
▁பூக்கள	-9.58015
ப்போற	-9.58209
்வம்	-9.5839
க்குற	-9.58499
கம்	-9.58603
ீங்களா	-9.58711
J	-9.58848
O	-9.58872
ந்தன்	-9.58898
tin	-9.58916
▁தூரத்தில	-9.58964
▁sh	-9.58971
▁நெஞ்சுக்குள்ள	-9.59059
▁கிட்னி	-9.59319
▁நஞ்ச	-9.59471
▁புலி	-9.59471
▁சேர்ந்த	-9.59482
▁ஒம்	-9.59504
▁தூர	-9.59599
▁பூக்க	-9.59599
▁லவ்	-9.59603
▁விஜய்க்கு	-9.59657
te	-9.59674
▁காலு	-9.59808
ாலி	-9.59866
▁பிறவி	-9.59869
ஞ்சா	-9.59932
▁அன்பின்	-9.59942
▁என்னப்	-9.60009
▁ஓட்ட	-9.60077
ng	-9.60104
ங்கள	-9.6011
றை	-9.6013
..,	-9.60171
▁டப	-9.60275
த்துக்	-9.60281
▁அருகினில	-9.60294
▁மோஜோ	-9.60434
▁விரிஞ்சிட	-9.60434
▁yeah	-9.60434
▁மகாநதி	-9.60434
▁லபக்கு	-9.60435
ுள்ளே	-9.60439
▁முழுவதும்	-9.60439
▁சைரா	-9.60445
-1	-9.60445
ிச்	-9.60467
▁உணர்ந்தேன்	-9.60469
▁யாவுமே	-9.6047
▁ஹீல்	-9.60471
▁கேட்குதா	-9.60487
▁வெவ்வேறு	-9.60496
▁மட்டும	-9.60517
▁வரலாமா	-9.60523
▁ராதா	-9.60524
▁அறையில்	-9.60542
▁செய்வேன்	-9.60551
▁எஞ்சும்	-9.60561
▁கேட்பேனே	-9.60571
▁எதையும்	-9.60577
▁யாரடீ	-9.60604
▁மீதிலே	-9.60611
▁இந்தாங்க	-9.60624
▁ஆசைப்பட்ட	-9.60628
▁வெட்கம்	-9.60632
▁மாறாதா	-9.60656
▁time	-9.60691
வில்	-9.60707
தால்	-9.60707
▁படையில்	-9.60708
▁தூது	-9.60729
▁ரணம்	-9.60751
▁கேட்பேன்	-9.60785
▁சகா	-9.60816
▁இன்றே	-9.60826
▁மே	-9.60827
▁விடியல	-9.60834
▁கிடந்தேன்	-9.60836
▁பாத்தேன்	-9.60868
▁கொட்டு	-9.6089
▁அழகியே	-9.60904
▁முன்னேர	-9.60905
▁கொண்டால்	-9.60907
ிடுவேன்	-9.60922
▁முள்ள	-9.60944
▁ஏய்	-9.60977
▁மொழிகள்	-9.60982
▁தந்தேன்	-9.60991
▁தோன்றும்	-9.61006
▁குழப்பம்	-9.61051
▁உனக்கே	-9.61057
▁பார்த்தால்	-9.61101
▁தூவ	-9.61152
▁மோதும்	-9.61171
▁T	-9.61176
▁சொல்லடி	-9.61269
▁கூடவே	-9.61305
▁முதல	-9.61316
▁எனவே	-9.61421
▁தானோ	-9.61467
▁விண்ணோடு	-9.61475
▁குடிக்க	-9.61514
▁மன்னிப்ப	-9.61559
▁அன்ற	-9.61574
ோடும்	-9.61732
டக்கரா	-9.61769
ென்றே	-9.6177
▁தப்ப	-9.61845
▁நாட்ட	-9.61895
▁பாம்ப	-9.61961
▁வாசனை	-9.62002
▁நானோ	-9.62003
▁கூடாது	-9.62098
▁மாற்றம்	-9.62231
▁உடைந்தே	-9.62232
▁தொல்லை	-9.62331
கஸனா	-9.6234
▁உணர	-9.62427
மேல	-9.62506
▁நெகிழ	-9.62518
▁ஊரும்	-9.62525
ாவது	-9.62703
▁வாயில்	-9.62751
▁வந்தால்	-9.62801
▁கேக்காம	-9.62801
▁புதிதா	-9.62858
w	-9.63012
ப்போம்	-9.63042
பிட	-9.6336
▁அறை	-9.63648
யாட்டம்	-9.63702
▁கோக்க	-9.63832
விடு	-9.63846
▁கிழி	-9.63914
▁மணி	-9.63936
▁கோட	-9.64008
▁குத்த	-9.64036
▁ஸ்	-9.64093
வாயோ	-9.64097
▁ரி	-9.64131
zh	-9.64218
▁ராசா	-9.64231
ll	-9.64248
ால	-9.64377
▁விரிக்க	-9.64387
▁முயல்	-9.6441
▁தடக்கு	-9.64569
▁தம	-9.64601
▁ஃப	-9.64613
▁இவரு	-9.64727
▁முடிவு	-9.64787
▁அவனே	-9.64834
டை	-9.64865
▁மாத்து	-9.64965
ொல்லணும்	-9.64966
▁வேர்	-9.65013
▁வரம்	-9.65066
ரே	-9.65088
▁வேண்டும	-9.65217
▁நீள	-9.65278
▁பழி	-9.65437
▁ஏது	-9.65542
ச்சே	-9.6563
▁பொருள்	-9.65691
ினால்	-9.65786
▁நினைத்த	-9.65905
▁mo	-9.66027
▁இரவின	-9.66052
▁ஏழ	-9.66062
▁ஒங்	-9.66081
▁சொல்லிடு	-9.6615
▁அவ்	-9.66155
ினார்	-9.66169
▁தனியா	-9.66221
மாக	-9.6631
▁பறவைகள	-9.66397
▁இத்தன	-9.66431
▁கல்யாணத்த	-9.66469
▁சண்ட	-9.66544
▁ரெடி	-9.66635
▁விழிகளை	-9.66649
விடும்	-9.66693
னைப்	-9.66741
ச்ச	-9.67134
▁இடி	-9.67232
▁இதற்கு	-9.67387
ஞ்சி	-9.67401
வேனே	-9.67519
▁உறவு	-9.67778
ொளி	-9.67786
க்காக	-9.67901
▁வந்தது	-9.67926
▁தீயோ	-9.68221
▁நிஜமா	-9.68237
▁பத்த	-9.68258
▁மின்னாத	-9.68297
▁சுத்தி	-9.68299
▁தாள	-9.68427
▁ஓடு	-9.68447
ென்றும்	-9.6848
▁தேவ	-9.6856
▁நிழல	-9.68603
▁இல்லன்னா	-9.68611
▁அணை	-9.68673
▁சேர்க்க	-9.68675
▁கலை	-9.68738
ளி	-9.68762
▁ஆட்டு	-9.68816
▁அழகாக்க	-9.68906
▁முகில	-9.68935
p	-9.6896
▁ஆற்ற	-9.69001
▁பிடிச்ச	-9.69007
▁பண்ணின	-9.69129
களில்	-9.69217
▁குளிர	-9.69408
ரோ	-9.69436
ினி	-9.6959
▁நூல	-9.69593
▁பின்னாடி	-9.69687
ஏ	-9.69836
A	-9.69998
▁விதை	-9.70144
▁நாளா	-9.7015
▁wi	-9.7017
▁திசை	-9.70199
▁வீட்டில	-9.70219
▁பொண்ணுங்க	-9.7024
▁பயந்த	-9.70246
மெல்லாம்	-9.70262
▁லே	-9.703
ake	-9.70349
ியல்	-9.70415
▁கோப்பை	-9.70452
▁திரும்ப	-9.70557
▁கணக்கு	-9.70581
▁பாறை	-9.70595
▁உயர	-9.7069
▁முட்கள	-9.70743
▁வேறே	-9.70815
வின்	-9.70818
▁பூரா	-9.70836
மூச்சி	-9.71079
▁அவிழ்	-9.71171
▁கண்ணுக்குள்ள	-9.71173
விட்டேன்	-9.7125
ச	-9.7128
▁தாயி	-9.7128
▁கோக்கும்	-9.71303
வி	-9.71329
க்கின்ற	-9.71402
ுதோ	-9.71469
▁லேசா	-9.71508
▁றெக	-9.71535
▁kilikki	-9.71545
▁girl	-9.71545
▁யௌவனா	-9.71545
▁கிரிக்கெட்டு	-9.71545
▁நூறாயிரம்	-9.71545
▁கெளம்பிட்டாளே	-9.71546
▁தயங்காதே	-9.71546
▁baaha	-9.71547
▁சிறகடிப்பேன்	-9.71547
▁கூட்டாளி	-9.71547
▁ஏகனே	-9.71547
ோடி	-9.71552
▁களைகிறாய்	-9.71555
-2	-9.71557
▁வருவாய	-9.71561
▁தீப்பொறி	-9.71562
▁lover	-9.71565
▁ஒஹோ	-9.71565
▁அறிவாயா	-9.71566
▁கண்ணாளா	-9.71569
▁ரேகை	-9.71574
▁உனக்க	-9.71586
▁விட்டாளே	-9.7159
▁லாவா	-9.71594
▁சென்னை	-9.71596
▁காணவில்லை	-9.71597
▁can	-9.71603
▁மழையென	-9.71605
▁மொரடா	-9.71609
▁செல்போன	-9.7161
▁தருதல்	-9.71611
▁hey	-9.71617
ானா	-9.71618
▁பார்ட்டி	-9.71622
▁விரட்டு	-9.71624
▁காமியோ	-9.71626
▁பாரடீ	-9.71633
▁பாக்காம	-9.71634
▁அசையும்	-9.71649
▁பார்ப்பாயா	-9.71653
▁எப்போவும்	-9.7166
▁ஜோதி	-9.7167
▁உறவ	-9.71672
▁மரணம்	-9.71675
▁கொண்டாட்டம்	-9.71696
▁இடை	-9.71706
▁வீழ்கிறேன்	-9.71762
▁தாகம்	-9.7177
▁நிஜமே	-9.71774
▁இரகசியம்	-9.71805
▁தீபம்	-9.71819
▁பின்பு	-9.71839
▁காத்துல	-9.71905
▁எனக்கே	-9.71917
▁இதெல்லாம்	-9.71943
யோடு	-9.71977
ினோம்	-9.71984
▁துளியும்	-9.72016
▁காதலிக்க	-9.7202
▁தேநீர	-9.72023
கால	-9.72067
▁வெறும்	-9.72071
▁ஒடி	-9.72092
▁எண்ணி	-9.721
▁கொடுத்தாய்	-9.72202
▁நாணும்	-9.72255
▁இதழ்கள்	-9.72284
▁போலீஸ்	-9.72338
▁இல்லையின்னா	-9.72395
▁போரு	-9.72398
▁செய்தாய்	-9.7253
▁சிறையை	-9.72541
▁எதை	-9.72578
▁வாசல்	-9.72607
▁கொம்ப	-9.72613
ாரு	-9.72614
▁வேறா	-9.72616
▁மறந்தேன்	-9.72689
▁குதிர	-9.72727
▁கல்யாண	-9.72747
▁சுவாசம	-9.72841
▁எங்கடா	-9.72894
▁சுற்றி	-9.72897
ion	-9.72974
ட்டும	-9.72988
▁அண்ட	-9.7299
▁பூவே	-9.73091
▁ஈர	-9.73139
▁நெ	-9.73169
▁துயர	-9.73196
▁மனது	-9.73233
டியோ	-9.73322
▁விரல்கள	-9.7347
▁விடிந்த	-9.73541
▁பின்னும்	-9.73621
▁நீக்கி	-9.73723
▁மறைந்த	-9.73746
▁பாய	-9.73831
▁மறை	-9.73897
ஆம்	-9.73917
▁அம்மாவ	-9.73936
▁உருவம	-9.73983
னமோ	-9.74014
▁வந்தப்	-9.74109
▁போர	-9.74139
▁போகன்	-9.74144
▁கோட்ட	-9.74201
▁சேத்த	-9.74235
▁பயம	-9.74244
▁இள	-9.74257
▁ஷ	-9.74307
▁மண்ணோடு	-9.7438
▁wh	-9.74593
▁நிறைய	-9.7461
▁டக்கு	-9.74752
▁மொ	-9.74763
rty	-9.74784
▁உடம்பு	-9.74849
▁நெஞ்சும்	-9.74895
▁என்னென்ன	-9.74956
▁முகத்த	-9.74958
▁!...	-9.74962
▁சூரியன	-9.74993
▁சொத்து	-9.75076
!..	-9.7509
▁தொட்டா	-9.75146
▁லீல	-9.75315
▁செல்லும்	-9.75335
▁co	-9.75398
▁சொல்லை	-9.7542
▁மாட்டேன்	-9.7548
▁கழுத்த	-9.75486
▁சேர்	-9.75692
▁முடிஞ்ச	-9.75854
dh	-9.75952
▁இன்மை	-9.75982
▁உரசி	-9.76083
▁மீசை	-9.76403
▁உசிர	-9.7641
▁பேசறது	-9.76584
▁அழைத்து	-9.76622
▁அன்பு	-9.76634
▁தெரியாத	-9.76671
▁ஏந்தி	-9.7674
ையாய்	-9.76788
ஸு	-9.76891
ப்புட்டா	-9.76935
▁புதிய	-9.76981
▁ஆட்ட	-9.77055
ிரியா	-9.77125
▁கிள்ளி	-9.77225
▁குருதி	-9.77458
சை	-9.77489
▁விட்ட	-9.77495
மர	-9.77578
▁v	-9.77601
▁சாப்பிட	-9.77626
க்குள்ளே	-9.77634
▁வார்த்த	-9.77655
▁Ma	-9.77695
ையை	-9.77717
en	-9.7773
▁பூவா	-9.7795
ைகளில்	-9.77996
▁சுவர	-9.78001
ுக்கும்	-9.7801
▁நினைவு	-9.78103
▁சத்தம	-9.78506
▁விழியின்	-9.78531
▁செடி	-9.78539
▁நாலு	-9.78595
▁மாறு	-9.78725
▁நீல	-9.78906
கை	-9.78918
த்தால்	-9.7892
▁பூக்களை	-9.7892
▁நுழை	-9.78941
▁போவ	-9.78973
▁கூப்பிடு	-9.79103
▁n	-9.7913
▁மெய்யா	-9.79181
▁கீறி	-9.79244
▁தமிழ	-9.79248
னைக்	-9.79273
▁நாண	-9.79353
▁டே	-9.79361
▁அழுத	-9.79368
ாதீங்க	-9.79457
▁தீர்ந்த	-9.7952
▁G	-9.79648
▁அக்	-9.79707
வு	-9.79819
▁பாரத	-9.79837
▁வாடா	-9.7986
ினேன்	-9.79908
▁பிள்ளை	-9.7992
ினாய்	-9.79935
▁விண்மீன்கள	-9.79951
▁கனவோ	-9.80054
▁Do	-9.8014
▁குளி	-9.80229
▁வாழு	-9.80293
யர்	-9.80304
▁குடித்த	-9.8035
▁வானின்	-9.80366
ன்று	-9.80425
▁இருவரு	-9.80451
டுவேன்	-9.80465
▁மனசுக்கு	-9.8055
▁கையி	-9.80566
▁காற்றின்	-9.80567
▁எரிக்க	-9.80608
▁உண்டா	-9.80614
▁உருவ	-9.80746
வான்	-9.80751
▁நினைவ	-9.80842
ந்தை	-9.80904
▁விர	-9.81009
ிக்கோ	-9.81019
▁மறந்திட	-9.81058
▁நம்பிக்கை	-9.81061
▁கீற்ற	-9.81176
▁சாய	-9.81179
▁வேலி	-9.8118
▁புதை	-9.812
▁நிறமா	-9.81226
le	-9.81347
▁பார	-9.81536
▁விலக	-9.81688
ட்டில்	-9.81748
ாட	-9.81758
▁நெனச்சு	-9.81778
▁மென்மை	-9.81811
▁வரைந்த	-9.81971
▁வல	-9.82113
▁சூழ	-9.82183
▁வெள்ளைத்	-9.82222
சித்தப்பா	-9.82251
ற்றிடும்	-9.82264
ஹோ	-9.82278
▁இணைய	-9.82295
▁சொ	-9.82386
▁வேண்டாம	-9.82474
துமே	-9.82596
ாம்	-9.82729
▁மறைக்க	-9.82755
▁காதலுக்கு	-9.82799
▁மஞ்ச	-9.82815
▁வலிகள	-9.82831
▁i	-9.83001
துவோ	-9.83113
▁பாத	-9.83179
▁சத்த	-9.83195
▁எவ்வ	-9.83222
▁திரிய	-9.83491
▁எதிர்கால	-9.83505
▁நேரத்தில	-9.83529
▁அடிச்ச	-9.83613
▁பொட்ட	-9.83628
▁விழிய	-9.83665
▁உணர்வ	-9.83697
▁ஹலன	-9.83706
▁பொய்கள	-9.83716
▁வருமா	-9.83755
▁முன்னால	-9.83771
▁சிறகுகள	-9.83863
▁வாச	-9.83875
▁இரவ	-9.83892
▁வெட்ட	-9.83914
▁வீசு	-9.83994
▁நெருப்ப	-9.84018
▁ப்ரண்ட்	-9.84027
▁வீண	-9.8403
▁ஒட	-9.84037
▁Shut	-9.84045
▁ஆலிலாலிலோ	-9.84045
▁ஞாபகம்	-9.84045
▁மின்மினி	-9.84045
▁மெகரசைலா	-9.84045
▁வவ்வவ்வவ்	-9.84045
▁Chicks	-9.84045
▁யாவிலும்	-9.84045
▁வசமாக்கு	-9.84045
▁ரோஜா	-9.84046
▁like	-9.84047
▁பாலகுமாரி	-9.84048
▁Con	-9.84048
▁night	-9.84049
▁ஐங்கர	-9.8405
▁ரோசா	-9.8405
▁நாடகம்	-9.84051
▁wow	-9.84051
▁Tā	-9.84052
▁trap	-9.84053
▁முடிவெடுத்து	-9.84058
▁வயசுல	-9.84058
▁ஜோடி	-9.84068
▁வீறு	-9.84069
▁பெரிது	-9.84074
▁ஏஞ்சோ	-9.84074
▁மிச	-9.84075
▁அடிமன	-9.8408
▁நிச்சயம்	-9.84082
▁இறங்கி	-9.84085
▁தூரிகா	-9.84093
▁பாத்துக்கலாம்	-9.84101
▁மாற்றி	-9.84108
▁முழுசா	-9.84112
▁எனக்கென்ன	-9.84118
▁அதிகாலையே	-9.84124
▁வாராயோ	-9.84137
▁ஆனேனே	-9.8415
▁nadhi	-9.84153
▁தோழனே	-9.8416
▁இதயத்திலே	-9.84161
▁தூறலாய்	-9.84166
▁கிடையாது	-9.84173
lly	-9.84173
▁பிரேம	-9.84184
▁சொல்கிறேன்	-9.84192
▁பாய்கிறாய்	-9.84206
▁நிகழும்	-9.84217
▁போதிலே	-9.84224
▁ஆழி	-9.84225
▁இருந்தாலும்	-9.84232
▁செல்லம்மா	-9.84233
▁ஒருத்தன்	-9.84271
▁முடிக்க	-9.84272
▁கண்கள	-9.84278
▁வெடிக்கும்	-9.84287
▁போனாலும்	-9.84287
▁டப்பா	-9.84289
▁சாலைகள்	-9.8429
▁ஒளியாய்	-9.84292
▁துடிக்குது	-9.843
▁உன்னிடம்	-9.84313
▁கூல்டிரிங்ஸ்	-9.84316
▁ஜ	-9.84327
▁அதுக்குள்ள	-9.84336
▁பார்வையில்	-9.84336
▁நிக்க	-9.84342
▁தானடி	-9.84382
த்திட	-9.84385
▁தாலி	-9.84385
▁now	-9.84393
▁பெண்கள்	-9.84394
ry	-9.84404
▁டாப்பா	-9.8446
▁காலமே	-9.84485
▁கைகள	-9.84499
▁யூ	-9.84519
▁வருமாம்	-9.84524
▁அள்ளித்	-9.84531
சலங்கை	-9.84547
▁எண்ணெய	-9.84556
▁தலையில்	-9.84566
▁டக்குன்னு	-9.84584
j	-9.846
▁கண்ணுக்குள்ளே	-9.84639
▁மலைய	-9.84688
▁பஞ்ச	-9.84725
▁காணாத	-9.84738
▁அடிடா	-9.84748
▁up	-9.84772
▁முளைத்த	-9.84774
▁பாத்துக்க	-9.84778
▁bo	-9.84786
▁நீரில்	-9.84813
▁சரியா	-9.84831
ையோ	-9.84837
▁கூட்டில்	-9.8486
▁பூமியில்	-9.84961
▁தூக்கிப்	-9.84977
▁கூறு	-9.85008
▁ஒப்பி	-9.85048
▁காயங்கள்	-9.85068
▁பண்ணுங்க	-9.85107
▁நீட்டி	-9.85134
▁ஆயுள	-9.85141
▁சிரிக்கும்	-9.85212
▁விரல	-9.85214
ற்றைக்	-9.85233
ானோ	-9.85235
▁உடன்	-9.85273
▁மானம்	-9.85304
▁கொண்டாய்	-9.85352
am	-9.85388
▁கோல	-9.85408
▁L	-9.85421
▁சரிதான்	-9.85421
▁கொட்டும்	-9.85443
▁தலைய	-9.8549
▁துளிகள்	-9.85526
▁ro	-9.85528
க்குறன்டீ	-9.85555
▁உச்ச	-9.85555
▁சிந்து	-9.85593
▁சேர்ந்து	-9.85611
▁ஆறும்	-9.85646
▁இரண்டும்	-9.85715
▁we	-9.85772
▁போனால்	-9.85802
N	-9.85817
bo	-9.8584
▁h	-9.85975
கொண்ட	-9.86003
▁கரைய	-9.86072
▁பாட்ட	-9.86197
▁தொட்டி	-9.86254
▁காணாம்	-9.86256
▁பல்ல	-9.86257
▁ஏந்த	-9.86386
▁இதன்	-9.86405
▁ஸ்ட	-9.86462
▁வளைய	-9.86541
ில	-9.86668
▁மூணு	-9.86808
▁போராட	-9.8686
at	-9.8691
▁மாடி	-9.86979
▁வந்துவிட்டா	-9.8699
▁மாம	-9.8703
▁திட்டம	-9.87066
▁சண்டை	-9.87109
ாம்பாம்	-9.87137
▁பண	-9.87159
▁பழ	-9.87206
ip	-9.87259
ā	-9.87264
▁விளையாடு	-9.87314
▁அழகி	-9.87325
▁வளர்ந்த	-9.87337
▁நிலைமை	-9.87367
▁மயக்க	-9.87424
▁சந்த	-9.87557
யாகி	-9.87566
▁வானே	-9.87659
▁இன	-9.87706
▁கோவில	-9.87751
▁நேற்றை	-9.87787
▁பற	-9.87866
▁தெரிய	-9.87912
வரை	-9.87947
▁சு	-9.87954
▁இவர	-9.88034
▁மான	-9.88241
▁மனம	-9.88271
ஃபி	-9.88408
▁shou	-9.88477
▁வெள	-9.88491
போது	-9.88645
00	-9.88701
▁கஸன	-9.88707
▁நினைக்க	-9.88747
ram	-9.88798
ிருப்பாய்	-9.88817
▁அதிகாலை	-9.88882
▁அறிவ	-9.89024
▁பாக	-9.89156
▁மந்திரம	-9.89205
னமாய்	-9.89213
▁தோன்ற	-9.89253
▁தைரியம	-9.89296
ள்ள	-9.89312
▁என்றது	-9.89317
▁நுரை	-9.89357
▁விண்மீன்	-9.8936
▁கிறுக்கு	-9.89658
▁கேட்பாய	-9.89661
▁தெரியல	-9.89691
▁ஈரம	-9.89736
ுக்குத்	-9.8982
▁கொண்டாடி	-9.89836
▁குற்ற	-9.90044
▁பூத்த	-9.90114
▁வளத்த	-9.90115
கூட	-9.90127
▁பெயரை	-9.90133
▁பத்து	-9.90225
▁அண்ணனுக்கு	-9.9026
▁இவளை	-9.90333
▁துளியா	-9.9036
▁தூண்ட	-9.90448
▁அழகின	-9.9051
▁அவிழ	-9.90553
ாவும்	-9.9056
om	-9.90617
▁ஒருவன	-9.9068
▁செம்ம	-9.90746
▁அனுப்ப	-9.90776
▁ஹா	-9.90915
▁po	-9.90929
ந்தி	-9.90952
டியே	-9.91217
▁திறந்து	-9.9122
▁ஆச்சு	-9.91377
வாள்	-9.91475
▁சேந்தா	-9.91521
▁P	-9.91521
▁உரசிட	-9.91599
▁டம்	-9.91601
▁சிந்த	-9.91614
▁ஒன்றின்	-9.91816
▁வீ	-9.92086
▁பொண்ணுக்கு	-9.92151
▁இதயம	-9.92172
ற்று	-9.92189
▁குளிக்க	-9.923
▁காட்டுக்குள்ள	-9.92314
ண்டா	-9.92346
▁அடிச்சு	-9.92378
ென்	-9.92403
▁இஸ்	-9.92458
ெல்லாமே	-9.92493
▁இவ்	-9.92552
▁தேய	-9.92559
னின்	-9.92594
▁மலர்	-9.92645
▁கார	-9.92705
▁கிடைக்க	-9.92712
▁என்றேன்	-9.92737
▁கண்களோ	-9.9277
ிருக்கும்	-9.92806
▁நில	-9.92888
▁ராஜாவ	-9.92889
த்திக்க	-9.92956
▁பருக	-9.9301
▁மெ	-9.93144
தென்ன	-9.93209
த்திரிய	-9.93305
▁கொள்ளி	-9.93312
▁திருடி	-9.93335
▁மீச	-9.93377
▁படிக்க	-9.93567
▁வானத்த	-9.93602
ிடு	-9.93643
▁கோள்	-9.93732
ேனோ	-9.93739
▁பால்	-9.93781
▁கிறுக்கன	-9.93838
▁உதிர	-9.93886
▁இக்	-9.94001
▁தூங்கும்	-9.94048
▁பொருள	-9.94095
▁காட	-9.94174
என்	-9.94226
யின்றி	-9.94256
▁தோட்டத்து	-9.94291
▁பாக்குற	-9.94349
▁நிகழ்	-9.94379
ுதடீ	-9.94537
▁கதவ	-9.94555
▁சிரிப்பு	-9.94593
▁செல்லமா	-9.94616
வெல்லாம்	-9.94619
▁டீ	-9.94732
▁கம்பெனி	-9.94826
ுக்கோ	-9.94871
ையால்	-9.94911
▁அழைக்குத	-9.94921
ue	-9.95048
all	-9.95063
▁ஏன	-9.9517
▁சட்ட	-9.95235
▁ஹோலி	-9.95268
ிட்டேன்	-9.95269
▁பழகு	-9.95285
▁நாளு	-9.95326
▁உண்மையா	-9.9537
▁பிச்சு	-9.95452
▁எழுத	-9.95486
▁பிடித்த	-9.95583
▁கல்	-9.95609
▁யாரென	-9.9565
▁இல்லாம	-9.95721
▁தின	-9.95741
▁இல	-9.95755
▁மோத	-9.95828
▁கிடக்க	-9.95915
▁ஆணா	-9.96013
▁மிச்சம	-9.96031
▁கத்தி	-9.96088
▁பெரும	-9.9612
▁அடை	-9.96198
▁வேர்கள	-9.96214
ஓ	-9.96265
▁எதிர்க்க	-9.9629
▁தொட்ட	-9.96349
▁இவ்வ	-9.96427
day	-9.96448
▁கனவினை	-9.96475
▁அதிர	-9.965
ரகுபதி	-9.96566
ரை	-9.96579
முத்து	-9.96625
▁தலைவன	-9.96652
▁புரிய	-9.96827
▁போர்க்களம	-9.96831
▁ஏங்க	-9.96885
ள	-9.96947
▁அடிமை	-9.96976
ிரு	-9.96978
▁லா	-9.97093
▁ஒன்றென	-9.97255
▁புரியா	-9.97277
போலே	-9.97315
ங்கற	-9.97351
ுங்	-9.97405
▁சிற	-9.97424
கின்ற	-9.97427
et	-9.97446
▁எங்கோ	-9.97545
▁அறிந்த	-9.97602
ody	-9.97791
▁அடட	-9.97804
▁மின்சார	-9.97839
▁நிற்கும்	-9.97876
▁உனத	-9.97932
ித்	-9.98105
குவத	-9.9814
க்குத்தான்	-9.98141
ண்ட்	-9.98152
▁எண்	-9.98168
▁தாங்க	-9.98208
▁சட்டைய	-9.98238
▁not	-9.98251
▁விசியத்த	-9.9828
▁தெரியாம	-9.9831
▁லட்ச	-9.98329
▁சீல	-9.9833
▁ஜென்ம	-9.9833
▁chumbaa	-9.9833
▁டூயட்	-9.9833
▁தாறுமாறு	-9.9833
▁பொன்னுத்தாயி	-9.9833
▁பொல்லாத	-9.9833
▁பட்டாம்பூச்சி	-9.98331
▁பீமனோ	-9.98331
▁நேரமிது	-9.98331
▁சங்கிலி	-9.98331
▁facebook	-9.98331
▁ஹீரோ	-9.98332
▁தக்காளி	-9.98332
▁பழகிவிடும்	-9.98334
▁ஹக்கூ	-9.98334
▁ஒழுங்க	-9.98334
▁அகலாதே	-9.98335
▁over	-9.98335
▁யாரிருக்கா	-9.98338
▁உரிமை	-9.98339
▁get	-9.98345
▁விசியம்	-9.98349
▁மெதுவாய்	-9.98355
▁தடுமாறி	-9.9836
▁ஒன்றாகுதே	-9.98361
▁காத்தாடி	-9.98368
▁தீராமல்	-9.9837
▁ஞாலம	-9.98372
▁Si	-9.98372
▁மிருதா	-9.98376
▁trick	-9.98378
▁ஆலாலா	-9.98381
▁நெருங்கி	-9.98382
▁என்னாவேன்	-9.98388
▁சாங்க்	-9.98394
▁வீரனே	-9.98396
▁நொடியினில்	-9.98396
▁கடமை	-9.98403
▁நட்பாய்	-9.98403
▁Aye	-9.98409
▁கணினி	-9.98421
▁ஆவேனோ	-9.98424
தில்லை	-9.98426
▁மவனே	-9.98427
▁வானெங்கும்	-9.98434
▁ஐலா	-9.9844
▁சைக்கிள்	-9.98441
▁ஏத்துக்கோ	-9.98463
▁போன்னே	-9.98469
▁மழையிலே	-9.9847
▁தேவையா	-9.98478
▁எடுத்துட்டு	-9.98479
▁கேட்குதே	-9.98481
▁பார்க்காமல்	-9.98493
▁கண்ணம்மா	-9.98497
▁அவளுக்கு	-9.98518
▁து	-9.98518
▁போக்கில்	-9.98521
▁இமையே	-9.9853
▁வழிய	-9.98541
▁சொந்தமா	-9.98542
▁சூடு	-9.98552
▁தீராதே	-9.98566
▁உடைந்து	-9.98593
▁பண்ணிட்டு	-9.98599
▁இசையாய்	-9.98608
▁8	-9.9861
▁நடுவிலே	-9.9861
▁எனக்குள்ளே	-9.98611
▁கல்யாணத்துக்கு	-9.98617
▁கோவம்	-9.98657
▁பாரடா	-9.98666
▁ஆகிறேன்	-9.98685
▁தாயேன்	-9.98685
▁உனக்காய்	-9.98705
▁ஏதேத	-9.98707
▁வாங்கிக்க	-9.98711
▁எம்மை	-9.98728
▁எதிரே	-9.98758
▁வெண்ணிலவ	-9.98761
▁பேர்ல	-9.98797
▁ராமா	-9.98805
ையின்	-9.98807
▁உன்னுள்ளே	-9.9881
▁போனாளே	-9.98817
▁சுகம்	-9.98828
▁இன்	-9.98842
மூ	-9.98842
▁கீழும்	-9.98844
▁இணையே	-9.98861
ிவ	-9.98872
▁ஆனாயே	-9.98888
▁நல்லவன்	-9.989
▁ஆயுத	-9.98911
▁நெருங்க	-9.98913
▁பார்த்தல்	-9.98931
li	-9.9895
▁விரியும்	-9.98972
▁மடியில்	-9.98996
▁ஐயா	-9.98998
▁கொல்ல	-9.99039
▁இருந்தேன்	-9.99045
▁உடைக்கும்	-9.99048
காதல்	-9.99049
ணி	-9.99052
▁பங்களா	-9.99062
▁முகிலே	-9.99107
▁போகாதே	-9.99116
▁வெச்சான்	-9.99134
▁திருப்பி	-9.99139
▁போதாத	-9.99147
▁அதெல்லாம்	-9.99198
▁பிடிக்கும்	-9.99217
▁உலகத்தில்	-9.99257
▁சந்தோஷம்	-9.99258
ாயடி	-9.99261
ர்ப்பாயா	-9.99265
▁கரையும்	-9.99299
▁கொய்த	-9.99342
▁உருகி	-9.99346
டே	-9.99358
▁தந்தான்	-9.99379
▁மல்லி	-9.99393
▁கேட்டால்	-9.99404
▁டண்ட	-9.99415
▁பேச்சே	-9.99454
▁வந்ததே	-9.99462
▁பொழுதும்	-9.99502
கிறேனா	-9.99506
and	-9.99513
▁விதைத்த	-9.99533
▁ஒசர	-9.99552
▁எனக்குன்னு	-9.99554
▁ஒப்ப	-9.99558
ற்றும்	-9.99645
▁to	-9.99647
ோனே	-9.99656
▁வழியே	-9.99684
▁நேரத்தில்	-9.99782
▁முழிய	-9.99792
▁நீங்காதே	-9.99812
▁வேர்களை	-9.99833
▁முட்டா	-9.99836
▁அழகிய	-9.99847
க்கெட்டு	-9.99865
▁போலவே	-9.99882
வென	-9.9993
தெல்லாம்	-9.9999
▁நகர	-10
▁பெற	-10.0005
▁போராடு	-10.0007
▁சொட்டு	-10.0009
▁அம்	-10.0022
▁தழுவ	-10.0024
▁பாச	-10.0025
டையும்	-10.0046
▁ஓரம்	-10.0047
▁சொன்னான	-10.0049
ணு	-10.005
▁கொட்டி	-10.0055
▁தீர்ந்தால	-10.0058
▁O	-10.0064
▁உரைக்க	-10.0068
▁வாரம்	-10.0074
▁இடைவெளி	-10.0079
▁பாவம்	-10.0081
▁நீய	-10.0085
▁சொல்லாத	-10.0093
▁இளம	-10.0097
▁என்றெ	-10.0099
▁தீர	-10.0099
▁உயிரும்	-10.0116
▁காவல்	-10.012
▁பறந்த	-10.0124
▁தங்கச்சிய	-10.0125
▁ma	-10.0125
▁மயில்	-10.0127
ஃப	-10.0131
▁கையிலே	-10.0139
▁முகம	-10.0139
▁எதுவும	-10.0142
▁நீயில்லை	-10.0149
தத்தின	-10.0154
▁தரும்	-10.0159
▁ரத்த	-10.0162
▁உள	-10.0169
▁எப்ப	-10.0172
▁கன்னத்தில	-10.0174
ுக்குள்	-10.0174
▁காயங்கள	-10.0179
▁படிப்ப	-10.018
சங்கள்	-10.018
▁இவ்வளவு	-10.0185
▁போதே	-10.0185
▁சொட்ட	-10.0194
ின்றேன்	-10.0195
▁உல	-10.0199
▁அதுதான்	-10.02
▁மோ	-10.0207
▁வைர	-10.0207
▁போட்டோ	-10.022
▁விழிகளில	-10.0222
▁முட்ட	-10.0224
▁பானை	-10.0228
▁நரம்ப	-10.0242
ttle	-10.0244
▁அவனை	-10.0246
▁பேசுங்க	-10.0256
ஞ்சத்தில்	-10.0262
▁பூக்கச்	-10.0272
nna	-10.0274
கூழ	-10.0285
▁சேந்து	-10.0288
▁புதித	-10.0294
ம்பி	-10.0297
▁அலைகள	-10.03
▁உரு	-10.0301
▁பூமியை	-10.0302
▁இருளின	-10.0308
▁மெய்யின	-10.0308
வெளி	-10.0311
▁நூலிலே	-10.0319
▁நேற்றி	-10.0322
ுக்குள்ள	-10.0333
ப்பான்	-10.0334
▁மிதக்க	-10.0354
▁நூல்	-10.0371
▁மேள	-10.0373
▁சின	-10.0378
▁ஆப்	-10.0385
நா	-10.0387
▁விடுதல	-10.0387
▁ஒட்ட	-10.0388
▁அணிந்தே	-10.0394
▁அல	-10.0394
▁ஊது	-10.0395
▁பார்த்துக்	-10.0399
▁தோ	-10.0405
ின்னு	-10.0407
▁தேன	-10.0428
▁தொறக்க	-10.0429
ப்படி	-10.043
க்கே	-10.0431
▁அனுப்பி	-10.0433
▁பாப	-10.0444
▁வேண்டி	-10.0446
▁அவருக்கு	-10.0458
▁குமார	-10.0463
▁முத	-10.0463
▁நிறுத்த	-10.0465
▁ஆழ	-10.0465
▁துணைய	-10.0468
▁மனிதர	-10.0469
▁வேறோர	-10.0485
▁ஆமாங்க	-10.0499
க்கிறாள்	-10.0502
▁நிறத்த	-10.0502
▁மோக	-10.0508
▁தேக	-10.052
ண	-10.0524
▁உட	-10.0552
▁கேக்காத	-10.0558
▁வழியில்	-10.0571
ுறேன்	-10.0575
▁அமைதி	-10.0588
▁சொர்க	-10.0599
▁வைத்தேன	-10.0609
▁ஆட்சி	-10.061
▁சீதை	-10.0627
க்காதே	-10.0633
▁கிழிய	-10.0636
▁முடிய	-10.0639
▁விச	-10.0639
▁அழுத்து	-10.0643
▁நீந்த	-10.0646
sh	-10.0657
▁சந்தோஷ	-10.0659
▁ஒலிக்க	-10.0662
▁பூட்ட	-10.0663
▁ஊதி	-10.0671
▁கூச	-10.0681
திரை	-10.0688
▁தீய	-10.0695
▁சேத்து	-10.0696
ுவான்	-10.0701
▁நம்பிக்க	-10.0709
▁எட்டி	-10.0715
▁d	-10.0725
▁நடு	-10.0726
ரத்தில்	-10.0726
▁மண்டக்க	-10.0727
றோம்	-10.0733
▁ரத	-10.0735
r	-10.0745
▁சை	-10.0746
வ்வி	-10.0748
ட்டிப்	-10.0761
துவும்	-10.0763
ிக்க	-10.0763
ன்ன	-10.077
▁வேறெ	-10.077
▁படைய	-10.0774
டடா	-10.0789
▁மழலை	-10.0789
▁ஹோல	-10.0805
▁சொன்னத	-10.0806
▁ஒன்	-10.0815
▁சிவ	-10.0826
▁கூடாத	-10.0834
▁முற்று	-10.0836
விட	-10.0862
▁உலவ	-10.0869
▁ஆகு	-10.0871
▁உரசல	-10.0875
▁மேட	-10.088
▁காப்பாத்துவ	-10.0894
ட்டுக்	-10.0895
▁யோசன	-10.0895
கிறதே	-10.0903
▁பொழிய	-10.0934
▁சோகம	-10.094
▁உலகு	-10.0958
▁ஏற்றுக்	-10.0971
▁தள்ள	-10.0976
க்குதே	-10.0984
▁boo	-10.099
▁ய	-10.099
▁கட்டிக்	-10.1004
▁உயிரின்	-10.1006
▁குலுங்க	-10.1008
▁நம்பி	-10.1009
ுக்குள்ளே	-10.1011
▁நண்பன	-10.1016
▁கொடிய	-10.1018
▁தோன்றி	-10.103
▁புறப்படட	-10.1034
▁ஆடி	-10.1034
▁உர	-10.1044
▁அவ்வான	-10.1045
▁பற்றிக்	-10.1045
▁அழகில்	-10.1047
▁கெஞ்சி	-10.1053
க்கினாள்	-10.106
▁ஒட்டு	-10.1061
▁மீற	-10.1062
▁வீழ்	-10.1062
▁pa	-10.1064
ாரே	-10.107
▁தூங்கட	-10.1072
▁வீதி	-10.1075
▁முத்தத்த	-10.108
ed	-10.1081
▁பிரிவ	-10.1087
ிருக்கேன்	-10.1088
▁ஆக்கி	-10.1093
▁சொல்லுவா	-10.11
வானோ	-10.1104
ுச்சி	-10.1107
▁வெயில	-10.1119
▁வய	-10.1123
போதும்	-10.1135
▁சுர	-10.1142
(	-10.1155
▁குரல	-10.1158
▁பிரிந்த	-10.1163
▁வாழ்ந்த	-10.1164
▁பிற	-10.1169
▁சுட	-10.117
ல்லாம்	-10.1172
ம்ப	-10.1174
ையா	-10.1175
▁குழம்ப	-10.118
▁தேய்	-10.1185
▁கொள்ளை	-10.1186
▁ரகுபதிய	-10.1186
▁அழைக்குதட	-10.1187
▁பாடி	-10.1195
▁மண்ணின	-10.1204
▁சட்டென	-10.1206
▁நேச	-10.1206
▁இர	-10.1208
ay	-10.1209
▁துளிகள	-10.1221
▁இன்பத்	-10.1225
▁நே	-10.1242
▁பவ	-10.1243
▁ராமன	-10.1262
▁கீழ	-10.1263
▁வருட	-10.1266
▁N	-10.1272
▁தோல்வி	-10.1274
▁கிறுக்கி	-10.1276
ld	-10.128
▁பொரு	-10.1282
▁இன்ன	-10.1293
ூர்	-10.1299
▁கிளை	-10.1305
▁மனிதன	-10.1328
▁z	-10.1331
ிக்கும்	-10.1333
▁ஓவிய	-10.1337
T	-10.1337
▁ஏற்பா	-10.1337
வீசி	-10.1338
▁விளையாட	-10.1344
ly	-10.1347
▁திர	-10.1347
▁வெக்க	-10.135
மட்டும்	-10.1354
ுடி	-10.1363
யிருந்து	-10.137
▁இருவர	-10.1376
▁தட	-10.1383
▁ha	-10.1384
ாதா	-10.1407
▁வாய	-10.1415
க்கின்றேன்	-10.142
▁காத்திருக்க	-10.142
▁கெட	-10.1424
▁கீ	-10.143
▁அறியா	-10.1431
▁அச	-10.1433
னோம்	-10.144
▁திரு	-10.1441
▁பிறகு	-10.1443
▁கடந்தே	-10.1449
▁காலத்	-10.1451
▁இமைகள	-10.1452
▁பழகி	-10.1453
dy	-10.1455
▁எரிய	-10.1461
க்கென்ன	-10.1461
▁தாமர	-10.1482
▁பிம்பம	-10.1485
▁மூச்சுக்	-10.1485
▁மண்ணு	-10.1488
▁college	-10.15
▁freedom	-10.15
▁அனுமதி	-10.15
▁எந்நாளும்	-10.15
▁எப்படியாவது	-10.15
▁ரிசல்ட்	-10.15
▁அப்படீன்னா	-10.15
▁சயோரே	-10.15
▁பொம்பள	-10.15
▁okay	-10.15
▁ஹோனன	-10.15
▁உடையும்வரை	-10.15
▁குவியமில்லா	-10.15
▁நாவூ	-10.15
▁வசதி	-10.15
▁கொண்டாட்டந்தான்	-10.15
▁three	-10.15
▁நயனமே	-10.15
▁தாளமயம்	-10.15
▁மாளிகை	-10.15
▁திக்கு	-10.15
▁கிஸ்ஸு	-10.15
fie	-10.15
▁அவனுக்காக	-10.1501
▁முக	-10.1501
▁நிஷா	-10.1501
▁நெருங்கினால்	-10.1502
▁நெனைங்க	-10.1502
▁more	-10.1502
▁புலரி	-10.1502
▁துள்ளிக்கோ	-10.1502
▁ஆட்டாதே	-10.1503
▁r	-10.1503
▁காப்பாத்துங்க	-10.1504
▁வந்ததடா	-10.1504
▁பிணத்த	-10.1504
▁rea	-10.1505
▁ஹஹோ	-10.1505
▁வாழ்ந்தேனே	-10.1505
▁செய்வோம்	-10.1505
▁கூறாதே	-10.1505
▁நெஞ்சுக்கு	-10.1505
▁மட்டுந்தான்	-10.1505
▁தாளத்தில்	-10.1505
▁பறக்குது	-10.1505
▁உதித்தாய்	-10.1505
▁ஜிம்	-10.1505
▁கிளிஞ்சல	-10.1506
▁தர்ம	-10.1506
▁தூறாதே	-10.1507
▁சொல்வார்	-10.1507
▁வரப்போற	-10.1507
▁ஜாலி	-10.1507
▁புதிதென	-10.1507
▁அப்போது	-10.1508
▁வேஷம்	-10.1508
▁காலத்துல	-10.1508
▁அச்சத்தை	-10.1509
▁தன்னாலே	-10.1509
▁பேசறீங்க	-10.151
▁கேட்கின்றேன்	-10.151
▁மேகமாய்	-10.1511
▁சாப்பிட்டு	-10.1512
▁ஏனடீ	-10.1512
▁கேட்காமல்	-10.1512
▁தியாகம்	-10.1512
▁தந்தாள்	-10.1513
▁ஏந்திட	-10.1513
▁கொடுப்பான்	-10.1514
▁மருந்து	-10.1515
▁வெடிக்குது	-10.1515
▁தொட்டாலே	-10.1515
▁அலைகிறேன்	-10.1516
▁பாக்குறேன்	-10.1516
▁பாஸ்	-10.1516
▁காட்டாதே	-10.1517
▁போராட்டம்	-10.1517
▁வாயேன்	-10.1518
▁இரத்தம்	-10.1518
ற்றுக்	-10.1518
▁ஒவ்வொன்றும்	-10.1518
▁அருகே	-10.1518
▁பேசினாய்	-10.1519
▁பத்தியும்	-10.1519
▁யானை	-10.152
▁புறம்	-10.152
▁காதுல	-10.152
▁மேகங்கள்	-10.1522
▁நெஞ்சமோ	-10.1522
▁கேளடி	-10.1523
▁மாற்றினாய்	-10.1523
▁நானில்லை	-10.1524
▁தருவேன்	-10.1525
▁தொழில	-10.1528
▁காதிலே	-10.1528
▁பறிச்ச	-10.1529
▁அணிந்து	-10.1529
▁விரிச்சு	-10.1529
▁பத்திரத்த	-10.1531
▁அசையாமல	-10.1532
▁வெள்ளி	-10.1533
தத	-10.1534
▁தொலைந்தேன்	-10.1535
▁போறீங்க	-10.1536
▁நண்பா	-10.1537
▁ஆகிறாய்	-10.1539
▁இதழோடு	-10.1539
▁நிழலாய்	-10.1539
▁கஷ்டப்பட்டு	-10.1539
▁வாழ்ந்து	-10.154
▁நடுவில்	-10.154
▁மாறுதே	-10.1541
▁சரிதானா	-10.1541
▁கவிதைகள்	-10.1541
▁சீதனம	-10.1541
▁பேசாத	-10.1542
▁மலரே	-10.1542
▁இதழில	-10.1543
▁இப்போது	-10.1544
▁வாரக்	-10.1545
▁நெஞ்சமே	-10.1546
▁வீசிடு	-10.1548
▁விழிகளிலே	-10.1549
▁பின்னாலே	-10.1549
▁விரும்பும்	-10.1552
வங்க	-10.1554
▁வேளையில்	-10.1554
▁பேசறேன்	-10.1556
▁அரை	-10.1556
▁மின்சாரம்	-10.1558
▁போதாதா	-10.1561
▁துயரம்	-10.1565
▁ஓவியா	-10.1567
ர்காலம்	-10.1568
▁செவ்வான	-10.1568
▁முன்னாலே	-10.1568
▁பேசாதே	-10.1569
▁கூட்டிப்	-10.1569
▁சிற்ப	-10.1571
▁முத்தமிட	-10.1574
▁காபி	-10.1574
▁or	-10.1574
▁al	-10.1575
▁போறோம்	-10.1576
▁என்றேனே	-10.1578
க்கப்	-10.1579
▁சொல்ற	-10.1579
▁நிலாக்கள	-10.1579
▁வந்தோம்	-10.158
▁பார்த்திடும்	-10.158
▁அரே	-10.1585
▁மோதல்	-10.1585
▁செய்தேன்	-10.1585
▁பட்டாசு	-10.1586
▁இரவே	-10.1586
▁பிடிச்சு	-10.1587
▁திரையில்	-10.1591
▁தூவி	-10.1591
▁வைத்தல்	-10.1592
▁சிக்கி	-10.1592
ிர்வா	-10.1593
▁எவன்	-10.1594
▁சம்மதம்	-10.1599
▁தெய்வங்கள	-10.1599
▁மீன்கள்	-10.16
▁கூடாதே	-10.1602
▁என்பதை	-10.1604
aand	-10.1604
▁கனவாய்	-10.1605
▁தேடியே	-10.1606
▁இமைகள்	-10.1609
லு	-10.1614
▁மேனேஜர	-10.1617
ின்றி	-10.1619
▁nah	-10.1621
▁அடைய	-10.1622
▁குவிய	-10.1624
▁காளை	-10.1625
▁வட்டம்	-10.1625
▁போதுமா	-10.1626
▁no	-10.1626
▁பின்னால்	-10.1627
▁முட்டும்	-10.1628
▁வண்ட	-10.1632
▁விழியே	-10.1638
ின்று	-10.1642
▁இருந்தே	-10.1643
ida	-10.1644
▁தாக்கும்	-10.1647
▁இறந்த	-10.1651
▁பேசிடும்	-10.1651
▁அண்ணனும்	-10.1651
▁போயிடும்	-10.1656
▁இன்றை	-10.1656
▁ஒல்லி	-10.1657
▁அணி	-10.166
▁பொண்டாட்டி	-10.1666
▁Li	-10.1667
▁சொன்னாய்	-10.1667
▁தாயே	-10.1668
▁நீளம்	-10.1674
▁குண்ட	-10.1676
▁கால்ல	-10.1678
ியாய்	-10.1681
▁பொய்ய	-10.1684
▁அண்ண	-10.1684
▁வனம்	-10.169
▁இரவு	-10.1692
▁மானே	-10.1692
▁ஹலனா	-10.1693
▁கேட்காத	-10.1696
▁கூட்டிட்டு	-10.1706
▁மாறக்	-10.1707
▁ராஜாவும்	-10.1708
▁வரவா	-10.1708
கொண்டிருத்தல்	-10.171
▁யுகம	-10.1713
▁தேவையில்ல	-10.1715
▁இசைய	-10.172
▁புகுந்த	-10.1721
▁beat	-10.1724
▁ஊரே	-10.1726
▁விரிந்த	-10.1727
யிருந்தா	-10.1732
▁நம்ப	-10.1734
▁நில்லு	-10.1739
ளின்	-10.1739
▁எழுதியத	-10.1751
▁உளி	-10.1752
▁கற்ற	-10.1753
த்துடே	-10.1757
▁மெதக்க	-10.1758
▁பேச்சும்	-10.1769
▁சத்தியமா	-10.1776
▁குழந்தை	-10.1779
▁வண்டு	-10.1779
▁கவலை	-10.178
மேனி	-10.1789
▁போகப்	-10.1789
▁நானாய்	-10.1798
▁நிகர	-10.1805
▁படம்	-10.1812
▁முறையா	-10.1821
▁மாற்று	-10.1828
▁அவனும்	-10.1829
▁வந்தே	-10.183
▁மண்டைய	-10.1831
▁தாய	-10.1834
▁உடைக்க	-10.1834
▁திருந்த	-10.1835
னது	-10.1842
▁சாக	-10.1842
▁ஆனான்	-10.1843
▁இதுவா	-10.1847
▁செவ்வாய	-10.1867
▁ஆல	-10.1875
ந்தா	-10.1881
▁நிறைத்திட	-10.1881
▁அடிக்க	-10.1883
▁மாற்றிட	-10.1884
▁பெயர	-10.1889
▁அதனால	-10.189
▁உடுத்தி	-10.1896
▁சுவை	-10.1903
▁எல்லையில்லா	-10.1906
ெம்ப	-10.1909
▁துகள்	-10.1919
▁வாழ்	-10.1922
▁இருக்குது	-10.1927
▁விரும்பி	-10.193
த்தெ	-10.1931
▁நனை	-10.1937
▁வளை	-10.194
லையின்	-10.1947
▁ஐஸு	-10.1947
▁கோர்த்திடு	-10.1948
▁தோள	-10.1952
▁பூமிப்	-10.1953
ஷா	-10.1954
▁ஆகாத	-10.1961
லையென	-10.1965
▁கண்ணால	-10.197
▁தொடங்க	-10.1971
▁துரத்தி	-10.1975
▁நிறை	-10.1976
▁இருளை	-10.1978
▁சாரல்	-10.1979
▁அஞ்சா	-10.198
▁மகன	-10.1986
▁ஊட	-10.1987
▁ஆண	-10.1989
▁கேட	-10.2001
▁இந்தியா	-10.2002
nky	-10.201
ous	-10.2015
▁நிலைய	-10.2021
▁பிரிய	-10.2027
▁குலுங்கி	-10.2027
▁சிரித்த	-10.2028
▁பேய்	-10.2031
த்தில	-10.2032
ஞ்சுக்கு	-10.2037
▁புதுப்	-10.2039
▁பர	-10.2045
▁பண்ணா	-10.2045
▁உண்மைய	-10.2046
▁சரக்க	-10.2051
▁கட்டில	-10.2057
▁கொண்டாடு	-10.2058
கே	-10.2061
ிங்க	-10.2064
▁காரிருள	-10.2072
▁உருக்க	-10.2076
ந்தாய்	-10.2077
க்கொண்டே	-10.2078
▁ஹை	-10.2078
▁தெரியும	-10.2084
▁வில்லன்	-10.2089
▁திரைகள	-10.209
▁கட்டும்	-10.2097
ிடவா	-10.2098
▁வெற்றிடம	-10.2108
▁தூய்மை	-10.2108
ியிலிருந்து	-10.2118
▁மூடு	-10.2124
ாங்க	-10.2128
▁கொடுத்திட	-10.2129
▁அணிய	-10.2139
ைக்கு	-10.2139
▁குறை	-10.2141
▁மூவி	-10.2164
▁ஊத்திக்	-10.2175
வின்றி	-10.2178
▁சாலையில	-10.2179
த்தோட	-10.2211
▁சொந்த	-10.2216
▁பெயர்	-10.2224
மில்ல	-10.2244
▁காம்ப	-10.2245
▁கேட்கின்ற	-10.2245
▁pi	-10.226
▁எனக்	-10.226
ின்ற	-10.2262
▁பெருமை	-10.2265
▁இனிமேல	-10.2276
▁சிந்தி	-10.228
தில்	-10.2282
த்துக்கு	-10.2291
▁ஆடிட	-10.2296
▁புரியல	-10.2298
W	-10.2299
▁பாவை	-10.23
▁fi	-10.2318
▁தெரியாது	-10.2319
▁ஒளியில்	-10.2322
▁அலைய	-10.2331
▁li	-10.2331
▁உடைத்திடு	-10.2331
▁எரிமலை	-10.2332
ற்றம்	-10.2334
ila	-10.2335
▁வீட்டு	-10.2335
▁ஏழை	-10.234
வில்லையே	-10.2347
▁தீண்டி	-10.2363
▁கெடக்கு	-10.2363
ிவுட்	-10.2366
▁எழுப்பி	-10.237
▁சுழல	-10.2378
▁தீயா	-10.2382
▁பகல	-10.2382
ழும்	-10.2385
▁வாடி	-10.2392
▁பொண்ணும்	-10.2394
▁நிஜம	-10.2419
▁கேட்டது	-10.2421
▁தந்தா	-10.2432
▁பேருக்கு	-10.2432
▁மத	-10.2442
▁இறைவன	-10.2455
ிரவு	-10.2457
யினில்	-10.2459
▁கொடுத்தா	-10.2459
▁விரும்ப	-10.2466
னோடு	-10.2467
▁கிழக்க	-10.2468
ொடு	-10.2474
▁சொல்றத	-10.2475
ep	-10.248
▁வீண்	-10.2481
▁ஆண்மை	-10.2486
▁சந்தோச	-10.2496
▁ஆனந்த	-10.2498
▁அதுக்கு	-10.2509
ினா	-10.2511
▁சிந்தும்	-10.2512
▁மாறிய	-10.2521
மேல்	-10.2525
▁மடி	-10.2526
ணுமில்ல	-10.2533
லாய்	-10.2541
▁மூச்சு	-10.255
க்கணும்	-10.255
▁சிக்க	-10.2557
▁அமைதிய	-10.2564
ெலாம்	-10.2567
▁தாண்டிச்	-10.2569
▁பாகுபலி	-10.2572
வுன்னு	-10.2574
▁ஏதுமில்லை	-10.2575
▁தரு	-10.2576
▁எறும்பு	-10.2576
▁மதி	-10.2581
தியே	-10.2583
▁அண	-10.2584
ள்ளே	-10.2586
▁வளத்தி	-10.2587
▁இணை	-10.2587
▁செங்கா	-10.2588
வியா	-10.2591
▁கூட்டம	-10.2611
மும்	-10.2617
▁காற்றாக	-10.2628
கைகள்	-10.2654
ச்சல்	-10.2659
▁கத்திய	-10.2659
▁நனைந்த	-10.2661
▁மத்த	-10.2664
▁போயிடறே	-10.2667
▁ஆவி	-10.2668
▁இரண்ட	-10.2677
▁ஆண்டா	-10.2686
▁கிட	-10.2696
▁சொல்வா	-10.2704
▁தூக்க	-10.271
▁அறிய	-10.2721
▁பேசிட	-10.2723
▁இன்றோ	-10.2726
த்தம்	-10.2728
▁மல்லிக	-10.2732
▁அன்பென	-10.2733
▁அழைக்கிற	-10.2734
ந்தாலும்	-10.2757
os	-10.276
ண்ட	-10.2762
▁en	-10.2766
0	-10.2767
▁வருவா	-10.2767
▁திறந்த	-10.2769
▁ke	-10.277
▁பிர	-10.277
▁புரி	-10.2773
▁அளவ	-10.2774
▁கெ	-10.2776
▁கான	-10.278
▁பூச	-10.2786
▁அம்ப	-10.279
▁சொல்வ	-10.2791
▁பண்ணுவ	-10.2796
▁கரைந்த	-10.2796
▁அமுத	-10.2797
▁காவியம	-10.2808
▁அணைப்ப	-10.2808
▁மாஸ்	-10.2818
▁கேட்டே	-10.2819
▁காலத்த	-10.2822
▁அடித்துக்	-10.2823
வேனோ	-10.2841
im	-10.2842
▁துயில	-10.2845
▁com	-10.2845
▁தூய	-10.2855
▁மெய்ய	-10.2864
▁நடன	-10.2869
▁அடிவான	-10.2897
▁10	-10.291
▁சொல்றீங்க	-10.2911
▁விசி	-10.2911
▁ரூ	-10.2928
▁ஓங்க	-10.2931
றவை	-10.2935
▁மேகத்த	-10.2938
யடி	-10.2949
▁l	-10.2955
▁ஞான	-10.297
ிங்	-10.298
ிறேன்	-10.2983
▁நினைவில்	-10.2986
▁தெளிக்க	-10.2986
▁மதுவ	-10.2994
▁அசிங்க	-10.2996
ிடுவேனா	-10.3002
▁உனக்கா	-10.3003
▁அசைவ	-10.3023
▁இடையில	-10.3027
▁பார்த்தே	-10.3034
நான்	-10.3035
▁நெனச்சா	-10.3046
▁புரியாம	-10.3047
பி	-10.3064
▁எல்ல	-10.3067
த்துத்	-10.3074
ழி	-10.3075
ங்களை	-10.308
நல	-10.3082
▁சாவி	-10.3085
▁புத	-10.309
es	-10.3109
▁மாறிடு	-10.3111
க்குத்	-10.3117
ாறு	-10.3124
▁துணி	-10.3125
▁நிலம	-10.3129
ான்னு	-10.3139
▁வீட	-10.3162
▁அன்னிக்க	-10.3166
▁தொல்ல	-10.3171
▁கிழித்த	-10.3172
▁எதில	-10.3172
▁தள	-10.3174
ிட்டா	-10.3174
▁தூரத்த	-10.3174
▁பாய்	-10.3186
▁ju	-10.319
▁நமக்க	-10.3195
▁அவ்வளவு	-10.3202
▁தொறந்த	-10.3208
▁மூடும்	-10.3216
▁குயில	-10.3219
ேனா	-10.3224
ுக்கெல்லாம்	-10.3224
ஹ	-10.3227
▁அறிந்திட	-10.323
ிப்பான்	-10.3237
ின்றியே	-10.3242
▁நெத்தி	-10.3246
▁வீர	-10.325
ந்தன	-10.3259
▁காணாம	-10.3267
▁ஆல்	-10.3283
▁கோபப்	-10.3286
▁பொத்தி	-10.3287
ஹே	-10.329
▁உறவென	-10.3293
▁தொடங்கி	-10.3293
நாள்	-10.3298
▁கொடுமை	-10.33
▁மீனாவோ	-10.3301
டுப்பது	-10.3301
ாகும்	-10.3302
▁கத்த	-10.331
ுறும்	-10.3312
▁உருண்ட	-10.3317
ந	-10.3318
▁ஒட்டிக்	-10.3319
▁கும்பிட	-10.3321
M	-10.3327
P	-10.3327
விழும்	-10.3329
தரகர்	-10.3329
செம்புலி	-10.333
B	-10.3332
சரி	-10.3337
▁பின்னால	-10.334
▁e	-10.3341
▁முள்	-10.3342
▁பார்த்திட	-10.3344
த்திக்	-10.3352
யாரோ	-10.3357
▁புரிந்த	-10.3362
▁பறவைய	-10.3367
▁கண	-10.3368
▁பக்கத்தில	-10.3372
▁ஊற்ற	-10.338
▁மிரட்ட	-10.338
யின்னு	-10.3381
ராணி	-10.3387
▁போத	-10.3388
▁வருக	-10.3391
▁இன்பத்த	-10.3393
க்கையிலே	-10.34
ும்போது	-10.3404
போ	-10.3406
டுவோம்	-10.3407
▁திருட	-10.3407
▁பாத்திட	-10.341
▁மொழிய	-10.3411
▁எழுப்ப	-10.3418
▁வீரம	-10.342
▁கடக்க	-10.3421
▁மோதுற	-10.3423
தடி	-10.3426
▁கோட்டை	-10.343
▁புல்	-10.3431
▁அணைத்திடு	-10.3439
▁இரகசிய	-10.3452
▁ஆன்	-10.3455
out	-10.346
▁காவல	-10.3461
▁முகைய	-10.3464
கொஞ்சம்	-10.3466
ேறி	-10.3473
▁பார்க்காத	-10.3474
▁காள	-10.348
▁வாழ்ந்திட	-10.3485
▁சிந்தை	-10.3487
▁சன	-10.349
▁களைந்த	-10.3492
ியம்	-10.3493
▁friend	-10.3493
▁பொழுத	-10.3495
▁அரக்கி	-10.3497
▁ம்ஹும்	-10.3497
▁தெரு	-10.3497
▁முடிஞ்சா	-10.3498
▁maar	-10.35
▁dream	-10.35
▁காலேஜ்	-10.35
▁சிலுசிலு	-10.35
▁ரத்தினகுமாரி	-10.35
▁வித்தியாசம்	-10.35
▁உவெசெலா	-10.35
▁குரூப்	-10.35
▁வெளயாடு	-10.35
▁feel	-10.35
▁கில்லாடி	-10.35
▁செஞ்சுரிடா	-10.35
▁தாய்மொழியினிலே	-10.35
▁உதவாது	-10.35
▁நிரப்ப	-10.35
▁rock	-10.35
▁தலையணை	-10.35
▁வேற்றுமை	-10.35
▁முழங்கு	-10.35
▁அமைச்சா	-10.35
▁கன்னத்துல	-10.35
▁dance	-10.35
▁தயங்குதே	-10.35
▁நிமிடம்	-10.3501
▁பூலோகம்	-10.3501
▁உறுதி	-10.3501
▁this	-10.3501
▁குதிப்பேன்	-10.3502
▁ராஜகுமாரி	-10.3502
▁ஹனியே	-10.3502
▁கமிஷன	-10.3502
▁நில்லாதே	-10.3502
▁மறந்திட்டேன்	-10.3503
▁ஏற்றினாய்	-10.3503
▁புவிய	-10.3503
▁வர்றோம்	-10.3503
ik	-10.3504
▁ஆயிடுச்சு	-10.3505
▁குதித்து	-10.3505
▁கரையாதே	-10.3505
▁வேட்டை	-10.3505
▁சகியே	-10.3505
▁யக்கா	-10.3505
▁பறந்தேனே	-10.3506
▁செல்கிறாய்	-10.3506
▁பண்ணிட்டேன்	-10.3506
▁சற்றே	-10.3506
▁தினந்தினம்	-10.3506
▁தொலைகிறேன்	-10.3507
▁அரக்கியே	-10.3507
▁உச்சத்தில்	-10.3507
▁தேடினோம்	-10.3507
▁நுழைய	-10.3507
▁பிறந்தோம்	-10.3507
▁புலரே	-10.3507
▁காமினி	-10.3508
▁கற்பனை	-10.3508
▁கீச்சான்	-10.3509
▁எங்கிலும்	-10.3509
▁அடிக்கடி	-10.3509
▁விசிறு	-10.3509
▁ஹிப்	-10.3509
▁ஒவ்வோர	-10.3509
▁எழுவாயோ	-10.351
▁ஊஞ்சல	-10.351
▁தோன்றினாய்	-10.351
▁விண்ணிலே	-10.351
▁கட்டளையிட்டா	-10.3511
▁வரலாறு	-10.3511
▁கரைந்தே	-10.3512
▁செய்தானோ	-10.3513
▁போட்டுக்கோ	-10.3514
▁ஆகினாய்	-10.3514
▁நாளைக்கே	-10.3514
▁தேடினேன்	-10.3514
▁உண்மையடி	-10.3514
▁some	-10.3515
▁மூக்குல	-10.3515
▁மமதை	-10.3515
▁ஆர்டர்	-10.3516
▁மாட	-10.3516
▁பண்ணியிருக்க	-10.3516
▁பாடலாய்	-10.3516
▁நொடியிலே	-10.3516
▁குறுந	-10.3517
▁ஜன்னல	-10.3518
▁முகங்கள்	-10.3518
▁நெனச்சது	-10.3519
▁தொலைவில்	-10.3519
▁வீட்டையும்	-10.352
▁தண்ணீர்	-10.352
▁உறவுகள்	-10.352
▁தாளமும்	-10.3521
▁சாட்சி	-10.3521
▁நுனி	-10.3522
▁பொசுக்கிடுவேன்	-10.3523
▁எங்களுக்காக	-10.3523
▁ஒலியே	-10.3523
▁இருக்காங்க	-10.3524
▁ஆடினேன்	-10.3525
ப்பக்கம்	-10.3525
▁மாறினேன்	-10.3525
▁நாசி	-10.3527
▁பார்த்தாயா	-10.3527
▁வேறேதும்	-10.3527
▁கேளுடீ	-10.3527
▁போகிறோம்	-10.3528
▁தவிர	-10.3528
▁தரையி	-10.3528
▁அசைவுகள	-10.3528
▁போவாயோ	-10.3529
▁யோசிக்கும்	-10.3529
▁எப்படியோ	-10.3529
▁விண்கல	-10.353
▁பாதத்தை	-10.3531
▁அதென்ன	-10.3532
▁கோபத்தை	-10.3532
▁கனவிலே	-10.3532
▁உறையும்	-10.3532
▁உற்சாகம்	-10.3532
▁வெறுக்க	-10.3533
▁பகிர்ந்த	-10.3535
▁நல்லவனா	-10.3536
▁உன்னுடன்	-10.3536
▁பிடித்தல்	-10.3537
▁கரடி	-10.3537
▁தெரியாமல்	-10.3538
▁ஒளியை	-10.3538
▁கரைந்தாய்	-10.3539
▁இணைந்த	-10.3539
▁நரகம்	-10.3539
▁இப்படித்தான்	-10.3539
▁வாங்கிட்டு	-10.354
▁அதிரடி	-10.354
▁கொஞ்சி	-10.3542
▁கனவெல்லாம்	-10.3543
▁தூசு	-10.3543
▁கோண	-10.3544
▁அழைத்தேன்	-10.3544
▁பாரடி	-10.3544
ஞ்	-10.3545
▁பறந்தேன்	-10.3546
▁வெட்டு	-10.3546
▁நீக்கியே	-10.3546
▁வருவேன்	-10.3551
▁ஆக்க	-10.3552
▁நின்றாய்	-10.3552
▁of	-10.3552
▁பசார்	-10.3553
▁நிக்காத	-10.3553
▁என்னாகும்	-10.3554
▁நினைத்தால்	-10.3554
▁ஊறும்	-10.3555
▁பேசலாம்	-10.3558
▁முத்துகிருஷ்ணன்	-10.3559
▁பேயா	-10.3559
▁கொண்டதும்	-10.356
▁பிறக்கும்	-10.3561
▁baa	-10.3562
▁விழுந்தேன்	-10.3562
ிடுமே	-10.3564
▁மலரும்	-10.3565
▁அன்பை	-10.3565
▁இதழிலே	-10.3567
▁சுருங்கி	-10.3569
▁ஊருக்கு	-10.3569
▁உலகின்	-10.357
▁ஆவேன்	-10.3571
▁பேனாவ	-10.3572
▁Boy	-10.3572
▁அப்பதான்	-10.3572
▁சென்றாய்	-10.3574
▁கெடக்க	-10.3574
மோதிப்பார்க்காதே	-10.3574
▁பிறகும்	-10.3575
▁கேளாய்	-10.3575
▁நகரும்	-10.3576
▁வேண்டாம்ன்னு	-10.3578
▁பிரி	-10.3579
▁கோலம்	-10.358
▁அவங்கள	-10.3581
▁வெக்கம்	-10.3582
▁தமிழே	-10.3582
▁ஐம்ப	-10.3585
▁தொடங்கும்	-10.3585
▁மொத்தமாய்	-10.3585
▁கொண்டேனே	-10.3586
▁சொல்லிட்டு	-10.3587
▁வந்தாயோ	-10.3588
▁வந்தாலும்	-10.3589
▁புடி	-10.3593
▁ஆவோம்	-10.3594
▁உலுக்கி	-10.3596
▁பொறுக்கி	-10.3596
▁bow	-10.36
▁சேர்த்து	-10.3601
▁கிடைக்கும்	-10.3601
▁எதிர்காலம்	-10.3601
▁தேட்டர	-10.3602
▁வைக்கப்	-10.3602
▁தோல்விகள்	-10.3604
▁இனிமேலே	-10.3605
▁தவம்	-10.3607
▁நின்னு	-10.361
▁வானமாய்	-10.3613
▁அவிழும்	-10.3613
▁புயலே	-10.3615
ிலும்	-10.3615
▁உடம்ப	-10.3616
▁மட்டுமே	-10.3623
▁தாரகை	-10.3623
▁வீடா	-10.3627
▁மானா	-10.3628
▁தூவும்	-10.3631
▁வரையில்	-10.3631
▁தீட்டு	-10.3632
▁வாழ்ந்தால	-10.3633
▁வட்டமிட்ட	-10.3636
▁நடனம்	-10.364
யிலிருந்து	-10.3645
▁சொல்வத	-10.3647
▁சத்தியம	-10.3647
▁குற	-10.3648
▁இமைக்காமல	-10.365
▁இட்டு	-10.3652
▁செய்தல்	-10.3652
▁நிக்கும்	-10.3654
ினிலே	-10.3654
ுக்	-10.3654
▁முடியாதே	-10.3659
line	-10.3661
▁கண்ணுல	-10.3663
▁காரம்	-10.3664
▁நடிக	-10.3665
▁எப்பவும	-10.3669
▁பாருடா	-10.367
▁பிறந்திட	-10.3671
▁மழ	-10.3677
▁சொக்கி	-10.3681
▁யாரை	-10.3681
தில்லையே	-10.3681
▁உதவி	-10.3682
▁வந்ததும்	-10.3683
வானா	-10.3684
▁வளர்த்த	-10.3685
▁மிரட்டி	-10.3689
க்காரன்	-10.3689
▁கட்டை	-10.369
▁மித	-10.3692
▁கூப்பிட்டா	-10.3703
▁சூர	-10.3703
▁சொல்லவா	-10.3703
▁te	-10.3704
▁சொல்லிப்	-10.3705
ாரோ	-10.3705
▁கொண்டாடும்	-10.3709
தில்ல	-10.3716
▁இங்ல	-10.3716
ee	-10.3719
▁ஏணி	-10.3721
▁தெரியாதா	-10.3722
odu	-10.3724
▁தட்டும்	-10.373
▁தானாய்	-10.3731
▁வெளியிலே	-10.3733
▁அதுவே	-10.3736
ழை	-10.3736
v	-10.3741
▁பக்கா	-10.3744
▁சாவ	-10.3745
▁துன்பங்கள	-10.3745
▁mann	-10.3747
▁கடந்தும்	-10.3747
▁காண்பது	-10.3749
▁இடுப்பு	-10.3751
▁உலகத்தை	-10.3758
ture	-10.376
▁வேட	-10.3761
ding	-10.3762
▁பதில	-10.3763
ஸ	-10.3764
ன்னாலும்	-10.3776
▁சிலைய	-10.3777
▁உச	-10.378
▁miss	-10.3784
ச்சோ	-10.3791
▁கேள்விக்கு	-10.3792
▁log	-10.3792
▁பையில்	-10.3793
▁போதோ	-10.3793
▁கழுத்தில	-10.3798
்துக்கிடக்கிறேன்	-10.3803
▁மின்னும	-10.3807
▁பத	-10.3807
யோட	-10.3807
டித்தேன்	-10.3807
▁கிடத்தி	-10.3808
ிருக்க	-10.3812
▁கீச்ச	-10.3824
▁பாய்ச்ச	-10.3827
▁குறையாத	-10.3834
களும்	-10.3838
லாமே	-10.3838
கட்டி	-10.3839
ight	-10.3839
▁நெலவு	-10.3839
▁தூசி	-10.3839
▁அப்பன	-10.384
▁.	-10.3841
▁வர்ற	-10.3842
▁குடும்பத்துக்கு	-10.3845
ளம்	-10.3845
வமை	-10.3846
▁காணாமல	-10.3848
▁இதுக்கு	-10.3849
▁உலவி	-10.3852
▁மகிழ்ந்த	-10.3857
▁இழந்து	-10.3857
▁பாட்டில்	-10.3859
▁பர்	-10.3859
ிறாய்	-10.3861
▁மனத	-10.3862
ும்போதும்	-10.3867
▁tra	-10.3873
▁நியாயம	-10.3874
▁மீனாய்	-10.3876
▁ஆர்	-10.388
▁கிழ	-10.3884
▁ஒன்றினை	-10.3892
▁தீர்ப்ப	-10.3897
▁அருவி	-10.3898
▁காது	-10.3899
▁தள்ளு	-10.3912
▁எந்திர	-10.3919
▁ஐய	-10.3921
▁நிறம	-10.3922
▁பரவட்டும	-10.3922
▁ne	-10.3934
ுவ	-10.3938
▁பாசத்த	-10.3939
க்காரி	-10.3942
▁இருப்பா	-10.3951
▁மேய	-10.3957
▁ஓடம்	-10.3963
▁காரிய	-10.3975
▁குழப்ப	-10.3984
▁என்னக்	-10.3986
▁தின்ற	-10.3996
▁மாட்டா	-10.3997
ிருப்பேன்	-10.3999
▁தூங்கு	-10.3999
▁பதி	-10.4007
▁காதலின	-10.401
▁எனக்கென்ற	-10.4017
▁பதின	-10.4018
▁மூக்கு	-10.402
்ராக்கா	-10.4026
ente	-10.4026
▁கானம	-10.4032
▁பூங்காற்று	-10.4035
▁பயணத்தி	-10.4041
▁காணுவாய	-10.4041
▁bam	-10.4048
▁உறங்க	-10.4054
▁நெற	-10.4059
▁நின்ன	-10.4068
▁உலகத்தில	-10.4068
▁அழகாக	-10.407
▁கனவின	-10.407
யைப்	-10.4084
▁விண்மீனின	-10.4086
▁பாத்திட்ட	-10.4088
▁தடைய	-10.409
▁பேசிட்டிருக்க	-10.4094
ட்டிங்	-10.4099
ைக்கும்	-10.4102
ென்றெண்ணாதே	-10.4105
▁பேரும்	-10.412
▁இதழ்கள	-10.4121
▁கெடந்த	-10.4122
▁கரைகள	-10.4124
▁அப்பாவ	-10.4127
▁ரெண்டா	-10.4129
முறை	-10.413
▁தின்னு	-10.4132
▁செல்லம்	-10.4144
▁சமைக்க	-10.4145
▁இழ	-10.4171
▁கசக்கி	-10.4173
▁எதி	-10.4184
▁சாம	-10.4188
லோ	-10.4197
▁விட்டே	-10.4198
கண்ட	-10.4199
▁வைத்தத	-10.4205
▁மனதினில	-10.4205
▁மாயமா	-10.421
▁தாலாட்ட	-10.4212
ாச்சும்	-10.4215
▁வெளியேற	-10.4218
▁இனிமை	-10.4245
ுகின்ற	-10.4248
▁கேட்டுக்க	-10.4251
▁இவளுக்கு	-10.4262
▁இருப்ப	-10.4262
▁தேச	-10.4263
▁உண்டாக	-10.4265
▁கவ்வி	-10.4271
▁பேசிடு	-10.4275
▁தில்லா	-10.4282
▁வலிகளை	-10.4282
▁கண்ணீரில	-10.4286
di	-10.4288
▁யாரோடு	-10.4288
▁ற	-10.4289
▁ருசித்த	-10.429
▁தடைகள	-10.4297
▁விண்ணின	-10.4299
▁பண்ணினா	-10.4302
டிச்சா	-10.4307
▁காத்திட	-10.4309
▁இணைத்த	-10.4309
▁ஏதும	-10.431
▁தெளி	-10.4311
▁சட்டங்கள	-10.4318
▁வெச்சி	-10.4323
▁சென்றான	-10.4328
ீஸு	-10.4328
க்கிறதே	-10.4339
▁சிரிச்ச	-10.4346
▁சீறும	-10.4346
▁போனத	-10.4348
டுங்க	-10.4359
▁உறவா	-10.4363
▁துண்ட	-10.4363
▁பொடி	-10.4366
ுக்காக	-10.4371
பூக்களே	-10.4381
▁வந்தான்	-10.4381
▁மனைவி	-10.4387
▁உருக	-10.4392
ிட்ட	-10.4424
ட்டுமே	-10.4431
▁பிடிச்சிருக்க	-10.4439
jh	-10.4449
▁சிங்கத்த	-10.4457
▁வருஷ	-10.4463
▁எதிரிகள	-10.4467
▁பிறப்ப	-10.4468
▁அள்ளிக்	-10.447
றும்	-10.4474
ில்லாமல்	-10.4482
ுவாயா	-10.4487
ka	-10.4496
▁முத்தத்து	-10.4498
▁நிலத்த	-10.4502
▁தழுவி	-10.4504
▁காய்ந்த	-10.4504
▁எறும்ப	-10.4518
▁பேசிய	-10.452
▁ji	-10.4524
▁கோணி	-10.4533
ப்போமா	-10.4537
▁முடிவில்ல	-10.4537
▁புடிக்க	-10.4539
▁போகின்ற	-10.4541
▁பழக்கம	-10.4544
▁மலர	-10.4546
▁கார்ட	-10.4567
▁திருத்த	-10.4569
▁மறந்தே	-10.457
▁சொல்றேன்	-10.4574
▁மோகம	-10.4574
ைகளை	-10.4583
க்குதடி	-10.4583
▁சோகமா	-10.4585
▁அவனுக்கு	-10.4596
▁இன்பத்தி	-10.46
▁விழிகள	-10.4601
▁ஆகி	-10.4603
▁இருண்ட	-10.461
ிரண்டு	-10.4623
▁pr	-10.4626
▁எங்கப்பா	-10.4626
▁படைத்தான	-10.463
▁le	-10.4636
▁அதி	-10.4644
ட்டீங்க	-10.4646
▁கனவோட	-10.4649
▁அருவிகள	-10.4651
▁எரிகிற	-10.4658
▁ஆண்டவன	-10.4668
▁வந்திட	-10.4672
▁உதட்ட	-10.4674
ுள்ள	-10.468
▁பேசற	-10.4687
▁பரிச	-10.4694
திந்திந்தி	-10.4695
▁நெனச்ச	-10.47
▁படி	-10.4711
ுக்க	-10.4717
id	-10.4721
▁அடக்க	-10.4722
ர்கள்	-10.4727
tha	-10.4737
ாரம்	-10.4737
▁சொல்லே	-10.4743
▁ten	-10.4743
வன	-10.4743
▁W	-10.4754
ளாய்	-10.4756
▁இசையினை	-10.476
▁எறி	-10.4764
பொருள்	-10.477
▁சட்டம	-10.4772
வில்ல	-10.4786
ீரே	-10.4803
க்காட்டு	-10.4804
ல்லவா	-10.481
eer	-10.4823
▁புரட்சி	-10.4828
▁மலர்கள	-10.4828
▁நீயென்	-10.4835
▁ஒளியா	-10.4837
▁சொர்க்க	-10.484
▁கண்முன்	-10.4843
▁பதித்த	-10.4851
▁தேனை	-10.4851
▁ஐயம	-10.4853
ாவோம்	-10.4855
▁நினை	-10.4861
▁இல்லம்	-10.4866
▁பார்வைய	-10.4867
▁நஞ்சா	-10.4874
▁குறி	-10.4884
▁மகிழ	-10.4885
சுக்கு	-10.4889
▁மீட்டு	-10.4905
சிட்டி	-10.4911
▁நிழலா	-10.4915
▁இருட்டு	-10.4916
▁ஹர	-10.493
▁பிடிச்சி	-10.4932
ஷ	-10.4935
▁உயிராக	-10.4947
▁நுரைய	-10.4954
▁ஏற்றி	-10.4955
▁வரைய	-10.4956
▁அழகுதான	-10.4957
▁na	-10.4959
▁வந்தேன	-10.496
ரவு	-10.4963
மு	-10.4964
▁சொல்றது	-10.4965
▁ra	-10.497
▁இசையின்	-10.4975
▁ஓடை	-10.4979
ியை	-10.4981
▁ரூபா	-10.4983
ிற	-10.4991
▁ஆறு	-10.4995
▁உதிர்ந்த	-10.4997
க்கெல்லாம்	-10.5004
▁மாறாத	-10.5011
▁தீர்க்க	-10.5015
▁பெய்ய	-10.5024
த்தா	-10.5029
்ட்	-10.5041
ai	-10.5042
ரைகிறதே	-10.5051
▁கண்டுபிடி	-10.5055
▁உசுரு	-10.5061
ாலோ	-10.5062
ீஸ்	-10.5078
▁மயங்க	-10.508
▁யாருக்க	-10.508
▁சொல்லித்தா	-10.5105
ன்றி	-10.5108
▁திறந்திட	-10.5118
ானாய்	-10.512
▁ஒழுக்கம	-10.5127
றந்திடுவோம்	-10.513
▁வானம	-10.5133
▁ஹெ	-10.5141
▁எட்டு	-10.5142
▁நிற்கிற	-10.5147
த்தே	-10.5149
▁துடிக்குத	-10.5154
▁u	-10.5157
▁இரும்ப	-10.5161
▁காலில	-10.5164
▁எரிந்திட	-10.5169
▁ஆப	-10.5171
மையாய்	-10.5172
ைய	-10.5182
▁நமை	-10.5183
ட்ஸ்	-10.5183
ரங்கள்	-10.5202
▁நகரா	-10.5205
▁ho	-10.5208
டிப்பா	-10.5219
▁கிளிய	-10.5221
▁பங்கு	-10.5225
▁அடித்து	-10.5226
தேனோ	-10.5228
சில்லா	-10.5228
▁நுழைந்திட	-10.5233
▁ரிய	-10.5243
மழை	-10.5245
▁தொற	-10.5254
▁போர்க்கள	-10.5255
▁பார்த்தா	-10.5258
▁வாட்டி	-10.5265
▁எண்ணக்	-10.5269
▁நடந்தால	-10.527
▁எங்	-10.5272
▁வென்ற	-10.5273
▁முடித்து	-10.5274
ுக்குத்தான்	-10.5277
▁தோரணம	-10.5278
▁தோளு	-10.5291
▁இடம	-10.5294
▁ராணிய	-10.5295
▁நீயென	-10.5296
சிச்சா	-10.5304
▁ஆழத்த	-10.5308
co	-10.5308
▁செடிய	-10.5311
ெஸ்ட்	-10.5315
▁குத்து	-10.5319
▁எந்தை	-10.5321
▁என்னது	-10.5321
புடி	-10.5334
நீ	-10.5335
▁கூடி	-10.5337
ாடு	-10.5343
▁min	-10.5348
▁யெ	-10.5351
▁பூன	-10.5354
▁சிரிப்போ	-10.5356
▁போலி	-10.5369
▁இரவி	-10.538
த்தேனே	-10.5386
்டால்	-10.5394
விட்டாள்	-10.54
▁உயிரின	-10.5406
▁தாரா	-10.5408
ுவேனா	-10.5412
▁பாக்காத	-10.5426
▁தேக்க	-10.5434
▁பகல்	-10.5445
▁மனதினை	-10.5453
▁அர	-10.5456
▁நாடி	-10.5456
▁தொழு	-10.5458
▁வாழ்க்கையின்	-10.5467
▁காந்த	-10.5468
▁நாய	-10.5478
ri	-10.548
யேனும்	-10.5499
▁வரா	-10.5504
▁சிவப்ப	-10.5512
வரே	-10.5513
யல்	-10.5519
▁கற்ப	-10.553
▁செதுக்க	-10.553
▁சிரித்திட	-10.5538
▁விஞ்	-10.5538
ாதோ	-10.5539
▁சிதற	-10.554
ல்லா	-10.5541
▁சுமைய	-10.5542
ூரம்	-10.5542
▁de	-10.5543
கேஸு	-10.5546
▁சிரிப்பில்	-10.5548
▁நம்மை	-10.5549
▁ஓயா	-10.5551
றப்ப	-10.5565
▁சாதி	-10.5568
க்குகிறாய்	-10.5576
வாளே	-10.5577
னைத்	-10.5582
ுச்	-10.5586
▁இன்ற	-10.5587
▁பிரிந்து	-10.5587
▁நோய	-10.5594
▁பொம்மை	-10.5596
▁செல	-10.5597
ாதிரு	-10.5598
▁இங்கி	-10.5602
▁wa	-10.5615
ோலி	-10.5618
ிடுவோம்	-10.5623
க்கிறோம்	-10.563
an	-10.5638
துடிக்கும்	-10.5651
up	-10.5652
▁அடுக்கி	-10.5653
▁அம	-10.5653
▁மண	-10.5654
▁பார்த்தது	-10.5658
▁மண்ணா	-10.566
▁வாள	-10.5667
▁வெச்சிருக்க	-10.5668
ழ	-10.5674
▁அதிர்வ	-10.5675
▁ஆட்சிய	-10.568
▁எழுதிய	-10.5685
பார்	-10.5688
▁மடிய	-10.5689
▁வரி	-10.569
▁வாளின	-10.57
▁th	-10.5705
▁நுகர்ந்த	-10.5708
வெச்சு	-10.5711
ிருவேன்	-10.5715
யாவும்	-10.5721
▁மால	-10.5722
ட்டிச்	-10.5723
▁காரண	-10.5728
ce	-10.573
மின்னு	-10.5735
▁நடனம	-10.5736
பிய	-10.5741
விய	-10.5746
▁நீண்ட	-10.5747
▁நினைத்தாய	-10.5748
▁போயிடு	-10.5749
முக்கி	-10.5757
▁உடுத்த	-10.5761
▁உங்களுக்க	-10.5764
ப்பம்	-10.5766
▁பாலை	-10.5767
உலகினை	-10.5768
▁மின்னி	-10.5768
▁தோல	-10.5773
▁சீர	-10.5778
▁துளிய	-10.5781
▁மூழ்க	-10.579
▁ரெண்டாக	-10.5796
ச்சுன்னா	-10.5797
▁கேப்ப	-10.5805
....?	-10.5805
▁வலை	-10.5811
க்கூடாது	-10.5813
▁இதயத்	-10.5813
▁நெரு	-10.5816
ஸ்டா	-10.5816
ர்லா	-10.5817
▁புதைக்க	-10.5818
▁நெலவ	-10.5819
▁வாழ்க	-10.5824
tur	-10.5825
ரெண்டு	-10.5826
▁துடி	-10.5827
கங்கள்	-10.5828
1	-10.5831
ியனே	-10.5835
▁தெரிஞ்ச	-10.5836
ஹலனா	-10.5836
வீடு	-10.5837
நிலா	-10.5839
maaro	-10.5839
▁ஏத	-10.5842
▁ஜீவ	-10.5849
▁வித்த	-10.5852
▁காட்டாய	-10.5852
▁பசங்க	-10.5853
int	-10.5853
▁உத்தரவிட	-10.5857
▁பேப்பர	-10.5862
ye	-10.5864
▁நில்ல	-10.5876
▁சீக்கிரம	-10.5878
▁நடுங்க	-10.5881
▁நட்பு	-10.5883
ஞானி	-10.5902
▁பொறுக்க	-10.5907
▁வெட்க	-10.5908
ுயிர்	-10.5909
▁முடிச்சி	-10.5912
▁செய	-10.5916
▁நீந்தும்	-10.5918
▁பீ	-10.5919
▁வீசிப்	-10.592
வம்	-10.592
▁மாட்டிக்கிற	-10.5924
▁மேனிய	-10.5927
▁மேலா	-10.5929
▁எதுவென	-10.5929
▁கோரி	-10.5948
▁ஐகள	-10.5948
க்குப்	-10.5951
ாகவா	-10.5952
▁நிமி	-10.5952
▁வாய்ப்ப	-10.5953
▁எப்போது	-10.5953
▁நொ	-10.5956
▁காசா	-10.5956
ிட்டுப்	-10.5956
kin	-10.5956
▁பள்ளம	-10.5957
du	-10.5957
பேசி	-10.5964
திக்கும்	-10.5966
▁கறை	-10.5969
▁ஆசப்பட்ட	-10.597
▁தோல்விகள	-10.598
▁இருதய	-10.5986
▁அணிந்த	-10.599
▁போன்ற	-10.5991
ழுவாயோ	-10.5991
▁ஏத்துக்க	-10.5992
▁குளிர்காய	-10.5993
▁மெதுவா	-10.5996
▁பேனா	-10.5997
▁சிலை	-10.5997
▁லவ்ஸு	-10.5999
▁மாப்பிள	-10.6
ச்சமென்பதில்லையே	-10.6
▁two	-10.6
▁சுனாமி	-10.6
▁நீர்த்துளி	-10.6
▁நெகடிவ்	-10.6
▁பியூட்டி	-10.6
▁போகன்வில்லா	-10.6
▁மெட்டாரிக்கா	-10.6
▁ரொமான்ஸுதான்	-10.6
▁வலிக்கிதுடா	-10.6
▁விளங்கிவிடும்	-10.6
▁உங்கய்யன்	-10.6
▁தேங்ஸ்	-10.6
▁படங்காட்டு	-10.6
▁எக்கச்சக்க	-10.6
▁ஏஜே	-10.6
▁பனித்துளி	-10.6
▁மழைத்துளி	-10.6
▁குங்கும	-10.6
▁மருத்துவ	-10.6
▁பாற்கடல	-10.6
▁மரபணு	-10.6
dhanai	-10.6
▁உயிர்த்துணைய	-10.6
▁மகிழ்மதி	-10.6
▁டிபன்	-10.6
▁பரபர	-10.6
▁world	-10.6
▁mode	-10.6
▁நீயென்பேன்	-10.6
▁நரசிம்ம	-10.6
▁மொளகா	-10.6
▁வேதனைகள	-10.6
▁four	-10.6
▁gasolina	-10.6
▁chew	-10.6
▁broke	-10.6
▁மங்கலம்	-10.6
▁todo	-10.6
▁கொளுத்த	-10.6
▁மானக்கேடு	-10.6
▁முளரி	-10.6
▁ஆம்பள	-10.6
▁முகமூடி	-10.6
▁எதிரொலி	-10.6
▁சம்மதிப்பார	-10.6
▁முக்கியமில்ல	-10.6
▁fath	-10.6
▁song	-10.6
▁பென்சில	-10.6
▁எனதுயிரே	-10.6
▁உறக்கம்	-10.6
▁நடந்திருச்சு	-10.6
▁முகவரி	-10.6
▁கண்டிசன	-10.6
▁trend	-10.6
▁freak	-10.6
▁gang	-10.6
▁தாங்காது	-10.6
▁eP	-10.6
damba	-10.6
▁சொதப்ப	-10.6
▁யாவையும்	-10.6
▁பிடிச்சிருந்தா	-10.6
▁தருணம்	-10.6
▁wife	-10.6
▁மூரல்	-10.6
▁நெப்பிக்கோ	-10.6001
▁நடுவுல	-10.6001
▁குமொர	-10.6001
▁வினவ	-10.6001
▁கண்மணி	-10.6001
▁கிளாஸ	-10.6001
▁boys	-10.6001
▁எனதெனதே	-10.6001
key	-10.6001
▁பெய்கிறாய்	-10.6001
▁ஏற்காதே	-10.6001
▁குடிச்சிட்டு	-10.6001
▁அறிந்ததில்லையே	-10.6001
ழிகை	-10.6001
▁கைப்பேசி	-10.6001
▁விரிகிறதே	-10.6001
▁மயங்குதே	-10.6001
▁ராச	-10.6002
▁காகித	-10.6002
▁லவ்ஸுதேன்	-10.6002
▁பழைய	-10.6002
▁திருத்திட	-10.6002
▁உருவமில்லா	-10.6002
▁புதுசாட்டம்	-10.6002
▁than	-10.6002
▁மாதரம்	-10.6003
▁cue	-10.6003
▁தத்துவம	-10.6003
▁மஸ்தான	-10.6003
▁இல்லீங்க	-10.6003
▁போனாலுமே	-10.6003
▁உங்கப்பாகிட்ட	-10.6003
▁முத்தங்	-10.6003
▁நிமிர	-10.6003
▁காலடியில்	-10.6003
▁நிர்வாணமாய்	-10.6003
▁அதுனாலதான்	-10.6003
▁கில்லி	-10.6003
▁பண்ணிக்காம	-10.6004
▁ஓய்வெ	-10.6004
▁அன்னமே	-10.6004
▁காட்டிப்புட்டா	-10.6004
▁பற்றட்டும்	-10.6004
▁தாராயோ	-10.6004
▁புலராய்	-10.6004
▁செல்கின்றேன்	-10.6004
றாயோ	-10.6005
▁முடியட்டும்	-10.6005
▁தாயீ	-10.6005
▁திறந்தேனே	-10.6005
▁பட்டாசா	-10.6005
▁மெய்யில்லை	-10.6005
▁ரோட்டில்	-10.6006
▁அப்புறமா	-10.6006
▁இல்லையடா	-10.6006
▁தீராயோ	-10.6006
▁நனைகிறேன்	-10.6006
▁வீழ்கையில்	-10.6006
▁மெத்தை	-10.6006
▁உப்பில்ல	-10.6006
▁சிந்தனை	-10.6006
▁பரவாயில்ல	-10.6007
▁ki	-10.6007
▁கிராம	-10.6007
▁மொய்க்க	-10.6007
▁குடிச்சேன்	-10.6007
▁ஏனென்று	-10.6008
▁சம்மதிச்சாதான்	-10.6008
▁வேர்வை	-10.6008
▁கோபுரம்	-10.6008
▁பேராழ	-10.6008
▁கூறினால்	-10.6008
▁கனகா	-10.6008
▁கொடுக்கணும்	-10.6009
▁தேடுகிறேன்	-10.6009
▁பொண்டாட்டியே	-10.6009
▁பொழிந்தாய்	-10.601
▁பொண்டாட்டியா	-10.601
▁சேஸு	-10.601
▁தூங்குதோ	-10.601
▁மூடினால்	-10.601
▁விழியோர	-10.6011
▁தாக்குதே	-10.6011
▁தோழனாய்	-10.6011
▁இரண்டையும்	-10.6011
▁சாகிறேன்	-10.6012
▁இன்பியே	-10.6012
▁போறாரு	-10.6012
▁ஏராளம்	-10.6012
▁வீழ்ந்தால்	-10.6012
▁மூனு	-10.6013
▁Y	-10.6013
▁அடித்தல்	-10.6013
▁ஆக்கினாய்	-10.6013
▁முடிஞ்சத	-10.6014
▁சிரிக்குது	-10.6014
▁உணர்ந்ததும்	-10.6014
▁மறந்தாயே	-10.6014
▁கேக்குறேன்	-10.6014
▁வில்ல	-10.6014
▁தொலைவ	-10.6014
▁உலகினில்	-10.6014
▁பிரியாதே	-10.6015
▁தலைவி	-10.6015
▁திங்க	-10.6016
▁என்னைய	-10.6016
zaa	-10.6016
▁வையம்	-10.6016
▁செவியில்	-10.6016
▁தடவ	-10.6017
▁ஆவானோ	-10.6017
▁கொண்டாடுதே	-10.6017
▁என்பேன்	-10.6018
ியர்	-10.6018
▁சொன்னீங்க	-10.6018
ice	-10.6019
▁உறைந்தே	-10.6019
▁இருக்கணும்	-10.602
▁முளைக்குது	-10.602
▁குலுக்கி	-10.602
▁நீயானாய்	-10.602
▁புருசன்	-10.602
▁வர்றீங்க	-10.602
▁தந்தேனே	-10.6021
▁வணங்க	-10.6021
▁கடத்து	-10.6021
▁காத்தோட	-10.6021
▁இங்கில்ல	-10.6021
▁கொண்டதால	-10.6021
▁தூசா	-10.6022
▁மௌனங்கள்	-10.6022
▁கதிரே	-10.6022
▁மிருகம்	-10.6023
▁அமர்ந்து	-10.6023
▁கருப்பா	-10.6023
▁சரித்திரம்	-10.6023
▁தந்தனை	-10.6023
▁கவிஞன்	-10.6024
▁இருதயப்	-10.6024
▁பாடுமே	-10.6024
gg	-10.6024
▁ஆச்சே	-10.6024
dama	-10.6024
▁கொல்லாதே	-10.6025
▁நிரந்தரம்	-10.6026
▁ரேகைகள்	-10.6027
▁டைம்	-10.6027
▁பிரிந்திட	-10.6027
▁செலுத்த	-10.6028
▁அணைத்த	-10.6028
▁இல்லாட்டி	-10.6028
▁சொல்வேனே	-10.6028
▁திசையில்	-10.6028
▁ஒன்றோடு	-10.6029
▁தினுச	-10.6029
▁பொற்க	-10.6029
▁bed	-10.603
▁தேயாதே	-10.603
▁வாழ்ந்தேன்	-10.6031
▁நாயி	-10.6031
▁ஜீன்	-10.6031
▁கள	-10.6031
▁விழிமேலே	-10.6031
▁செய்தோம்	-10.6032
ேறிய	-10.6032
▁படிப்பேன்	-10.6032
▁வேகமாக	-10.6032
▁கேக்குற	-10.6033
▁முழுதாய்	-10.6034
▁தும்பிக்கை	-10.6034
▁ஆசைகளை	-10.6034
▁பனிக்க	-10.6035
▁அந்	-10.6035
▁பாவமா	-10.6035
▁அன்பிலே	-10.6036
▁தீப்பற்ற	-10.6036
▁ஆளவே	-10.6036
▁ஏனடி	-10.6037
▁நுண்	-10.6037
▁பூத்திடும்	-10.6037
▁பேசனும்	-10.6038
▁கொடுத்திட்டு	-10.6039
▁sk	-10.604
▁விடுடா	-10.604
▁வால்மீன்கள	-10.6041
▁ஆசப்பட்டு	-10.6042
▁ஈரமாய்	-10.6042
▁கனவுல	-10.6043
orry	-10.6043
கன	-10.6043
▁காரணத்த	-10.6043
▁மகனே	-10.6044
▁போகனும்	-10.6044
▁தோள்கள்	-10.6044
▁அதிகம்	-10.6045
▁மக்கள்	-10.6045
▁காண்பேன	-10.6045
▁தாண்டிட	-10.6045
▁மாறட்டும்	-10.6048
▁பண்ணாத	-10.6048
▁நீயில்லாமல்	-10.6048
▁செஞ்சான்	-10.6049
▁கொஞ்சமாய்	-10.6049
▁சிதைத்த	-10.6049
▁வாசலே	-10.6051
▁இருளிலே	-10.6051
▁காணவே	-10.6051
▁ஐயோ	-10.6051
▁இல்லாமலே	-10.6052
▁மழையாய்	-10.6052
▁வாங்குவேன்	-10.6052
▁இன்றியே	-10.6052
▁சந்தோசம்	-10.6053
▁Wh	-10.6053
▁பழகிய	-10.6053
▁ஏழு	-10.6054
▁குணம்	-10.6055
▁எக்ஸாம	-10.6055
▁நேர்மை	-10.6055
▁விடைகள்	-10.6055
▁கூறாய்	-10.6056
▁மறந்தோம்	-10.6056
▁கொன்றாய்	-10.6056
▁சம்பா	-10.6056
▁கசக்கும்	-10.6056
▁இருந்தாலே	-10.6056
▁மண்ணிலே	-10.6057
▁கொள்வோம்	-10.6057
ும்போதே	-10.6057
▁நண்பனே	-10.6058
▁பாரேன்	-10.6058
▁கடலில்	-10.6058
▁சொன்னேனே	-10.6059
▁அலைந்த	-10.6061
▁கேட்ப	-10.6062
▁பெரிச	-10.6062
▁பொறுப்பு	-10.6062
▁கண்டதும்	-10.6066
▁செவிகள	-10.6066
▁நிழலை	-10.6067
▁உனக்குள்ளே	-10.6067
▁தூறாய்	-10.6067
▁சிரிச்சா	-10.6069
▁எறிஞ்ச	-10.6069
▁செல்லமே	-10.6069
▁சென்றேன்	-10.607
▁வெற்றிகள்	-10.6071
▁மூடிக்	-10.6072
ுட்டித	-10.6072
▁திரியில்	-10.6072
▁பட்சி	-10.6072
▁என்றாயே	-10.6073
▁உண்டாகும்	-10.6074
▁அணு	-10.6074
▁நிமிஷம்	-10.6076
உல	-10.6077
▁நீங்களே	-10.6077
▁கண்ணனே	-10.6078
▁கரைவது	-10.6079
▁தூறல	-10.6079
▁விளைவ	-10.608
▁சிரித்திடும்	-10.6081
▁எல்லையே	-10.6082
▁துயிலே	-10.6082
▁தடுத்திட	-10.6083
▁பார்க்காதே	-10.6085
▁போலாமா	-10.6086
▁குத்தமி	-10.6088
▁புன்னகைகள்	-10.6089
▁விஜய்கிட்ட	-10.6089
▁அறியும்	-10.609
▁அடங்கும்	-10.609
▁வெச்சேன்	-10.609
▁விழிகளும்	-10.6091
ெனில்	-10.6092
▁தந்தால்	-10.6092
▁எதனால்	-10.6092
▁தித்திக்கும்	-10.6093
▁வீட்டுக்குள்ள	-10.6094
▁அருள்	-10.6094
▁தொட்டுப்	-10.6096
▁போதாதே	-10.6098
▁அன	-10.6098
▁கவசம	-10.6099
▁காட்டிலே	-10.61
▁கூட்டை	-10.61
▁பாதையில்	-10.6101
▁நடக்குது	-10.6102
▁மணல்	-10.6102
ெப்	-10.6105
ுதான்	-10.6105
லையுரசி	-10.6105
▁மழையில்	-10.6107
▁மாதிரியா	-10.6108
▁தானடா	-10.6109
▁கொல்லும்	-10.6109
▁அன்ன	-10.611
▁தம்பியும்	-10.611
▁வாழ்க்கையை	-10.6114
▁இருப்பாரு	-10.6115
▁காண்பேன்	-10.6117
▁ரிங்	-10.6118
▁தங்கச்சியும்	-10.6119
▁தலப்பா	-10.612
▁சீக்கிரம்	-10.6123
▁ராகம	-10.6123
▁கண்ணீரோ	-10.6124
▁டை	-10.6127
▁இங்கையும்	-10.613
▁நாங்கதான்	-10.6132
▁உதிரும்	-10.6132
▁போவோம்	-10.6133
▁ஜா	-10.6136
▁காட்டுக்	-10.6136
▁கடையும்	-10.6136
▁உக்கார	-10.6137
▁முடிஞ்சான்	-10.6137
▁போடடா	-10.6137
▁பாக்கல	-10.6138
▁அனைவர	-10.614
▁let	-10.6141
▁கோடியா	-10.6141
▁சோதர	-10.6143
▁திருடும்	-10.6144
▁புல்ல	-10.6144
▁தூறல்கள்	-10.6149
▁வாலு	-10.6149
▁அண்ணன்தான்	-10.6151
▁விரலும்	-10.6153
கொள்ளுதல்	-10.6154
▁அறி	-10.6157
▁hu	-10.6157
▁சுமந்து	-10.6158
▁கால்களை	-10.6162
▁துறவி	-10.6163
▁கைதட்ட	-10.6164
▁தடைகள்	-10.6172
விட்ட	-10.6172
▁வினை	-10.6172
▁மொழியில	-10.6176
▁பாஞ்சா	-10.6177
▁மகிழ்வ	-10.6179
▁பரவும்	-10.6179
▁போவேன்	-10.6181
▁உன்னிலே	-10.6185
நூறு	-10.6187
▁நோக்கினா	-10.6187
▁சிறகே	-10.6188
▁உயிரில்	-10.6189
ட்டினாய்	-10.6189
தியா	-10.6191
▁பொறி	-10.6193
டுதோ	-10.6195
▁மாறிடும்	-10.6196
▁தடுக்க	-10.6196
▁மலர்ந்திட	-10.6196
▁நட்ப	-10.6197
▁வருவார	-10.6198
▁குழப்பி	-10.6198
▁அழகோ	-10.6201
▁இல்லையேல்	-10.6203
▁கழுகு	-10.6203
டுங்கா	-10.6203
ட்டை	-10.6204
▁இருவர்	-10.6204
▁நரகத்த	-10.6205
▁மீத	-10.6206
▁இருடா	-10.6206
▁ஓடிச்	-10.6206
▁செய்தான்	-10.6207
▁அதிருத	-10.6207
▁ஏழும்	-10.6208
▁பயன்	-10.621
▁ஊன்	-10.621
▁மொர	-10.621
டையாய்	-10.621
▁தேக்கி	-10.6214
▁நிலவெ	-10.6214
▁குளித்த	-10.6218
▁யாருங்க	-10.6218
▁சொல்லுடா	-10.6219
ையில	-10.622
▁தொட்டுப்பா	-10.622
▁கொஞ்சம	-10.622
ங்காதே	-10.6221
▁விடுங்க	-10.6225
▁இருக்காது	-10.6226
▁வந்தாள்	-10.6226
▁பக்கத்த	-10.6226
▁லவ்வு	-10.6227
▁மேற்க	-10.6228
▁உடன	-10.6228
▁வார	-10.6228
ூறும்	-10.6234
ருந்த	-10.6235
ங்கு	-10.6235
▁தீட்டும்	-10.6236
▁பார்க்கிறாய	-10.624
▁முடிவா	-10.6241
▁மன்ன	-10.6244
▁குடுக்க	-10.6249
▁எண்ணங்கள	-10.625
▁மார்பிலே	-10.6252
▁செதுக்கிடும	-10.6254
▁மொச	-10.6256
▁அண்ணனா	-10.6256
▁அருள	-10.6257
▁பாசக்கார	-10.6262
▁வரையும்	-10.6268
▁திருடு	-10.6269
▁பூச்சி	-10.627
▁யோசிச்சு	-10.6281
▁நெனக்க	-10.6282
ொண்ண	-10.6286
▁கவலப்படாத	-10.6289
▁எண்ணும்	-10.6289
▁குதி	-10.629
ாளு	-10.6292
ow	-10.6292
▁உன்னத்	-10.6295
ுமி	-10.6305
▁உடையா	-10.6305
▁திறக்கின்ற	-10.631
▁அதற்கு	-10.6311
▁மாறிப்	-10.6311
▁கண்ணீரும்	-10.6314
டுவானே	-10.6314
▁car	-10.6317
▁சிரிப்பும்	-10.632
▁மூச்சும்	-10.6321
▁டெர	-10.6323
வ்	-10.6324
▁கதற	-10.6324
▁விலகி	-10.6326
▁அடடா	-10.6331
ில்லையே	-10.6333
▁மீள	-10.6336
▁இறுக்க	-10.6341
▁பூக்கின்ற	-10.6342
▁தோட்டத்தில	-10.6344
▁வைக்கும்	-10.6345
▁காரணம	-10.6347
▁போட்டி	-10.6347
ானம்	-10.6347
▁வேறெங்க	-10.6352
▁எதோ	-10.6353
ேத்த	-10.6357
வாவா	-10.6364
▁சொல்லுது	-10.6365
ித்தாய்	-10.6366
▁தொடர்ந்திடு	-10.6369
▁நாவா	-10.6372
▁மண்ணே	-10.6373
▁வளர	-10.6376
▁பறந்திட	-10.6376
ஸ்ட்	-10.6379
▁சிதறி	-10.638
விழி	-10.638
▁வாசிக்க	-10.6381
▁மூன்று	-10.6381
ாட்டங்	-10.6393
tyle	-10.6394
தடீ	-10.6406
மாக்கு	-10.6406
்திரை	-10.6407
னும்ன்னு	-10.6407
▁வாம்மா	-10.6412
▁பிசினஸ்	-10.6414
▁அடிச்சிட்டா	-10.642
▁eh	-10.642
▁இரசித்த	-10.6423
▁பூவும்	-10.6424
▁கோர்க்க	-10.6426
▁துரத்த	-10.6427
▁பண்பாட	-10.6437
▁பாக்கணும்	-10.6438
▁ஒலக	-10.6439
▁சுழல்கிற	-10.6442
▁இல்லடா	-10.6443
▁மண்ணும்	-10.6445
▁சீறிப்	-10.6451
▁இருக்கே	-10.6455
▁வியந்த	-10.6459
▁கொத்தி	-10.6459
்டர்வியூ	-10.6461
uga	-10.6462
▁டெ	-10.6463
ப்பொறி	-10.6463
aa	-10.6464
▁சூழ்	-10.6466
▁பேசிட்ட	-10.6468
▁அப்பன்	-10.6468
▁இனம்	-10.6473
▁வெயி	-10.6475
▁அண்ணனுங்கள	-10.6479
ரிச்சு	-10.6481
▁இஷ்ட	-10.6481
▁தூங்காத	-10.6482
▁விட்டுக்	-10.6482
▁re	-10.6483
▁பத்திக்க	-10.6492
▁அணைத்திட	-10.6496
▁மிச்ச	-10.6499
▁அழுத்த	-10.65
hj	-10.65
ரிதா	-10.6505
▁பொண்ணுங்கள	-10.6505
ுலன்	-10.6507
▁தீராத	-10.6508
▁என்னடீ	-10.6509
▁விரகத்த	-10.651
▁வைத்தும்	-10.6517
ஞ்சாப	-10.6524
கையிலே	-10.6529
rat	-10.6531
▁ஏற்றிட	-10.6535
மாறு	-10.6536
▁பேருல	-10.6547
▁கேப்போம	-10.6551
உக்குள்ள	-10.6556
▁மாறும	-10.6556
▁உண்டாக்க	-10.6558
▁வரச்	-10.6558
▁கூவி	-10.6564
▁டோன	-10.6566
▁செல்வோம	-10.6569
▁வழியா	-10.6575
ந்தால்	-10.6575
▁பொய்க்க	-10.6579
▁மலைகள	-10.658
▁எழுப்பிட	-10.6581
▁ஈர்	-10.6589
▁பிறை	-10.6591
▁மவ	-10.6597
▁fr	-10.6597
▁பேச்சை	-10.6599
ாது	-10.66
▁திரியுத	-10.6605
▁பூவு	-10.6609
▁எனதே	-10.6612
▁மூச்சில	-10.6613
ாளே	-10.6617
க்கங்கெட்ட	-10.6619
க்குவேன்	-10.6622
▁சொன்னான்	-10.6627
▁பாராட்ட	-10.6627
▁உனதழக	-10.663
▁தவி	-10.6632
ள்ளி	-10.6632
்கிறதோ	-10.664
▁புலிய	-10.6641
▁வெக்கத்த	-10.6643
▁உலகினை	-10.6644
▁கொடுமைய	-10.6648
▁விரிச்ச	-10.6651
ராட்டினாய்	-10.6652
்கின்றாள்	-10.6652
uli	-10.6652
▁நாயகன	-10.6657
▁வரக்	-10.6657
▁பொழி	-10.6659
▁வாசன	-10.6665
▁தனிமைய	-10.6667
▁மின்னிடும	-10.6667
▁எரித்திட	-10.6668
men	-10.667
▁இதப்	-10.668
▁கம்பெனிக்கு	-10.6682
▁அதிர்வு	-10.6687
▁பொறக்க	-10.669
மையா	-10.6693
ீசு	-10.6701
▁துளைய	-10.6701
▁பிறந்தவன	-10.6702
▁வன	-10.6704
▁ஆளில்ல	-10.6704
▁போக்க	-10.6706
▁பாய்ந்தே	-10.6706
ிருந்தா	-10.6707
▁அழுதிட	-10.6709
▁சொன்னாங்க	-10.6711
ிசைய	-10.6714
▁சிதறல	-10.6717
▁இமைத்திட	-10.6717
▁பின்னணி	-10.6725
▁பாக்கலாம்	-10.6725
▁ஏங்கி	-10.6732
ser	-10.6735
▁நனைக்கிற	-10.6738
▁உனக்குள்ள	-10.6741
▁வறண்ட	-10.6744
▁தடுத்து	-10.6745
▁bit	-10.6746
▁பிறக்க	-10.6748
▁ஆழத்தை	-10.6749
▁கண்ணன்	-10.6749
▁திரைய	-10.6754
▁வர்ண	-10.6755
▁காலத்தை	-10.6762
▁gi	-10.6763
▁பரவிட	-10.6764
▁இறக்க	-10.6766
வைத்தோம்	-10.6769
▁பரவச	-10.677
▁பேசுற	-10.6774
▁நதிய	-10.6782
்ஸ்	-10.6783
▁மறதி	-10.6783
▁பிரச்சனை	-10.6785
▁வாழ்கின்ற	-10.6792
▁அரச	-10.6793
▁ஆண்டு	-10.6794
யாக	-10.6808
லர்	-10.6811
▁தோட்டத்துக்கு	-10.6811
▁இழுத்தாய	-10.6812
▁பஞ்சு	-10.6815
உக்கு	-10.682
பிள்	-10.683
்ளட்	-10.6831
களோ	-10.6831
வைத்	-10.6832
▁குதிக்குத	-10.6835
▁பெரு	-10.6837
▁தலைகீழ	-10.6839
▁அக	-10.6848
றாங்க	-10.6853
▁கவர	-10.6855
▁துயில்	-10.6858
▁சொல்வதை	-10.6859
த்தக்	-10.6875
▁கனிவ	-10.6876
▁செய்தி	-10.6878
▁ஒளிய	-10.6885
▁நிலமை	-10.6886
▁மட்டாட	-10.6891
▁படிக்காம	-10.6894
ave	-10.6894
▁இவனை	-10.6895
ெனும்	-10.6899
▁லைட்	-10.6899
nam	-10.6905
▁குறைய	-10.6908
யிட்	-10.6909
▁வலிய	-10.6909
டத்தில	-10.691
▁எரித்த	-10.6912
▁போயிட்டா	-10.6925
▁சாய்ந்த	-10.6933
▁வேட்டி	-10.6935
▁பண்ணறேன்	-10.6941
▁உயிரினை	-10.6943
த்துக்கப்புறம்	-10.6952
▁வர்ர	-10.6952
ck	-10.6958
றா	-10.696
▁பர்ஸ	-10.6963
ராக	-10.6972
▁அஞ்சாத	-10.6973
▁மிதவை	-10.6978
ராயிரம்	-10.6981
சி	-10.6982
▁சொல்லா	-10.6985
▁சில்ல	-10.6986
பர்	-10.6988
▁அழு	-10.6988
▁சங்கர	-10.699
▁அசை	-10.6993
▁உணர்ந்த	-10.7004
▁ஆத்த	-10.7004
ாக்குவான்	-10.7008
▁நனைய	-10.7008
▁mon	-10.7012
ிச்சு	-10.7014
ோம்ன்னு	-10.7014
▁வளர்	-10.702
்ல	-10.7022
ito	-10.7023
▁யோசனை	-10.7028
▁மயக்கங்கள	-10.703
▁வெச்சுகிட்ட	-10.703
▁?.....	-10.7033
▁நீங்களா	-10.7043
ff	-10.7045
▁நிற்க	-10.7046
▁வகை	-10.7052
..!	-10.706
▁கண்ணீரை	-10.7061
தோம்	-10.7062
▁பூட்டு	-10.7067
ஷ்	-10.707
வதும்	-10.707
▁பிக்	-10.7071
னிலே	-10.7072
▁விரட்டி	-10.7075
ுத்	-10.7079
▁கடை	-10.7079
▁உறங்கு	-10.7081
▁கொல்வா	-10.7086
▁நெருப்பின	-10.7087
▁முத்தங்க	-10.7089
▁தொ	-10.7094
▁தின்னட்ட	-10.7102
▁இதற்க	-10.7106
▁தாய்ம	-10.7111
ின்ன	-10.7122
▁அழைக்க	-10.7122
களா	-10.7123
▁கிழிக்க	-10.7123
▁பாத்தால	-10.7124
▁முத்தத்தால	-10.7125
▁Par	-10.7126
▁தப்பான	-10.7128
வோட	-10.7131
▁கழிச்ச	-10.7132
▁உதடு	-10.7134
வதில்லை	-10.7137
▁கும்ம	-10.7139
▁கேட்பத	-10.7141
▁கையால	-10.7141
▁தேரில	-10.7144
▁பிரிச்சு	-10.7146
▁நுழைவே	-10.7148
▁செங்க	-10.715
ster	-10.7163
▁எதிர	-10.7164
▁தய்யா	-10.7164
▁புத்த	-10.717
▁கதவு	-10.7189
▁குறும்பு	-10.7197
ருந்தோ	-10.7199
▁நடந்ததை	-10.7199
▁ni	-10.721
b	-10.7212
▁சந்தேகத்த	-10.723
றற	-10.7237
▁உலா	-10.7238
▁முகை	-10.7248
▁எஞ்ச	-10.725
▁பொருளை	-10.725
க்காம	-10.7253
▁அணையாத	-10.7254
▁சிரித்து	-10.7254
▁குழம்பி	-10.7255
▁தீட்ட	-10.726
▁தீண்டல	-10.7263
▁சுருட்ட	-10.7264
▁ஓயாமல	-10.7266
▁செய்யாம	-10.7271
▁மழைய	-10.7271
▁மறைவத	-10.7275
▁வயிற்ற	-10.7277
ணுமா	-10.728
▁நான்தான்	-10.7281
▁கவலைய	-10.7289
▁நிறங்கள	-10.7292
▁வெற்றியின்	-10.7295
▁போறது	-10.7299
▁பண்ணனும	-10.7302
▁வந்தவள	-10.7302
யப்	-10.7306
▁அப்	-10.7313
▁என்றோ	-10.7315
▁அவ்வ	-10.7316
ுக்குள்ளாற	-10.7331
▁பண்ணற	-10.7334
ிசையில்	-10.7334
▁பாதைய	-10.7336
▁இறக	-10.7338
▁ஆராய்கிற	-10.734
க்கொரு	-10.7344
▁இதழ்களி	-10.7345
▁பேக்ட்ரி	-10.7346
ுவாய்	-10.7352
▁சார	-10.7353
▁அழுகைய	-10.7359
▁கவல	-10.7364
யாமல்	-10.7364
ாத்தா	-10.7366
▁எம	-10.7374
ளா	-10.7381
▁தவறென	-10.7383
▁நீர	-10.739
▁உற	-10.7392
க்கினாய்	-10.7397
▁சித்தி	-10.741
▁ஆடைகள	-10.7411
▁திட்ட	-10.7412
▁கிரங்க	-10.7427
ங்கா	-10.743
▁எஸ்	-10.7432
▁தெறிக்க	-10.7433
▁தார	-10.7434
▁தாங்கு	-10.7437
▁இரவினில	-10.7439
▁கலச்சு	-10.7439
▁குவி	-10.7441
▁சிதை	-10.7445
▁ரோடு	-10.7453
▁பேசிக்	-10.7453
்ம	-10.7455
ிட்டிருக்கா	-10.7458
த்தாய்	-10.7461
ிறகு	-10.7469
ti	-10.7481
▁உரசிய	-10.7483
▁இதுதான	-10.7486
ail	-10.7503
▁கெடச்ச	-10.7503
▁ராம	-10.7505
▁எடுத்தா	-10.7509
▁விதைத்து	-10.751
▁உனக்காக	-10.7512
▁குரங்க	-10.7512
டிக்குற	-10.7517
se	-10.7521
▁விழுங்கு	-10.7526
▁தொடர்	-10.7535
▁மணம	-10.7535
▁செல்வா	-10.7538
்பாயா	-10.7547
▁கோத	-10.7549
▁குட	-10.7552
▁வீட்டுப்	-10.7567
▁அசையாத	-10.7569
ேசம்	-10.757
▁தேடிய	-10.7571
▁உடைத்து	-10.758
▁கண்களை	-10.7589
▁சொர்கங்	-10.7589
ிட்டியா	-10.7592
ாளம்	-10.7592
▁ஒம்போ	-10.7604
ருக்கும்	-10.7609
ஜா	-10.7633
▁விடுவான	-10.7641
▁குழப்பம	-10.7645
▁தேவதைய	-10.7648
▁நீங்கி	-10.7661
▁அறுப	-10.7673
ற்க	-10.7674
லைச்	-10.7675
த்தாலும்	-10.7675
▁விய	-10.7676
▁புகுந்திட	-10.77
▁வால்	-10.7709
ாதல்	-10.7715
▁சுட்ட	-10.7722
▁இமைக்க	-10.7726
▁கேட்கப்	-10.7731
▁நாய்	-10.7731
▁கண்கலங்க	-10.774
▁சிக்	-10.7758
ூண்டு	-10.7759
▁விரும்பிட	-10.7765
▁கம்ப	-10.777
▁un	-10.777
▁மண்ட	-10.7772
▁கிளைகள	-10.7785
▁பெண்ணை	-10.7803
▁இய	-10.7805
▁மோதல	-10.7809
▁மன்னி	-10.7814
▁மாமன	-10.7816
sa	-10.7817
▁வாளா	-10.7818
கினாய்	-10.7818
▁சேந்த	-10.782
▁செய்வ	-10.7826
▁பொர	-10.7826
▁ch	-10.7829
▁தெற	-10.7837
ையெல்லாம்	-10.7837
ச்சுட்டு	-10.7839
▁உடைமை	-10.7843
▁தேச்சு	-10.7849
முன்னே	-10.7851
▁நட்டு	-10.7855
்கிறோம்	-10.7856
ப்பாடு	-10.7861
▁உள்ளேய	-10.7869
ப்பினில்	-10.7871
▁செய்தாள	-10.7871
meter	-10.7879
▁மோகத்த	-10.7882
▁மேட்டர	-10.7887
▁கொய்	-10.7887
யாதே	-10.7898
ட்டீங்களா	-10.7902
▁கோவத்த	-10.7904
▁ஊத	-10.7909
▁வண்ணக்	-10.7911
▁ஒன்றாகி	-10.7914
ிற்	-10.7915
▁மனைவிய	-10.7922
▁புனல	-10.7923
▁ஏமா	-10.7924
▁பண்ற	-10.7927
லகை	-10.793
▁பொறுத்த	-10.7934
ுப்போன	-10.7937
ிச்சிடத்தான்	-10.7946
▁மந்திர	-10.7949
ாலம்	-10.7953
▁kan	-10.7975
▁கிரங்கி	-10.7979
குமாரி	-10.7983
▁இற	-10.7991
mbo	-10.7993
றான்	-10.8003
▁தன்ன	-10.801
மாயவா	-10.8014
த்தின	-10.8019
▁எழ	-10.8022
▁சும	-10.803
▁விடுவா	-10.803
ளு	-10.8032
▁பண்ணுவான	-10.8033
ண்ணும்	-10.8054
ணை	-10.8061
ke	-10.8064
▁மொத்தமா	-10.8066
ிருப்பீங்க	-10.8071
ினைக்	-10.8078
▁வைத்தால	-10.8085
▁தோற்ற	-10.8088
▁பவித்ராவுக்க	-10.8089
▁பொறிய	-10.8103
▁மண்ணி	-10.8103
▁பேசிக்கொண்ட	-10.8118
▁பொறந்த	-10.812
▁வாசம	-10.8122
ary	-10.8125
வனே	-10.8126
மையில்	-10.8132
▁bl	-10.8134
▁தய்ய	-10.8138
▁பூகம்பம	-10.8141
ிருக்காரு	-10.8141
▁ஸ்ப	-10.8142
மாட்டா	-10.8145
▁கிழக்கு	-10.8148
ஸ்கா	-10.8151
▁சுக	-10.8156
டுப்பு	-10.8171
▁tP	-10.8173
▁அறிந்திடு	-10.8174
▁சிரிய	-10.8179
▁இருங்க	-10.818
▁தொடர்கிற	-10.8181
க்ஸ்	-10.8182
▁சோதி	-10.8183
▁மல	-10.8183
▁கோடு	-10.8189
▁அடங்க	-10.8203
யாகும்	-10.8205
ாரிகா	-10.8214
ரில்	-10.8216
▁சுத்துற	-10.8218
▁ஆராய்	-10.8231
▁பெத்த	-10.8232
▁கல்யாணத்துக்க	-10.8234
▁வீழ்வ	-10.8239
▁யுத்த	-10.8245
▁கேட்கறேன	-10.8246
▁இதயங்கள	-10.8248
▁போயிட	-10.8249
ச்சிட்டு	-10.8252
தப்பத்தி	-10.8254
▁யாரின	-10.8255
▁அசைவாய	-10.8258
▁சிங்க	-10.8264
▁நம்புவ	-10.8265
▁கிழிச்சிட	-10.8275
▁பிழையென	-10.8275
ன்றோ	-10.8276
▁விழு	-10.8276
ப்புறம்	-10.8279
▁தீண்டல்	-10.8287
ியினில்	-10.8288
கின்றதே	-10.829
துவரை	-10.8291
▁கண்ணில	-10.8293
யென்ன	-10.8313
▁புதையல	-10.8324
ங்களா	-10.8329
ப்போகும்	-10.8329
▁யாரவள	-10.833
▁யாரென்ற	-10.8331
▁எனத	-10.8333
▁போதையில்	-10.8336
▁பெருகி	-10.834
▁பேசுறத	-10.8345
▁நீங்கா	-10.8346
▁சூடிட	-10.8353
▁வீழாத	-10.8356
hā	-10.8356
▁உறை	-10.8361
▁பசார	-10.8366
தினம்	-10.8366
▁தில்ல	-10.837
ங்காங்க	-10.837
rp	-10.8382
சொன்னா	-10.8392
▁கண்டேன	-10.8392
▁வானத்தில	-10.84
▁முதலா	-10.8411
ிரித்தேன்	-10.8417
▁கிறக்க	-10.8426
▁முற	-10.8428
▁பல்லா	-10.8429
▁பொற	-10.8432
இன்	-10.8433
ky	-10.8449
▁தங்கைய	-10.8453
▁தோரண	-10.8454
▁உதறி	-10.8465
▁சந்தேக	-10.8466
வளோ	-10.8469
▁கொடுப்ப	-10.8469
▁நடை	-10.8474
▁ரை	-10.848
▁தாக்கி	-10.8481
▁சிரிக்கிறத	-10.8488
ெது	-10.8491
க்கார	-10.8492
ச்சிருக்கேன்	-10.8493
▁செத்துப்	-10.8497
▁கோர்த்த	-10.8503
▁வேத	-10.8505
ாளோ	-10.8505
ுவானே	-10.8506
▁படிப்பு	-10.8516
ஞ்சே	-10.852
ிமா	-10.852
▁கொண்டும்	-10.8521
▁பேசுங்கன்ன	-10.8528
▁கசக்க	-10.8531
▁கருக	-10.8535
sy	-10.8538
ருன்னு	-10.8543
▁int	-10.8546
▁நடந்திட	-10.8549
▁இன்னிக்க	-10.855
▁ஆடுகின்றத	-10.855
▁எனக்க	-10.8551
▁பசிய	-10.8557
▁போகாத	-10.8562
▁முட்டு	-10.8567
▁செக்ஸ	-10.8573
குதோ	-10.8573
▁பூங்க	-10.8575
▁ரோ	-10.8578
▁எட்ட	-10.8596
▁அறையின	-10.86
▁என்றாகி	-10.8601
ாயிரம்	-10.8603
த்தான	-10.8609
▁பண்ணிக்க	-10.861
▁வாசத்தில	-10.8611
மறந்தேன்	-10.8616
ுக்கில்	-10.8624
ங்கே	-10.8629
ுள்	-10.8631
கப்	-10.8631
வதுபோல	-10.8652
▁முடியா	-10.8654
▁தாவ	-10.8666
▁யுக	-10.8669
ச்சுப்	-10.8673
மம்	-10.8678
▁விழுவேன	-10.8679
▁ரீ	-10.8679
ரியா	-10.868
▁துகள	-10.8683
▁முடிவில்	-10.8685
▁வெளியினில	-10.8687
▁வாழ்வினி	-10.8689
ப்பத்தி	-10.8692
புக்கு	-10.8705
▁காணத்தான	-10.871
▁அணிவ	-10.8711
▁கறைய	-10.8715
▁கைகளை	-10.8716
▁முடிந்திட	-10.8722
்கிறேன்	-10.8723
▁கொடுக்கும்	-10.8724
▁பொழ	-10.8724
▁ராவ	-10.8725
▁மனித	-10.8731
na	-10.8732
▁காக்கி	-10.8737
▁ஆணி	-10.8742
▁அழுவ	-10.8743
ாளி	-10.8745
▁அடிப்ப	-10.8755
▁சிறி	-10.8756
ூட்டும்	-10.8766
▁ரசிக்க	-10.8766
▁பழக	-10.8767
▁விழியோ	-10.8781
▁கோடை	-10.8789
▁மின்னிடு	-10.8789
ும்மா	-10.879
▁தோக	-10.8793
▁காலியான	-10.8797
▁இருளோட	-10.8804
▁ஆரம்பிச்ச	-10.8805
▁பூம	-10.8805
▁நேரு	-10.8809
▁சேய	-10.8818
▁வரட்டும	-10.8818
▁வேட்டு	-10.8825
▁Th	-10.8835
▁தருவாய	-10.8836
▁மாறுவ	-10.8839
▁தொடர்ந்திட	-10.8843
▁சாத	-10.8843
▁வத	-10.8848
▁காத்தா	-10.8851
▁இவளி	-10.8858
▁அங்கி	-10.886
▁நின்றே	-10.8865
▁பாவ	-10.8868
▁குழம்பு	-10.8869
▁மொட்ட	-10.8876
▁பாத்தே	-10.8884
▁கவித	-10.889
▁உள்ளத	-10.8892
▁யோசிக்க	-10.8893
▁மக	-10.8901
▁வெச்சிக்க	-10.8901
▁இச்சை	-10.8903
▁புழு	-10.8906
ில்லாம	-10.8911
்கின்றேன்	-10.8912
ாரா	-10.8913
▁உணர்	-10.8932
த்தையெல்லாம்	-10.894
▁உச்சம	-10.8941
போவதில்லை	-10.8948
▁மகிழாய	-10.8949
tion	-10.8952
▁பேரா	-10.8952
ங்கய்யா	-10.8958
▁பறிக்க	-10.896
▁எடை	-10.8964
▁விழுந்தா	-10.8969
▁வெடிச்ச	-10.8973
▁அமைய	-10.8973
▁காட்டுற	-10.8985
▁எதிரிய	-10.8995
▁காயத்த	-10.9006
▁நாவின்	-10.9018
▁கூடிட	-10.9023
▁மோட்	-10.9025
▁மடை	-10.9027
நாடோ	-10.9028
க்கெ	-10.9032
▁முளை	-10.9036
▁வெற	-10.9041
ic	-10.9046
▁ருசிக்க	-10.9048
▁பூவென	-10.9053
▁மார்ப	-10.9055
ter	-10.9057
பெல்லி	-10.9058
nk	-10.9067
▁தாராளமா	-10.9068
illa	-10.9071
▁அவனோட	-10.9074
குவ	-10.9078
▁கொடியை	-10.9082
சக்	-10.9086
▁சென்றதும	-10.9087
▁நினைவின	-10.9087
▁பூச்ச	-10.9089
2	-10.9097
▁கலர	-10.9099
▁ல	-10.9101
ம்ஹும்	-10.9112
▁கத்துக்கிட்ட	-10.9113
▁புயலா	-10.9115
▁அருவிய	-10.9117
▁கேக்	-10.912
ேட்டர	-10.9121
உள்ளே	-10.9122
வெள்ளம்	-10.9122
▁கொக்க	-10.913
cho	-10.9134
▁முன	-10.9142
ிள்	-10.9145
▁அசைவில	-10.9146
I	-10.9155
dra	-10.9157
ச்சியே	-10.9158
bow	-10.9163
▁நெல	-10.9163
▁விடலாம	-10.9163
தர	-10.9168
▁விரிய	-10.9168
▁கோர்	-10.9168
▁ஊற்றி	-10.9168
▁புரிஞ்சு	-10.917
வழி	-10.917
தாரகை	-10.9171
நொடியில்	-10.9172
D	-10.9172
பங்களா	-10.9174
▁ஈச	-10.9175
Y	-10.9177
விழா	-10.9184
மாதிரி	-10.9184
▁குழலில	-10.9185
▁கம	-10.9186
மாரி	-10.9187
▁வாழ்வெல்லாம	-10.919
▁for	-10.9191
ங்களும்	-10.9192
▁வருந்த	-10.9193
▁சிறையின	-10.9193
▁சரிதான	-10.9194
முன்னு	-10.92
ைட்டே	-10.9203
ஓடு	-10.9208
▁இறவ	-10.9209
▁வீழ்ந்திடு	-10.921
▁நாதி	-10.9212
▁செம	-10.9214
▁எதனால	-10.9215
றித்தாய்	-10.9215
டுங்கள்	-10.9219
▁அக்கு	-10.9222
ுத்தம்	-10.9225
ித்தோம்	-10.9226
▁செய்தாய	-10.9228
▁ரங	-10.9231
ap	-10.9231
னெ	-10.9237
ழக	-10.9238
ப்போவும்	-10.9238
க்கூ	-10.9244
ாட்டில்	-10.9246
▁கிடையாத	-10.9251
▁நோக்கி	-10.9258
ருளும்	-10.9258
▁செய்கைய	-10.9259
▁உனக்குள்	-10.9263
▁போகும	-10.9267
▁நிலவென	-10.9267
▁கெட்டுப்	-10.9269
ிக்கிட்டு	-10.927
▁பிறர	-10.9274
▁போயிட்ட	-10.9275
பாயா	-10.9276
▁பழகிப்ப	-10.9285
▁வேண்டியத	-10.9287
வெட்ட	-10.9289
▁திணித்த	-10.9289
▁விலங்க	-10.9292
▁ஆனத	-10.9295
▁தவறு	-10.9302
▁கும	-10.9304
▁பறை	-10.9305
▁அஞ்ச	-10.9307
▁வண்ணங்க	-10.9307
▁மீனாவுக்கு	-10.931
குமார	-10.9316
▁இதயத்தி	-10.9318
▁சம்ப	-10.9324
▁உடைகிற	-10.9324
ங்கெங்க	-10.9325
ளில்	-10.9326
ெய்தி	-10.9326
ஜ்ஜி	-10.9327
ook	-10.9329
▁விருப்பம்	-10.9331
ீஸ	-10.9331
migo	-10.9332
▁மரியாத	-10.9332
▁கெளம்ப	-10.9333
யலச்ச	-10.9333
▁இரைச்சலி	-10.9333
▁தழுதழுத்த	-10.9333
▁Darling	-10.9333
▁battery	-10.9333
▁boyfriend	-10.9333
▁girlfriend	-10.9333
▁password	-10.9333
▁அதுமில்லாம	-10.9333
▁அமீகோ	-10.9333
▁எதிரெதிர	-10.9333
▁கடற்கரை	-10.9333
▁கிசுகிசு	-10.9333
▁சீனோர்இடா	-10.9333
▁ஜூலியட்	-10.9333
▁நடுத்தெருவில	-10.9333
▁பரிட்சை	-10.9333
▁புகைப்பூஞ்சுருள	-10.9333
▁பேக்டரி	-10.9333
▁பைத்தியமா	-10.9333
▁இளைப்பாற	-10.9333
▁ஞாயிறா	-10.9333
▁பீரங்கி	-10.9333
ucc	-10.9333
▁எதிர்பார்த்தது	-10.9333
▁குபுகுபு	-10.9333
▁தயக்கம்	-10.9333
▁தேவசேனா	-10.9333
▁பூநாரை	-10.9333
▁மூலிகை	-10.9333
▁இளைஞ	-10.9333
▁நாற்காலி	-10.9333
▁நெடுந்துயர	-10.9333
▁பணிந்திடு	-10.9333
▁புறாவ	-10.9333
ெதிரியி	-10.9333
▁gym	-10.9333
▁கடிகாரம	-10.9333
▁ரகுமான்	-10.9333
▁ஆட்டிவிட்டானே	-10.9333
▁எனதறிவொளி	-10.9333
▁என்னுயிரே	-10.9333
chool	-10.9333
▁ராவணன	-10.9333
▁வகுப்ப	-10.9333
▁year	-10.9333
▁அனைத்தையும்	-10.9333
▁மறக்கவில்லையடி	-10.9333
▁வணக்கம்	-10.9333
▁நேரமாகுது	-10.9333
▁பொம்மலாட்ட	-10.9333
▁first	-10.9333
▁மாப்ள	-10.9333
▁மீகாமன்	-10.9333
▁ஐய்யோ	-10.9333
▁ஒளிருது	-10.9333
▁பொதுவா	-10.9333
▁சமாதான	-10.9333
▁வெள்ளிக்கிழமை	-10.9333
▁chill	-10.9333
▁flight	-10.9333
▁ஹைக்கூ	-10.9333
▁தகதின	-10.9333
▁மறுபக்கம்	-10.9333
▁தன்னந்தனி	-10.9333
▁star	-10.9333
▁full	-10.9333
▁நனவில்	-10.9333
▁walk	-10.9333
▁home	-10.9334
▁இறுதிவரை	-10.9334
▁மெய்நிகரா	-10.9334
▁குளிச்சிட்டு	-10.9334
▁துகில	-10.9334
▁அவிழ்ந்திட	-10.9334
▁சுவாசிக்கலாம்	-10.9334
▁ரொட்டி	-10.9334
▁look	-10.9334
▁தரைமேலே	-10.9334
▁pack	-10.9334
▁மரியாதையா	-10.9334
▁வேணுமின்னாலும்	-10.9334
▁தைதையா	-10.9334
form	-10.9334
▁வை	-10.9334
▁மத்ததெல்லாம்	-10.9334
▁rule	-10.9334
ction	-10.9334
▁உனதல்லவா	-10.9334
▁ரசித்திட	-10.9334
▁ஆஃப்	-10.9334
▁அவதரி	-10.9334
▁ஏனிந்த	-10.9334
▁விளம்பரம்	-10.9334
▁ஓநாய்	-10.9334
▁நிலமிருக்கு	-10.9334
▁மகிழ்ச்சி	-10.9334
▁என்னாகுவேன்	-10.9334
▁ready	-10.9334
▁குறுஞ்ச	-10.9334
▁உறக்கத்த	-10.9335
▁sound	-10.9335
▁கவுந்த	-10.9335
யிரோட	-10.9335
▁நடக்காது	-10.9335
▁நினைக்கிற	-10.9335
▁ஸ்டைல	-10.9335
▁சேர்ந்தாடடீ	-10.9335
▁மனுஷ	-10.9335
▁worry	-10.9335
▁அழித்திட	-10.9335
▁புருவ	-10.9335
▁காங்கல	-10.9335
▁வலிக்குதே	-10.9335
▁bir	-10.9335
▁உருமாறி	-10.9335
▁கவிழ்க்க	-10.9335
▁புன்னகைகளா	-10.9335
▁style	-10.9335
ப்ஷன்	-10.9335
▁உதித்தாள்	-10.9335
▁இருந்திருந்தா	-10.9335
▁ஒஹோஹோ	-10.9335
▁IC	-10.9335
▁நனவும்	-10.9336
▁வெச்சிடுங்க	-10.9336
▁வெளிப்பட	-10.9336
▁ஜீனி	-10.9336
▁நிறைந்ததோ	-10.9336
▁வலிமை	-10.9336
▁நல்லாயிருக்க	-10.9336
▁ஆத்தாடி	-10.9336
▁தெருவில்	-10.9336
▁போயிடுச்சு	-10.9336
▁ஓயேயோ	-10.9336
▁ரசித்திருந்தேன்	-10.9336
▁சுழற்றி	-10.9336
ாவ	-10.9336
▁ஊத்திக்கிட்டு	-10.9336
▁மாறிப்போகும்	-10.9337
▁வாழ்கின்றோம்	-10.9337
▁eyes	-10.9337
▁தொடக்கம்	-10.9337
▁அடிங்கடா	-10.9337
▁புதைகிறேன்	-10.9337
▁இழுக்கிறாய்	-10.9337
▁நிலவொளி	-10.9337
▁எனக்கில்ல	-10.9337
▁பார்த்ததில்லை	-10.9337
load	-10.9337
▁இருக்கணும்ன்னா	-10.9337
▁கரையுது	-10.9337
▁மாத்தப்போறேன்	-10.9337
▁திரிந்தோம்	-10.9337
▁பசியாறும	-10.9337
▁மிச்சத்தை	-10.9337
▁இருத்தல்	-10.9337
▁துடித்திடும்	-10.9337
▁நனவா	-10.9337
▁Dam	-10.9338
▁நகர்த்திட	-10.9338
▁அடிப்பானே	-10.9338
▁தீவிலே	-10.9338
▁மெல்லிசை	-10.9338
▁கோவப்பட்ட	-10.9338
▁சேட்டை	-10.9338
▁பாதுகை	-10.9338
▁முதலிடம்	-10.9338
▁இறுக்கியே	-10.9338
ெதிர்	-10.9338
▁தாயென்று	-10.9338
▁சாதனா	-10.9338
றங்கி	-10.9338
▁வந்தவுடன	-10.9339
▁பொருந்தி	-10.9339
▁போட்டிருக்க	-10.9339
▁சொல்வாரே	-10.9339
ign	-10.9339
▁சேந்தோம்	-10.9339
▁மிருகங்கள	-10.9339
▁விழுகின்றேன்	-10.9339
▁கிழிகிறேன்	-10.9339
▁ராசாத்தி	-10.9339
▁டியர்	-10.9339
க்ஷன்	-10.9339
▁தீப்பந்தம	-10.934
▁முல்லையே	-10.934
▁தென்றலாய்	-10.934
▁சொல்லிட்டாரு	-10.934
▁மட்டுமில்ல	-10.934
▁செல்ஃபி	-10.934
▁முதற்	-10.934
சென்று	-10.934
▁புதினம்	-10.934
▁மாதவா	-10.934
▁தேனீ	-10.934
▁வீழும்போதும்	-10.934
hil	-10.9341
▁வலிமையே	-10.9341
▁கருங்	-10.9341
▁முடியாமலே	-10.9341
▁Na	-10.9341
▁திருமணம்	-10.9341
▁எந்	-10.9342
▁வெச்சிருப்ப	-10.9342
▁குழியில்	-10.9342
oma	-10.9342
▁தோளோடு	-10.9342
▁கிஸ்	-10.9342
▁பேச்சால	-10.9342
றேனா	-10.9342
▁மூங்கில	-10.9342
▁போகின்றோம்	-10.9342
▁காத்துக்	-10.9342
▁கருவிகள்	-10.9342
▁நிக்கணும்	-10.9342
▁நம்பறேன்	-10.9343
▁தருகிறாய்	-10.9343
▁தூரமாய்	-10.9343
▁ஒக்காந்து	-10.9343
▁சென்றாயே	-10.9343
▁புயலாட	-10.9344
▁மாட்டுனா	-10.9344
▁ஸ்விட்	-10.9344
▁உதிர்த்து	-10.9344
▁மகுட	-10.9344
▁மண்மேலே	-10.9344
▁கதிரவனே	-10.9344
▁அனாதை	-10.9344
▁பயமுற	-10.9345
▁சிதறல்கள்	-10.9345
▁கீதம்	-10.9345
▁friends	-10.9345
▁கேப்பான்	-10.9345
▁சுண்ட	-10.9345
▁ஸ்டாரு	-10.9346
▁கதிராய்	-10.9346
▁எடுத்தாலும்	-10.9346
▁தலைவியே	-10.9346
▁கழுத்துல	-10.9346
▁போதிலும்	-10.9346
▁நினைக்கையிலே	-10.9346
▁வன்மம்	-10.9347
போன்	-10.9347
mpo	-10.9347
▁செய்கிறாய்	-10.9347
▁மருந்தாய்	-10.9347
▁அவளிடம்	-10.9348
▁மாத்திக்கோ	-10.9348
▁விழுந்தாலும்	-10.9348
▁நேத்தே	-10.9348
▁நினைவிலே	-10.9348
▁வீழ்கிறாய்	-10.9349
▁மீகா	-10.9349
▁முடிச்சிட்டு	-10.9349
▁முழிக்கும்	-10.9349
▁லேசாய்	-10.9349
▁பண்ணியிருக்கேன்	-10.9349
▁எமக்கு	-10.935
▁வழியில்லை	-10.935
▁சத்தமிட்டு	-10.935
▁அலையாக	-10.9351
▁அடிச்சாலும்	-10.9351
▁வெய்ப்	-10.9351
▁சொற்களில்	-10.9351
▁தோட்டம்	-10.9351
▁தோன்றுதோ	-10.9351
▁தீரனே	-10.9351
▁அலையுற	-10.9351
▁ஆபத்து	-10.9351
▁கிடைத்தாய்	-10.9352
▁ஆகணும்	-10.9352
▁ஏறுது	-10.9352
▁இதயத்துல	-10.9352
▁ஒலியாய்	-10.9352
▁எமது	-10.9352
▁காத்தாக	-10.9352
▁காற்றாடி	-10.9352
▁நெருங்கிட	-10.9352
▁நெனச்சேன்	-10.9353
▁தாங்காதே	-10.9353
▁அணிவது	-10.9353
▁நம்முள்ளே	-10.9353
▁வாழ்கிறேன்	-10.9353
▁ப்ரியா	-10.9353
▁எரிந்தேன்	-10.9354
▁பொறுப்பா	-10.9354
right	-10.9354
▁வேகத்தை	-10.9355
▁நிகழாய்	-10.9355
▁ஜன	-10.9356
▁மோனா	-10.9356
▁எவனும்	-10.9356
▁வந்தாளோ	-10.9356
▁போதாதடி	-10.9356
▁கவனி	-10.9356
▁பிள	-10.9357
▁புதிரே	-10.9357
▁முனையில்	-10.9357
▁லீவ	-10.9357
▁முளைத்திடும்	-10.9358
▁களைய	-10.9358
▁இளமைய	-10.9358
▁பெய்து	-10.9358
▁வந்திருக்கேன்	-10.9358
▁ஃப்ரெ	-10.9358
▁சொக்கா	-10.9358
▁பண்ணறது	-10.9359
▁பேசுகிறாய்	-10.9359
▁உறைந்து	-10.9359
▁அழிந்த	-10.9359
▁லிப்	-10.936
▁வேகத்தில்	-10.936
▁மூடாதே	-10.936
▁ம்ஹூம்	-10.936
▁வந்தாச்சே	-10.936
▁மோசம்	-10.9361
▁sing	-10.9361
▁வேள்வி	-10.9361
▁பாத்தோம்	-10.9361
▁உம்மேல	-10.9361
▁திரியிலே	-10.9361
▁ஆகனும்	-10.9361
▁அரசனே	-10.9361
▁போதாதடா	-10.9362
▁துறந்த	-10.9362
▁பெருங்க	-10.9362
▁விளிம்பில்	-10.9362
▁தொடருமே	-10.9362
▁மழையா	-10.9362
▁வேதியல்	-10.9363
▁இதயங்களை	-10.9363
▁கிரீ	-10.9363
▁துடிப்பதும்	-10.9363
▁முறைதானா	-10.9363
▁பாழா	-10.9363
▁அழகினிலே	-10.9364
▁கேக்குதா	-10.9364
▁வைத்தாயோ	-10.9365
ெட்ரோ	-10.9365
▁நங	-10.9366
▁பார்ப்பேன்	-10.9366
சக்தி	-10.9366
▁நெருக்கம்	-10.9366
▁முக்கியம்	-10.9366
▁நெஞ்சத்தை	-10.9367
▁மாட்டானா	-10.9367
▁ஆண்டவா	-10.9367
▁ஆரம்பம்	-10.9367
▁மாறினாய்	-10.9368
▁அழைக்கிறாய்	-10.9368
▁வெயிலில்	-10.9369
▁மணமாய்	-10.9369
ாருடா	-10.9369
▁வாரேன்	-10.9369
▁குட்டை	-10.937
▁சுத்திய	-10.937
▁நிலாவில்	-10.937
▁வருடங்கள்	-10.9372
▁தோட்டத்துல	-10.9372
▁பொழுதில்	-10.9373
▁திண்டாடும்	-10.9374
▁காட்டினாய்	-10.9374
▁உண்பேன	-10.9374
▁தங்கமே	-10.9374
▁அரசியல்	-10.9374
▁பிறந்தேன்	-10.9374
▁குழி	-10.9374
▁டார்ச்ச	-10.9374
▁முடிவுக்கு	-10.9374
▁பொறிகள்	-10.9374
ம்வர	-10.9375
▁மாறாமலே	-10.9375
▁தாரேன்	-10.9375
▁உயிரில்லை	-10.9375
▁விலகிப்	-10.9375
▁நெஞ்சினை	-10.9375
▁புள்ளியில்	-10.9375
▁முறுவலில்	-10.9375
▁பெரிசு	-10.9376
▁புண்ண	-10.9376
▁ஒலியா	-10.9376
▁நெகிழ்ந்திட	-10.9377
▁உண	-10.9377
▁கம்பன்	-10.9377
▁திருப்பு	-10.9377
▁ஃபக்க	-10.9378
▁சாத்தான்	-10.9378
▁அணைத்தாய்	-10.9379
▁வீட்டுல	-10.9381
▁நானய்யா	-10.9381
▁புள்ளய	-10.9381
▁கண்டுபிடித்தாய	-10.9381
▁இருக்கையிலே	-10.9382
▁பொழப்ப	-10.9382
▁ஆபி	-10.9382
▁பேச்செல்லாம்	-10.9382
▁காண்போம்	-10.9382
▁என்னப்பத்தி	-10.9383
▁குப்பைகள்	-10.9383
▁இருக்கியே	-10.9384
▁பங	-10.9385
▁கட்டிக்க	-10.9386
▁வராது	-10.9386
▁போலியாய்	-10.9386
▁பண்ணினேன்	-10.9386
▁ஆகுமா	-10.9387
▁கிடையாதே	-10.9387
▁இருப்பேன்	-10.9387
▁முன்னாடியே	-10.9387
▁இங்கில்லையே	-10.9387
▁ஆகுமே	-10.9388
▁அதிருது	-10.9389
▁ஏக்கம்	-10.939
▁சிரித்தேன்	-10.939
▁இனிக்கிற	-10.939
▁வீணாய்	-10.9391
▁ஆரம்பிக்க	-10.9391
▁அழற	-10.9394
▁வேறொரு	-10.9394
▁கொடியில்	-10.9395
▁எவ்வித	-10.9395
▁முதுக	-10.9396
▁top	-10.9396
▁வாழ்வோம்	-10.9396
ருகே	-10.9396
ாரென	-10.9397
▁மேகமே	-10.9397
▁கிழித்து	-10.9397
▁நெஞ்சமும்	-10.9398
ுச்சுனா	-10.9398
▁தாமரை	-10.9399
▁பூவோடு	-10.9399
▁குரலில்	-10.9399
ினம்	-10.94
▁போங்கடா	-10.94
▁தெறித்த	-10.9401
▁கெஞ்சும்	-10.9401
▁குடிச்சா	-10.9402
▁அங்கையும்	-10.9402
த்துக்கும்	-10.9403
▁எடுப்பான்	-10.9403
▁மாற்றவே	-10.9403
▁பொய்யென்ற	-10.9403
▁கிளிகள்	-10.9404
▁வீசினாய்	-10.9404
▁ஆக்கினா	-10.9405
▁காட்டத்தான்	-10.9406
▁அழகோடு	-10.9407
▁வெள்ளையே	-10.941
▁பாழ்	-10.941
▁துளிகளை	-10.941
▁பேசினா	-10.941
▁கேட்பேன	-10.941
▁மேகத்தில்	-10.941
▁மோந்து	-10.9411
▁சுவட	-10.9413
▁சொன்னாரு	-10.9413
▁விரல்களில்	-10.9414
▁பேரையும்	-10.9415
▁சிரித்தாய்	-10.9415
▁தொறந்தா	-10.9415
▁கெடைக்கும்	-10.9415
▁இரவினிலே	-10.9415
▁கேட்கல	-10.9417
▁கொள்ளடா	-10.9418
்கிறாய்	-10.9418
▁முடியக்	-10.942
▁பாத்துக்கோ	-10.942
முகம்	-10.942
▁ஒட்டிக்கொண்ட	-10.9421
▁தேய்ந்த	-10.9421
▁மறந்தாய்	-10.9422
▁su	-10.9422
▁நேரமா	-10.9423
▁ரெக்க	-10.9423
ப்போறீங்க	-10.9424
▁மீனாக	-10.9424
▁கோலி	-10.9424
▁சிறிதாய்	-10.9425
▁போச்சே	-10.9425
▁பிடித்தாய்	-10.9426
▁சிந்திச்	-10.9427
▁சிரிப்பால்	-10.9428
க்டர்	-10.9428
▁பாத்தாலும்	-10.9428
▁பறந்தே	-10.9428
▁தெரியும்டா	-10.9428
▁தூயவ	-10.9429
ua	-10.9429
▁சொல்லணும்	-10.9429
▁புதுசா	-10.943
▁கேட்காது	-10.9432
▁வர்றப்ப	-10.9432
சித்திருந்தேன்	-10.9433
▁பொழிந்திட	-10.9433
▁ஓடிடும்	-10.9433
▁ஜூ	-10.9434
▁முடித்திடு	-10.9434
▁எவனோ	-10.9436
▁காணோம்	-10.9437
▁காலம	-10.9439
▁சோர்ந்த	-10.9439
▁அணைந்திட	-10.944
▁யாருமில்ல	-10.944
▁கீச்சும்	-10.944
▁கேட்கிறேன	-10.9441
▁ஸ்கூ	-10.9441
▁வீரமே	-10.9441
▁சிலுக்கு	-10.9442
▁சொல்லுவேன்	-10.9442
▁போனானே	-10.9443
▁போகலாம்	-10.9443
▁ரெண்டை	-10.9443
▁சருகு	-10.9443
▁குயிலா	-10.9444
▁சாக்கு	-10.9444
▁பாதியே	-10.9444
▁ப்ளீஸ்	-10.9445
▁தெ	-10.9446
▁நீராய்	-10.9447
▁நொடியும்	-10.9447
▁வந்தாளே	-10.9448
▁குயிலே	-10.945
▁பாப்போம்	-10.945
▁துள்ளிக்	-10.9451
▁நகம்	-10.9452
▁மத்தியில	-10.9452
.......(	-10.9453
▁சேவ	-10.9454
▁விளக்கே	-10.9454
ணம்	-10.9455
▁அனுப்பு	-10.9455
▁உரைத்திட	-10.9455
▁மாறுமே	-10.9458
▁போட்டது	-10.9459
▁க்ளா	-10.9459
▁கண்டுபிடித்தேன	-10.9459
மோத	-10.9459
▁வைத்தேனே	-10.946
▁புன்னகையும்	-10.9461
▁திருநாள	-10.9461
▁முனைய	-10.9461
றையும்	-10.9463
▁எல்லார்	-10.9464
▁காமிச்சிட்டைய	-10.9464
▁ஏந்திப்	-10.9465
▁மாறுமா	-10.9466
hap	-10.9468
▁வாசமா	-10.9469
▁ஊட்ட	-10.947
▁மன்னித்தால	-10.947
▁மாதிரியே	-10.9474
▁நீளுகின்ற	-10.9477
▁ஊற	-10.9477
டன்	-10.9477
▁போதினில	-10.9478
▁ப்ளா	-10.948
▁திமிர்	-10.9481
▁வெடிக்குத	-10.9481
▁ரசிச்ச	-10.9485
▁மாரா	-10.9486
▁கண்டோம்	-10.9486
▁துடிக்குற	-10.9487
▁தொறக்கும்	-10.949
▁burn	-10.9492
yes	-10.9492
▁பொருளும்	-10.9492
▁மடிக்	-10.9493
▁சங்க	-10.9493
▁நெட	-10.9494
▁தீர்த்த	-10.9495
▁ஸ்வீட்	-10.9495
▁கெத்த	-10.9495
▁டிரெ	-10.9495
▁பெருசா	-10.9495
▁மண்டியிட்ட	-10.9496
▁பயமும்	-10.9497
▁புரியும்	-10.95
சையாய்	-10.95
▁நெலத்த	-10.9501
▁முடிந்தத	-10.9501
gaL	-10.9502
▁சித்தப்பாவும்	-10.9503
▁திகை	-10.9503
▁ஒலிக்கும்	-10.9504
▁ஏறியே	-10.9507
▁est	-10.9507
▁பாஞ்சு	-10.9509
▁சொல்லுமே	-10.9509
▁am	-10.9512
▁எழுவேன	-10.9513
▁பஞ்சம்	-10.9515
▁பின்ப	-10.9517
▁அருகினிலே	-10.9517
▁பார்வைகள்	-10.9517
▁அவங்களுக்கு	-10.9519
▁புழுவ	-10.9519
▁பெற்ற	-10.9521
▁தெரியாதே	-10.9521
▁check	-10.9521
▁அப்பாவா	-10.9522
▁இருளில	-10.9523
▁பார்த்தோர	-10.9525
▁கிக்கு	-10.9527
வல்	-10.9528
▁போரிட	-10.9529
▁all	-10.9531
▁வருவான்	-10.9532
▁தீனி	-10.9532
▁மாட்டிகிட்டா	-10.9534
▁மாகம	-10.9534
▁நெளிவ	-10.9535
▁உத்தரவ	-10.9535
▁மழையே	-10.9536
▁அரங்க	-10.9536
▁தேளா	-10.9537
ty	-10.9538
▁மீனு	-10.9538
▁நெற்றி	-10.9539
▁வாகன	-10.9539
லிகள்	-10.9539
▁வந்ததோ	-10.9541
▁வீணா	-10.9543
ிடுவா	-10.9544
▁சிறகென	-10.9545
▁ஒளியும்	-10.9546
▁குறைச்ச	-10.955
▁நனைந்திட	-10.9551
▁நிலவென்ற	-10.9552
▁வெள்ளையாக	-10.9553
▁ஆடிப்	-10.9554
▁சோலி	-10.9555
▁விட்டாள்	-10.9556
▁em	-10.9556
▁மெழுகு	-10.9556
▁ப்ரண்ட்ஸ்	-10.9556
▁மூட்டம்	-10.9556
▁சொல்லவே	-10.9558
▁ஷே	-10.9558
▁அமர்ந்த	-10.9558
▁பொய்க்	-10.9561
▁வாங்கித்	-10.9566
▁இருளே	-10.9567
▁விழுங்கிடும	-10.9568
ியூச	-10.9568
▁கொண்டென	-10.9569
▁இணைவோம	-10.957
யாரோட	-10.9572
▁தூக்கும்	-10.9575
▁புலியா	-10.9577
▁இனிமைய	-10.9577
மில்லா	-10.9577
▁இதழும்	-10.9581
▁எழுவ	-10.9583
▁நண்பர்	-10.9583
▁கெடக்கும்	-10.9586
▁நானடி	-10.9586
க்கங்களை	-10.9587
பதி	-10.9591
▁தீவே	-10.9591
pen	-10.9593
▁வெச்சிட	-10.9594
▁முட்டுத	-10.9596
▁சொல்லியிருக்க	-10.9597
▁பார்வையால	-10.9599
▁அலையும்	-10.96
▁நெய்ய	-10.9601
▁எட்டும்	-10.9601
ேதான்	-10.9601
▁நெல்லி	-10.9603
வுமே	-10.9603
ute	-10.9604
▁எக்ஸ	-10.9606
▁கம்பள	-10.9606
▁வாங்கிக்	-10.961
▁இருளும்	-10.9611
▁கண்ணாலே	-10.9616
▁யுகங்கள	-10.962
▁வாங்கிட	-10.9622
▁வேட்கை	-10.9624
▁வருவ	-10.9625
ாடியே	-10.9628
▁நடிக்குற	-10.9629
போறண்டா	-10.9634
▁uni	-10.9635
▁bug	-10.9636
▁பயமில்ல	-10.9639
▁சித்தப்பாவுக்கு	-10.964
▁தங்கம்	-10.9642
▁சொல்லுதே	-10.9642
▁இச்சு	-10.9642
க்கத்தான்	-10.9642
ts	-10.9642
▁வேறாக	-10.9643
▁குறு	-10.9648
▁சொழட்டி	-10.9652
▁சாட்ட	-10.9654
▁குடும்ப	-10.9655
▁இழு	-10.9656
▁மட்டும்தான்	-10.9657
ில்லையா	-10.9658
▁மண்டை	-10.9661
லாரி	-10.9668
▁செதுக்கி	-10.9674
▁தாராளம	-10.9675
▁உடைத்த	-10.9676
▁மந்தைய	-10.9678
▁கேட்டான்	-10.9678
▁கண்ணீரில்	-10.9679
▁மூழ்கி	-10.9679
▁தூய்மைய	-10.968
▁திரண்ட	-10.968
திலே	-10.9684
ூர	-10.9685
ல்ஃபி	-10.9688
▁எடுப்போம	-10.9689
▁பாஸு	-10.969
▁வாழ்வேன்	-10.9691
▁சிக	-10.9695
▁லேசு	-10.9698
▁கேட்டாய்	-10.9699
▁புழுதி	-10.97
▁ரயில்	-10.97
▁தவிச்ச	-10.9702
▁ராணிக்கு	-10.9702
▁கீச்சுக	-10.9702
ப்பாத்து	-10.9703
▁எனக்குள்	-10.9704
▁மேற்	-10.9704
காடா	-10.9705
▁சைஸ	-10.9706
டிச்சுகிட்ட	-10.9707
ச்சுன்னு	-10.9708
▁காரிகை	-10.9713
யென்றாகி	-10.9715
க்குதிங்கே	-10.9721
▁புன்	-10.9726
▁அதையும்	-10.9727
ட்டான்	-10.9731
இல	-10.9731
▁out	-10.9736
▁அரசிய	-10.9736
கிலும்	-10.9744
▁ஊறு	-10.9745
டுவான்	-10.9746
ரீங்க	-10.9748
சுர	-10.9748
▁தித்திப்பில்	-10.975
▁சொல்லீட்டு	-10.975
▁கிடைத்த	-10.9753
▁பொங்க	-10.9754
▁பேரன்	-10.9758
▁உருமி	-10.9764
▁ஏறிப்	-10.9765
▁சொல்லல	-10.9766
▁மறந்துவிட	-10.9769
▁புடவைய	-10.9771
as	-10.9773
▁உயிர்த்	-10.9775
▁நவ	-10.9778
▁பூப்பூக்கு	-10.9778
▁மீன்கள	-10.9781
▁உருக்கி	-10.9781
ட்டாட்டம்	-10.9784
▁பனிய	-10.9792
▁மடியில	-10.9792
ீங்களே	-10.9793
▁சுடாமல	-10.9795
▁வேண்டிய	-10.9795
▁சேவக	-10.9797
▁தொடர	-10.9798
▁ஆற்றினாய	-10.9799
▁கெடுப்ப	-10.9799
▁வரைந்தத	-10.9804
▁விரைந்த	-10.9808
▁தேனோ	-10.9809
▁சொல்லடா	-10.9811
ட்டிருக்கேன்	-10.9813
▁தீடா	-10.9814
ange	-10.9816
▁முட	-10.9817
▁கொத்தா	-10.9827
▁மாத்தும்	-10.983
▁நீயெல்லாம்	-10.9832
க்கில்	-10.9833
▁தப்பே	-10.9833
்கிறாள்	-10.9834
▁உற்று	-10.9835
▁கணக்குல	-10.9836
▁சமை	-10.9837
சாலி	-10.9839
▁சொல்லத்	-10.9841
▁குளத்த	-10.9842
ட்டேன்	-10.9849
வாடா	-10.985
▁அழிவ	-10.9854
ரவை	-10.9855
▁நம்பவில்லை	-10.9856
▁மனத்	-10.9856
▁அழி	-10.9856
▁ஜால	-10.986
ாடுங்	-10.9867
▁படச்சான	-10.9868
▁அடைத்து	-10.9868
▁வருகிற	-10.987
▁மடக்க	-10.9872
▁அழைத்த	-10.9874
▁நானும	-10.9874
▁wo	-10.9876
▁அடங்கிடும	-10.9877
ேழு	-10.9881
▁வானவில்லை	-10.9887
▁தப்பிச்ச	-10.9887
▁இங்கேது	-10.9887
போயிட்டேன்	-10.9888
ver	-10.9895
▁அரக்கன	-10.9895
▁மாறுத	-10.9896
▁வரவே	-10.9898
ட்டாங்க	-10.9899
▁எனக்குத்	-10.9899
▁சந்து	-10.99
▁லைஃப்	-10.9901
துக்கப்புறம்	-10.9908
தாலே	-10.991
▁காலியின்ன	-10.9912
rry	-10.9919
▁மேளம	-10.9921
▁கேட்டுக்கிட்ட	-10.9921
திராட்சை	-10.9922
▁உளறல	-10.9924
▁களைந்திட	-10.9925
▁யாரட	-10.9926
▁தேனென்ற	-10.9928
▁பழக்க	-10.993
▁வருத்த	-10.9933
▁தாடி	-10.9933
▁உதி	-10.9938
தாண்டா	-10.994
▁விழிக்க	-10.9945
▁தோலை	-10.9946
▁ரயில	-10.9946
▁நீரை	-10.9954
ண்மை	-10.9954
▁வழுக்க	-10.9956
முக	-10.9958
▁இல்லையா	-10.9958
▁தேவா	-10.996
▁அவளே	-10.9961
▁நெளிய	-10.9961
▁ஆயிர	-10.9963
▁உலகும்	-10.9966
▁கற்க	-10.9967
▁மீனாவும்	-10.997
aanu	-10.9976
▁மெல்லிடைய	-10.9976
▁என்றுதான்	-10.9977
▁விழுவான	-10.9978
▁பாத்துக்கங்க	-10.9978
ebra	-10.9978
php	-10.9979
▁கேட்டத	-10.998
▁சிறுசா	-10.9986
▁ஆசைப்	-10.9986
▁தீவ	-10.9993
▁கடந்திட	-10.9998
▁துணையாக	-11.0003
▁போய	-11.0005
▁தாம	-11.001
▁தொறந்து	-11.0014
▁சீம	-11.002
▁ராகங்கள	-11.0023
▁நெரிசலில	-11.0023
்வது	-11.0023
ுட்டி	-11.0026
▁கதிர	-11.0028
▁உணர்கிறேன	-11.0028
▁கானா	-11.0029
ம்மேல	-11.0038
▁ஊருக்குள்ள	-11.0038
▁புறப்பட	-11.0038
ப்பில்	-11.004
▁லோகத்த	-11.0042
ிட்டீங்க	-11.0048
▁தோன்றவில்லை	-11.0049
▁ஃபோன	-11.005
▁சிக்கு	-11.0053
▁வள்ள	-11.0056
▁பிரிச்சிர	-11.0064
ிருக்கான்	-11.0068
▁குழ	-11.0074
▁விவ	-11.008
ரிகை	-11.0083
ido	-11.0083
▁கேள்	-11.0086
man	-11.0093
ருடன்	-11.0094
▁பாய்ந்த	-11.01
▁இதழை	-11.01
சுடுவேன்	-11.01
▁அருவியை	-11.01
றே	-11.0101
ey	-11.0103
way	-11.0104
▁lu	-11.0111
▁தெருவு	-11.0116
▁பதித்து	-11.0116
ார்த்தனை	-11.0126
▁துண்டை	-11.0128
▁நிலம்	-11.0129
கிட்டா	-11.0134
சானா	-11.0135
▁தரையோட	-11.014
ஞ்சை	-11.014
▁பையனா	-11.0149
lar	-11.0151
▁அதுவா	-11.0152
va	-11.0153
▁அதில	-11.0154
▁இருந்ததில்ல	-11.0155
▁அதுவும	-11.0156
▁சுகத்த	-11.0158
▁புள்ளிய	-11.0164
iyo	-11.0165
▁சுமைகள	-11.0166
▁டப்ப	-11.0171
▁உறைந்திட	-11.0171
ர்றா	-11.0175
ீரல்	-11.0177
▁வேளையில	-11.018
ியதில்லை	-11.0182
▁நழுவி	-11.0184
▁சுருங்கும	-11.0184
▁அழித்த	-11.0188
▁அப	-11.0188
ன்சி	-11.0197
▁வரிய	-11.0199
▁இந்தா	-11.021
ென்றாக	-11.0212
ேன்னு	-11.0217
ட்டான	-11.022
▁நடிப்ப	-11.0221
▁உருட்ட	-11.0228
ுன்னா	-11.0232
▁அசிங்கப்பட	-11.0232
▁கண்டால	-11.0233
ரோட்டா	-11.0234
▁நீதானா	-11.0237
▁சொன்னேன	-11.0238
▁எடுத்துக்க	-11.0241
▁சொல்வதெல்லாம	-11.0241
▁j	-11.0243
▁கற	-11.0248
ென்னை	-11.025
▁பெருசு	-11.0251
▁வடித்து	-11.0252
▁வணங்கு	-11.0252
றிந்து	-11.0256
▁ba	-11.0256
▁ca	-11.0258
▁உன்னது	-11.0263
▁குடை	-11.0268
ப்போகிறேன்	-11.0269
▁வாடீ	-11.027
▁நிறங்களை	-11.027
▁நில்	-11.0272
▁பாதங்கள	-11.0273
▁வலியில	-11.0273
▁நொறுங்க	-11.0274
▁நீரோடை	-11.0275
▁இனிப்பு	-11.028
மரமெல்லாம்	-11.0281
▁தடுத்த	-11.0281
க்கவே	-11.0283
▁மின்னு	-11.0283
▁மைந்த	-11.0287
▁செல்லாத	-11.0287
க்கட்டா	-11.0292
▁சுடர	-11.0295
▁போகிறாய	-11.0298
▁சுர்	-11.0305
▁எரிகின்ற	-11.0311
▁மறைய	-11.0311
▁என்ப	-11.0313
▁நமக்கெ	-11.0314
▁எழுந்தா	-11.0319
▁சிக்கிக்	-11.0323
▁விக்க	-11.0325
ல்லாமல்	-11.0332
▁புதுத்	-11.0333
▁வெல்வ	-11.0338
சையில்	-11.0342
hermometer	-11.0346
▁us	-11.0346
டுவேனோ	-11.0349
▁தவம	-11.0351
▁கெடச்சால	-11.0355
▁மூஞ்ச	-11.0361
▁தருவார	-11.0365
▁சொல்லப்	-11.0367
ெதற்கு	-11.0368
்னல்	-11.0379
ிதழ்	-11.0393
▁நாக்கு	-11.0394
▁கொல்	-11.0394
▁வாசத்த	-11.0405
▁சுகம	-11.0407
▁விழுந்திடும	-11.0408
▁தோன்றாத	-11.041
ுக்கப்புறம்	-11.041
▁சீத	-11.0412
▁சீச	-11.0412
▁வேகத்த	-11.0415
▁அச்	-11.042
ும்பை	-11.0422
டெ	-11.0423
தையா	-11.0423
காரன்	-11.0431
▁scr	-11.0433
▁உலகங்கள	-11.0434
▁சூப்ப	-11.0437
▁Ne	-11.0439
▁இழுக்காத	-11.0439
த்தப்	-11.0441
▁பாசத்தி	-11.0442
யத்தான்	-11.0444
▁தீர்	-11.0454
ட்டிக்கோ	-11.0457
▁கார்டு	-11.0464
கின்றாய்	-11.0464
ோற்றிடும்	-11.0465
▁நிறைந்தா	-11.0466
ூறினாயே	-11.0467
▁சாதிய	-11.047
ுமில்லை	-11.047
டனே	-11.0473
▁வார்த்தைய	-11.0474
கிற	-11.0474
▁தெளிவ	-11.0478
ிகிட்டு	-11.0481
al	-11.0483
▁கலந்த	-11.0491
▁ஓடினா	-11.0494
▁ஒட்டி	-11.0494
வித	-11.0504
▁அத்த	-11.0509
ன்ஸ்	-11.0517
▁நமக்கே	-11.0518
▁கிக்க	-11.0519
▁மறைஞ்சு	-11.0521
▁மம்ம	-11.0523
ேகம்	-11.0525
▁விரலு	-11.053
▁மறந்த	-11.0543
▁பேசிட்டிரு	-11.0544
▁grou	-11.0545
▁டும்	-11.0555
▁கல்லா	-11.0556
ழுவோம்	-11.0559
▁fly	-11.0562
▁சிந்தாத	-11.0566
▁வெய்ய	-11.0567
▁கசா	-11.057
▁குத்தா	-11.0574
▁தேய்ந்து	-11.0575
ங்கை	-11.0585
டிக்	-11.0587
▁கண்ணிமைக	-11.0591
▁சூட்ட	-11.0596
▁அடிம	-11.0597
gl	-11.0601
ைப்பேன்	-11.0603
▁பொறந்தவன	-11.0604
ங்காத	-11.0611
▁கண்டுபிடிக்க	-11.0618
▁திறந்தா	-11.0625
▁நடத்த	-11.0628
▁செக்ஸி	-11.0636
▁பறக்கையில	-11.0639
களோடு	-11.0641
▁சீட்ட	-11.0654
▁சேர்ப்பாய	-11.0657
▁நினைத்தத	-11.0657
▁நின	-11.0666
க்கிறான்	-11.0668
ப்பிக்கோ	-11.0669
▁பெருகிட	-11.067
▁குழப்பங்கள	-11.067
ob	-11.0671
கிட்டே	-11.0679
ச்சிட்டையே	-11.0681
▁சீட்டி	-11.0684
▁பிரிவே	-11.0685
▁நூலில	-11.0686
▁பாக்கணும	-11.0687
bra	-11.0687
▁ஒழுக்க	-11.0689
▁வண்டி	-11.0691
aut	-11.0692
ப்பதேன்	-11.0694
▁பாயு	-11.0699
▁உள்ளங்கைய	-11.0699
▁ஒடஞ்ச	-11.0702
வதே	-11.0702
▁துணிவ	-11.0708
▁காக்கை	-11.0711
▁எனைய	-11.0713
வோமா	-11.0715
▁என்னன்னு	-11.0715
▁முடிச்ச	-11.0716
ங்கோ	-11.0725
▁இலட்ச	-11.073
▁உருள	-11.0731
▁எழுந்தே	-11.0732
▁தோட்டா	-11.0732
▁உரைத்த	-11.0733
▁இன்றெ	-11.0734
▁ஹெல்	-11.0745
ிடத்தேவையில்லை	-11.0749
க்கொண்டு	-11.075
▁அச்சம	-11.075
▁தமிழுக்கு	-11.0751
▁அழகெ	-11.0755
▁பார்ப்போம	-11.0758
▁நீராட்ட	-11.0759
▁இரவோட	-11.076
▁மன்னர	-11.0766
யில்லை	-11.0767
திர்வு	-11.0769
▁தீண்டாமல	-11.0773
▁சிரிச்சு	-11.0774
▁தொண்டை	-11.0775
▁தூறுத	-11.0777
▁அறுக்க	-11.0779
▁சொல்லுவான	-11.0783
ெரும்	-11.0785
ci	-11.0786
▁தாங்கும	-11.0788
▁போர்க்களத்த	-11.0795
▁என்னையும்	-11.0795
ஞ்சோல	-11.0797
க்காதீங்க	-11.0801
▁அப்போ	-11.0802
▁போடுற	-11.0803
▁போவதா	-11.0805
முதலாக	-11.0813
போட	-11.0817
க்கள்	-11.0817
ழிலே	-11.0818
one	-11.0819
▁குடிப்ப	-11.0825
ளை	-11.0825
▁நெருப்பா	-11.0826
▁அள்ளிக்க	-11.083
▁ja	-11.0831
▁கேக்கு	-11.0832
ையோட	-11.0832
▁யுத்தம	-11.0834
▁அண்டம	-11.0844
▁சிற்ற	-11.0846
▁கௌர	-11.0858
▁முதல்முறையா	-11.0859
▁பணம	-11.0863
▁ராஜாதான்	-11.0867
ற்கள்	-11.0869
▁பாத்ததும	-11.0881
aav	-11.0885
த்திகிட்டு	-11.0887
▁உதிர்	-11.0888
▁தூறலா	-11.0888
ய்கிறாய்	-11.0893
்கிற	-11.0896
ொ	-11.0897
▁அவசர	-11.0902
▁உடைந்த	-11.0908
ையோடு	-11.0912
ப்புல	-11.0918
▁wall	-11.092
▁படிந்த	-11.0921
▁நீதான	-11.0922
▁நொடியின	-11.0925
▁அணைத்தே	-11.0927
▁பவின்ன	-11.0931
▁நெனை	-11.0939
▁சுருக்கு	-11.0942
▁சுத்து	-11.0949
▁மேகத்தை	-11.0951
▁வானத்துக்க	-11.0951
▁தூறல்கள	-11.0954
▁இழுத்த	-11.0955
▁வாழ்வி	-11.0962
▁ஆவோம	-11.0966
டியிலே	-11.0983
▁எரிந்த	-11.0987
▁வெளியி	-11.0988
▁மகள்	-11.0994
்பதா	-11.0995
ப்பானோ	-11.0995
வளே	-11.0996
▁தோன்றுத	-11.1008
▁செய்தான	-11.101
▁கிண்ணத்த	-11.1015
▁நாணம	-11.1017
▁கணக்க	-11.1018
▁கிடைப்ப	-11.1028
▁பண்றா	-11.1029
▁வீதிய	-11.1034
▁வசிக்க	-11.1035
▁கலந்தத	-11.1036
if	-11.1036
▁சொத்தைய	-11.104
ட்டுச்	-11.104
▁தொடர்ந்த	-11.1045
▁ஓடாத	-11.1045
▁மடைய	-11.1045
▁நினைவுகள	-11.1047
▁தோகை	-11.1049
ாதான்	-11.1053
▁பசு	-11.1059
கிறாள்	-11.1066
▁மன்னவ	-11.1077
▁ரெ	-11.1081
படியே	-11.1087
▁வரமா	-11.1088
▁குத்தி	-11.1091
லைகள்	-11.1097
▁தீத்த	-11.11
▁கொள்கின்றா	-11.11
▁சிரிக்காத	-11.1102
▁ஊத்தி	-11.1104
ோரம்	-11.1105
▁மரங்கள	-11.1106
▁நின்னேன	-11.1111
▁புரிந்திடு	-11.1123
ah	-11.1126
▁புடிச்சி	-11.1126
ட்டத்தான்	-11.1132
▁gu	-11.1135
▁மாட்டு	-11.1139
▁துடித்தேன	-11.1145
்தான்	-11.1149
▁பற்ற	-11.115
▁வாழ்த்து	-11.1151
ுரசி	-11.1156
▁ஆண்ட	-11.1165
▁நொடிகள	-11.1168
சித்தாள்	-11.1172
ாற	-11.1176
றுந்த	-11.1184
▁மூளும	-11.1184
▁பொறு	-11.119
▁செவிய	-11.1191
ெழுந்த	-11.1191
▁நம	-11.1204
▁பிழைய	-11.1207
▁ஆழம	-11.1207
▁பத்திகிட்ட	-11.1214
▁கேட்டால	-11.1229
ள்ளிக்கோ	-11.1229
▁அழுகை	-11.1236
▁எண்ணினை	-11.1245
▁கிடந்தேன	-11.1246
க்குக்	-11.1247
றதுன்னு	-11.1256
▁துணையா	-11.1257
ஷோ	-11.1258
▁fall	-11.1261
▁வைய	-11.1261
ப்பட	-11.1263
▁தெரிஞ்சுக்க	-11.127
rain	-11.1276
▁பகைவ	-11.1284
▁கடைசியில	-11.1286
கிறதோ	-11.1289
▁நர	-11.1293
ிட்டாரு	-11.1296
▁வேகம	-11.13
▁ராக	-11.1301
▁சுமையா	-11.1302
ிக்கிறேன்	-11.1308
▁இன்னைக்க	-11.1321
▁அறியாம	-11.1321
த்தனை	-11.1323
▁கோவ	-11.1323
▁இன்பங்கள	-11.1324
▁தலைவர	-11.1326
▁கொள்ளைய	-11.133
ன்றாய்	-11.1337
▁காயம	-11.1338
▁மாட்டிவிட்ட	-11.134
ஃபா	-11.1342
▁பாடு	-11.1346
▁கேட்	-11.1354
▁பிரப	-11.1359
டடடட	-11.1369
▁அழுக்க	-11.1371
ுக	-11.1373
ero	-11.1373
▁மிக	-11.1373
ங்குரா	-11.1377
▁சிக்கல	-11.1378
▁கசங்கி	-11.1382
▁விரிச்சா	-11.1387
▁பாலம	-11.1393
▁பிள்ளைகள	-11.1394
▁கணி	-11.1397
▁சிரிப்பா	-11.1398
▁கிளப்பு	-11.141
மேடையாய்	-11.142
▁அம்ம	-11.1425
▁இயக்க	-11.1436
ின்னா	-11.1439
▁rou	-11.145
ோமா	-11.1454
▁அலைஞ்ச	-11.1458
▁காய்ச்சல	-11.1464
▁மகிழு	-11.1468
▁வைப்பான	-11.1469
▁புன்னகைய	-11.1472
▁புகை	-11.1481
பட்ட	-11.1493
▁Wo	-11.1502
▁அடைந்திட	-11.1502
▁வாங்கியா	-11.1503
▁ஆட்டோ	-11.1509
▁சொத்த	-11.1513
▁சொர்க்கத்த	-11.1514
▁கொடுப்பேன	-11.1516
▁குதிச்ச	-11.1519
ற்றுவேன்	-11.1521
▁கெடக்கே	-11.1524
லினில்	-11.1524
▁பந்தா	-11.1534
▁மூடாம	-11.1546
வனா	-11.1547
hk	-11.1548
▁வாடக	-11.1554
வனம்	-11.1556
தங்கள்	-11.1557
▁சுடு	-11.1563
ாதவன்	-11.1565
மேகம்	-11.1565
ப்பி	-11.157
ine	-11.1572
oa	-11.1573
▁நொறுங்கிட	-11.1583
ியில	-11.1583
ட்ச	-11.1586
▁தீக்க	-11.1594
▁நடக்க	-11.1596
கம	-11.1611
▁மறுக்கா	-11.1615
▁பாடிட	-11.1617
▁குயில்	-11.1617
▁கோத்தி	-11.1621
ந்தே	-11.1623
▁சூ	-11.1623
றியா	-11.163
▁அழுதா	-11.1635
▁ஒளியினில	-11.1637
▁சுத்தும்	-11.1644
ினைப்	-11.1646
பொடி	-11.1649
▁marr	-11.1654
▁காய்ச்ச	-11.1659
▁ஈய	-11.1664
▁பிம்ப	-11.1669
▁அளக்கு	-11.1672
▁எதிரொளி	-11.1674
▁விழியினி	-11.1677
▁ங	-11.1682
▁விரித்த	-11.1683
bbl	-11.1685
ar	-11.1686
▁ஆழ்	-11.1687
▁வந்திரு	-11.1689
▁பேராசை	-11.1693
▁என்றாகு	-11.1697
▁அருவ	-11.1698
▁இறைத்த	-11.1699
▁எச்சி	-11.17
▁என்னாகிறேன	-11.17
▁தாளா	-11.1702
ியில்	-11.1714
ubb	-11.1717
தையும்	-11.1722
கூடுதே	-11.1727
ந்தானே	-11.1728
ிப்புட்டா	-11.1729
▁அடம்	-11.1737
▁அகிலம	-11.1739
ாய	-11.1742
▁மச்ச	-11.1753
▁வட்டம	-11.1754
▁வளத்திட்ட	-11.1756
▁மில்ல	-11.1762
▁மெய்யென	-11.1769
▁வந்துட்ட	-11.1776
்ஃபி	-11.1778
▁ஓவியம	-11.1782
▁துளிர்	-11.1783
▁கேட்கவில்லை	-11.1784
வாங்க	-11.1785
▁செய்வாய	-11.1788
▁பறி	-11.1788
▁வந்திருக்க	-11.179
▁சொந்தம	-11.1791
▁நினைத்தால	-11.1794
▁ஏராளமா	-11.1795
ur	-11.18
▁பேக்ட்ரிய	-11.1807
▁மாசு	-11.1809
▁fallin	-11.181
▁நிறுத்திட	-11.1813
்ப	-11.1815
ிட்டான்	-11.1815
வாய	-11.1823
▁உணர்வு	-11.1824
▁வழ	-11.1827
▁பனியோ	-11.1828
▁கல்யாணத்துக்	-11.1831
▁குடிச்ச	-11.1833
▁விரக	-11.1839
▁வெட்கத்த	-11.1842
▁மன்னவன	-11.1846
▁பொய்யென	-11.1852
▁தீயின்றி	-11.1857
▁தோசை	-11.1858
▁இன்னைக்கு	-11.1858
▁திரளு	-11.1859
▁கட்டள	-11.1859
ப்பானா	-11.1868
▁விழுவேன்	-11.1869
▁தீப்ப	-11.1871
▁வருஷம	-11.1874
▁ஒர	-11.1876
க்கனும்ன்	-11.1876
▁பங்க	-11.1878
rt	-11.1882
▁ஆனந்தம	-11.1885
▁குடிச	-11.1887
ன்னை	-11.1892
▁மின்னலா	-11.1892
▁போவா	-11.1893
பிரபு	-11.1894
்டு	-11.1897
▁யோசித்த	-11.1898
▁கொஞ்சல்	-11.1899
▁தோண்ட	-11.19
▁சந்தோசு	-11.1903
▁சுத்துத	-11.1909
▁மாமலை	-11.1914
▁கொல	-11.1918
மடீ	-11.192
▁லி	-11.1921
▁காரி	-11.1922
▁இறுதி	-11.1924
த்திக்கிட்டு	-11.1938
▁மூலம	-11.1943
▁நிலவி	-11.1949
▁வெடித்த	-11.1951
▁பொற்	-11.1952
kh	-11.1953
▁பிரிச்ச	-11.1956
▁கௌ	-11.196
ுத்த	-11.1962
▁பழம	-11.1963
▁மேளத்த	-11.1967
▁திரள	-11.1971
▁மயக்கிடு	-11.1971
▁ஏற்றிடு	-11.1973
ினுள்	-11.1973
▁நிறுத்திடு	-11.1974
▁பொருப்ப	-11.1975
கள	-11.1977
▁மாப	-11.1979
▁சேதி	-11.1983
ிடா	-11.1985
▁Har	-11.1986
கழ்	-11.1989
▁கத்தும்	-11.1996
த்திர	-11.1998
▁என்றாய	-11.2
சுட	-11.2006
▁சொல்கின்ற	-11.2006
▁பொழியும்	-11.2008
▁புகுந்திடு	-11.201
▁துரத்திட	-11.2015
▁கைகளின்	-11.2019
▁பதறிடு	-11.2026
பெர	-11.2026
▁சட	-11.2032
▁அத்தை	-11.2033
▁பிரச்சனைய	-11.2035
லையாய்	-11.2036
▁காத்தெல்லாம	-11.2037
▁மாட்டிக்கிட்ட	-11.2042
▁தூங்காம	-11.2042
▁குரங்கு	-11.2049
▁கூச்சம	-11.2051
▁பாப்போம	-11.2053
▁திறந்தாய	-11.2057
யினை	-11.2059
னல்	-11.2062
▁பவித்ராவை	-11.2062
▁அஸ்	-11.2063
▁பதற	-11.2064
▁உளறி	-11.2073
▁முத்தத்தி	-11.2074
▁மாந்த	-11.2075
கைய	-11.2086
▁குள	-11.2089
யில்லாத	-11.209
▁கண்ணோ	-11.2093
▁நிலாவ	-11.2096
▁வாயா	-11.2097
வுகள்	-11.2102
▁திசைகள	-11.2106
ru	-11.212
▁பீட்டு	-11.2122
▁கனவி	-11.2124
▁முடிஞ்சு	-11.213
▁மானத்த	-11.2136
▁இணையும	-11.2141
▁இருக்கான	-11.2141
▁பசிக்கு	-11.2146
▁உயிராகி	-11.2146
▁சாலைய	-11.2152
கார	-11.2169
▁நேர்ந்த	-11.2169
▁காலத்தி	-11.2171
rge	-11.2172
▁நொறுங்கி	-11.2173
▁முடிந்திடும	-11.2173
க்ஸி	-11.2179
ிதுதானா	-11.218
▁யாசித்த	-11.2183
▁குதிக்க	-11.219
குரல்	-11.2191
▁dea	-11.2192
ப்ஸ	-11.2193
el	-11.2197
்கா	-11.2201
▁அங்கு	-11.2204
▁நொறுங்கு	-11.2208
▁நசுக்கி	-11.2212
ள்வோம்	-11.2226
▁வருவத	-11.2234
▁மரும	-11.2237
▁கள்ளா	-11.2247
▁என்றா	-11.2248
னேனே	-11.2251
▁தண்டித்தா	-11.2252
றைய	-11.2258
ாடா	-11.2262
▁புக	-11.227
ch	-11.2281
யுறனே	-11.2282
▁ஊத்திக்க	-11.2284
▁கல்லு	-11.2287
▁போவேன	-11.2288
▁மடக்கு	-11.2296
▁வந்திடு	-11.2303
▁மணமா	-11.2303
▁எழுதா	-11.2305
ண்ணமாக	-11.2306
▁உரச	-11.231
nt	-11.2314
▁கொல்லுத	-11.2319
▁விரிந்திட	-11.232
ிடக்	-11.2321
▁bel	-11.2324
க்கிய	-11.2328
▁கலங்க	-11.2329
டாத	-11.2332
குத்து	-11.2336
ens	-11.2339
ாண்டி	-11.2341
ின்றான்	-11.2349
ise	-11.235
tor	-11.2359
ய்கிறேன்	-11.2366
சமே	-11.2372
▁சுரு	-11.2373
▁மூச்சை	-11.2375
▁பூச்சிக	-11.2375
ன்டி	-11.2379
▁மார்போ	-11.238
▁மூக்கை	-11.2385
மதி	-11.2386
வந்த	-11.2388
னடீ	-11.2388
ate	-11.239
▁சிறகா	-11.2391
▁நாங்கள	-11.2391
▁மண்டையில	-11.2393
▁பரிசா	-11.2393
▁படக	-11.2394
சிப்போனா	-11.2396
▁தீர்வ	-11.2398
▁நுழைந்தேன	-11.2402
▁நிகழ்ந்த	-11.2409
ன்ம	-11.2412
போல	-11.2416
ரூ	-11.2418
▁கலைத்த	-11.2425
▁எச்ச	-11.2425
ொட்ட	-11.2434
▁சுவையா	-11.2435
▁புன்னகையி	-11.2443
த்தல்	-11.2444
▁பை	-11.2446
▁பொழிந்த	-11.2447
▁ஆகா	-11.2447
▁கற்போம	-11.245
ாமாம்	-11.2455
▁கிர	-11.2469
oke	-11.2474
ிருக்கணும்	-11.2479
▁அம்மாடி	-11.2486
▁தித்திக்கு	-11.2488
▁வள	-11.2492
டாதே	-11.2492
▁காயாத	-11.25
▁மரத்த	-11.2505
▁பாலா	-11.2507
▁இயக்கி	-11.2509
▁நென	-11.2512
லிப	-11.2514
▁கடிக்க	-11.2525
வெளிய	-11.2525
▁மோகத்தி	-11.2527
த்தவங்கள	-11.2531
▁பேதம	-11.2532
றதுக்கு	-11.2536
▁புல்லி	-11.254
▁கஷ்டமி	-11.2541
▁கூப்பிடற	-11.2543
▁உயரம	-11.2543
▁தீரா	-11.2547
▁பாப்பா	-11.2552
ிடூப	-11.2553
▁தீட்டிட	-11.2555
▁அரும்ப	-11.2558
பூகம்பம்	-11.2561
▁தீயும	-11.2568
▁கண்கலங்கி	-11.2571
▁நோ	-11.2572
ற்றானாள்	-11.2573
▁கூப்பிட	-11.2576
▁நிழலோ	-11.2577
ொம்ம	-11.2578
▁தூக்கிக்	-11.2584
ிக்கொண்டு	-11.2586
▁பிரிக்க	-11.2586
ப்போமே	-11.259
ரித்து	-11.2601
▁வர்றே	-11.2602
▁டோ	-11.2613
▁பரப்பி	-11.2613
▁உடலுக்குள்	-11.2618
▁இரவுகள	-11.2621
லதான்	-11.2634
▁தைய	-11.2637
டிக்க	-11.2642
ுவத	-11.2644
▁சொல்லறது	-11.2649
த்தாலே	-11.2653
▁திரிகள	-11.2665
▁அன்பால	-11.267
▁ஜெ	-11.2672
▁இரவா	-11.2677
டுக்கும்	-11.269
▁பூசி	-11.2693
▁இனிப்ப	-11.2694
▁அன்பெ	-11.2696
ite	-11.27
ேறும்	-11.2701
▁onl	-11.271
ூட்ட	-11.2711
▁வடிவ	-11.2713
▁பொம்மையா	-11.2726
▁தொடரு	-11.2733
▁இதழின	-11.2737
ப்பட்டு	-11.2741
ிட்டையே	-11.2743
மகன்	-11.2745
▁லேட்ட	-11.2747
▁வறும	-11.2749
▁thou	-11.2752
▁ஆடைய	-11.2753
ிந்த	-11.2753
▁too	-11.2758
▁என்பான	-11.2761
வந்து	-11.2766
▁சிரிக்குற	-11.2771
▁மொழியா	-11.2777
ாகவே	-11.2779
▁முயலா	-11.2779
▁வந்திருக்கு	-11.2786
▁மாத்திடு	-11.279
▁கொட்டா	-11.2793
▁was	-11.2795
மானோ	-11.2799
சின்	-11.2802
யாதோ	-11.2807
▁சிங்கங்க	-11.2814
▁மண்ணில	-11.2816
▁லேட்	-11.2821
ச்சுக்குவோம்	-11.2824
▁சட்	-11.2825
மரா	-11.2829
ங்கப்பா	-11.283
ure	-11.283
▁உளியா	-11.2833
தாய்	-11.2834
▁தித்திப்ப	-11.2836
▁மாமாவ	-11.2838
▁கெடுக்க	-11.284
▁நட்புக்கு	-11.2847
▁அறிவில்	-11.2849
omento	-11.285
▁வானி	-11.2857
னாலும்	-11.2858
▁செண்ட	-11.2861
▁அற்ற	-11.2873
▁சிந்தா	-11.2873
▁நடக்கும	-11.2878
▁கொண்டேன	-11.2899
▁தமிழு	-11.2907
▁ஓடுவ	-11.2908
▁சரிய	-11.2913
சிறு	-11.2916
▁குடிசை	-11.2924
▁வாற	-11.2928
Nj	-11.2944
und	-11.2944
▁வெற்றிக்க	-11.2945
▁கனி	-11.2949
▁bonit	-11.2951
▁மின்னா	-11.2951
or	-11.2953
▁பேசுன	-11.2959
pi	-11.2972
▁றெக்கைக	-11.2973
▁ஏனட	-11.2974
ல்லி	-11.2985
▁உற்சாக	-11.2986
குற	-11.299
▁மரித்த	-11.2991
▁வட்ட	-11.2994
ய்ந்து	-11.2997
விட்டா	-11.3003
▁நியாய	-11.3004
▁துளைத்த	-11.3007
▁பரவி	-11.3009
டல்	-11.3017
▁வாளினை	-11.3018
▁தன	-11.302
▁செயல்	-11.3021
▁சுருக்க	-11.3022
▁பெத்து	-11.3022
க்காய்	-11.3023
படம்	-11.3028
▁சம்மத	-11.3031
கிப்	-11.3031
ிடுச்சே	-11.3032
▁இயல	-11.3038
▁கூடார	-11.3044
▁மறுக்க	-11.3046
▁பட்டா	-11.3048
hit	-11.3048
▁மாங்க	-11.3049
▁பாராட்டு	-11.305
noa	-11.3051
▁வத்தி	-11.3054
▁நிறைந்தேன	-11.3061
▁சிரிக்கத்	-11.3061
▁இருட்ட	-11.3069
▁தன்மை	-11.3071
தாவது	-11.3075
▁விழுந்தே	-11.3086
ண்டே	-11.3093
▁மூஞ்சி	-11.3097
▁பறப்ப	-11.3098
ேத்தி	-11.3098
▁உருட்டி	-11.3102
▁கூப்பிட்டத	-11.3103
▁விடி	-11.311
திட	-11.3123
ையாலே	-11.3129
்கு	-11.3131
▁கொல்லு	-11.3139
▁y	-11.314
▁இல்லையென்ற	-11.3143
▁இன்பமெ	-11.3145
▁நினைவா	-11.3145
▁கோவி	-11.3148
▁உணவ	-11.3153
▁பார்த்தால	-11.3155
▁துள்ள	-11.3156
▁பெறு	-11.3163
▁குழப்பத்த	-11.3163
▁உடைத்தாய	-11.3165
▁எஞ்சின	-11.3171
ந்திடுவேனா	-11.3175
▁இணையத்த	-11.3182
▁தள்ளாட	-11.3191
சன்	-11.3196
▁உயிரென	-11.3197
▁உள்ளங்கையி	-11.3199
▁உதிந்த	-11.32
ட்டிக்கொள்ள	-11.3202
▁எம்மே	-11.3205
▁மாயை	-11.3207
கியே	-11.3207
்கின்றதோ	-11.3217
▁சிலிர்க்க	-11.3221
▁அடைத்த	-11.3221
ளோ	-11.3223
ங்களில்	-11.3225
▁மத்தவங்க	-11.3226
arla	-11.3226
ந்தின்ன	-11.3231
▁கச	-11.324
▁லோ	-11.3243
▁விதைத்தா	-11.3243
ீரு	-11.3249
▁செல்வ	-11.325
▁தூங்கா	-11.3251
▁but	-11.3255
லிலே	-11.3255
▁தருவான	-11.3258
▁தரகர	-11.3258
▁அடிவானம	-11.326
▁ஊத்த	-11.3265
ச்சும்	-11.3266
▁ஆளுக்க	-11.3269
▁முட்டிக்	-11.3271
▁வரைகிற	-11.3274
▁கிடப்ப	-11.3279
▁சம	-11.3284
ஸ்கி	-11.3289
ணியும்	-11.329
▁அணைந்த	-11.3293
டாதீங்க	-11.3301
கையே	-11.3303
▁ஆடின	-11.3303
▁மேசை	-11.3304
▁தெறிக்கு	-11.3309
▁சாக்க	-11.3313
க்கிட்டா	-11.3313
▁ஏட்டில	-11.3314
▁shu	-11.332
▁பெயில	-11.3321
னோட	-11.3328
ோட்டம்	-11.3332
▁பிரிவில்	-11.3333
▁நாட	-11.3335
▁செய்வா	-11.3336
▁கொடுக்கறத	-11.3338
▁சொல்லறேன்	-11.3345
▁தெளிய	-11.3347
▁பரி	-11.3351
துக்குங்க	-11.3354
▁கெடுத்த	-11.3361
own	-11.3363
ta	-11.3368
ght	-11.3369
▁ஒளிர்வ	-11.3372
▁Ba	-11.3375
▁எதிர்பா	-11.3376
▁வேரு	-11.3396
▁நிலையில்	-11.3398
▁இவனோ	-11.3399
▁ஷோ	-11.34
ரிலே	-11.3404
▁இமயம	-11.3408
▁குழந்த	-11.3409
த்தாயே	-11.3417
▁மூளைய	-11.3422
▁கூண்ட	-11.3427
▁சிந்திடு	-11.3429
▁அடைந்த	-11.3433
யுமில்லை	-11.3434
▁விளக்கு	-11.3436
▁வித்தை	-11.3437
▁எடுக்கற	-11.3438
ாயி	-11.3446
▁பிசினஸ	-11.3451
io	-11.3465
▁லைஃப	-11.3469
▁ஹாஸ்பிட்டல	-11.3473
ூறு	-11.3476
ாலையே	-11.348
ாசம்	-11.3482
▁காத்திரு	-11.3483
▁சுழலுத	-11.3484
ரியும்	-11.3485
▁ஓடின	-11.3485
▁ஒடு	-11.3491
▁ஆபிஸ	-11.3497
▁கொசு	-11.3504
க்கொண்டேனே	-11.3517
ியின்	-11.3522
▁ஷா	-11.3526
▁விசைப்ப	-11.3528
ொடியே	-11.3528
▁சாயங்க	-11.3532
ித்த	-11.3537
▁அலையா	-11.3544
ிங்கு	-11.3547
▁பாடச்	-11.3549
▁பாவத்த	-11.3557
▁தொல	-11.3566
▁விடுமுறை	-11.3567
▁தின்னுப்	-11.3569
▁சுவ	-11.357
▁Po	-11.3575
▁கலைந்த	-11.3577
▁பாட்டில	-11.3578
▁விண்மீ	-11.3578
▁கோதி	-11.3581
▁கிரக	-11.3583
ஞ்சம்	-11.359
▁வருகை	-11.3595
ங்கடா	-11.3596
▁கூந்தல	-11.3602
▁எட	-11.3615
▁எங்கா	-11.3621
▁பாக்கு	-11.3621
யங்கினேன்	-11.3627
▁ருசிச்ச	-11.3627
▁நெஞ்சின	-11.3629
டலில்	-11.3629
▁வேந்த	-11.3633
▁பிள்ளையா	-11.3635
ம்புகள்	-11.3635
ண்டுகள	-11.3637
▁சந்தோசி	-11.3637
▁வைக	-11.3642
குள்ளே	-11.3644
▁காணல	-11.3647
▁ஊதினா	-11.3647
னமா	-11.3656
▁துயரில	-11.3658
▁அழித்து	-11.366
▁மாற்றிக்	-11.3664
▁கழி	-11.3677
க்கிற	-11.3689
ாய்ச்சி	-11.3696
வானே	-11.3699
ய்ய	-11.3706
▁திறக்காத	-11.3708
யமே	-11.3715
▁நிலவோ	-11.3721
▁மேகத்	-11.3725
▁சீவ	-11.373
ூட்டினாய்	-11.3731
▁லாக்	-11.3732
▁ஊசி	-11.3734
▁ரோட்டு	-11.3737
மாற்ற	-11.3738
▁இருக்கிற	-11.3742
▁புதிர	-11.3743
ருப்பீங்க	-11.3745
▁குதிரை	-11.3746
றையில	-11.3746
▁தாயின	-11.3751
▁அகில	-11.3752
▁விசாரி	-11.3756
ுகுவ	-11.3757
யானால்	-11.3757
ிறோம்	-11.3759
யலாட	-11.3767
▁விலை	-11.3769
▁மலரி	-11.3775
ெய்யில்	-11.3777
▁முத்தமிட்ட	-11.3778
▁மேன	-11.378
▁மேடைய	-11.378
▁கொடும	-11.3783
ோதும	-11.3783
▁கெடக்கேன	-11.3786
முன்	-11.3789
▁சிறிதென	-11.379
▁முடிந்து	-11.3798
ாததை	-11.3802
▁மூள	-11.3807
▁யாருக்கு	-11.3808
▁தேடுவ	-11.3811
▁புரிஞ்ச	-11.3815
▁எண்ணமா	-11.3826
ர்ப்ப	-11.3834
ிட்	-11.3844
பிடித்து	-11.3845
▁யோசிச்ச	-11.3849
▁மறைப்ப	-11.3849
age	-11.3854
▁முத்தத்	-11.3866
ந்திட	-11.3867
▁குண்டு	-11.3869
▁so	-11.3869
ிக்காத	-11.3883
▁வருடு	-11.3884
ர்க்கிறாய்	-11.3885
மாறி	-11.3891
ருந்தேன்	-11.3898
பை	-11.39
▁பார்க்கத்	-11.3903
▁சண்டையி	-11.3904
▁காலமில்லை	-11.3907
டானாள்	-11.3907
▁கஷ்டம	-11.391
▁லீ	-11.3911
▁வளைவு	-11.3917
ாச்சு	-11.3919
▁கோயில	-11.3921
முற	-11.3922
ாமால்	-11.3925
▁மேனேஜ	-11.3928
ூறுதே	-11.3933
reak	-11.3933
▁அம்பு	-11.394
▁தூவு	-11.394
▁முகிலும	-11.3942
▁சொர்க்கத்தி	-11.3945
போறோம்	-11.3947
ிட்டிருக்கேன்	-11.3948
▁அய்ய	-11.3949
ித்தூ	-11.3956
ுதிங்கே	-11.3962
▁திருப்ப	-11.3962
▁ஆசைக	-11.3963
வொளி	-11.3966
▁போலீஸ	-11.3967
▁இதயங்க	-11.397
▁அடக்கி	-11.3972
▁மாட்சி	-11.3976
▁mu	-11.3979
▁மெழுக	-11.398
எல்லாம்	-11.3987
ிவாள்	-11.3991
▁போதாது	-11.3991
ae	-11.3991
▁மாறிட	-11.3994
▁வாழ்க்கையோ	-11.3996
மானம்	-11.3999
ாக்கி	-11.4002
டிக்காதே	-11.4002
▁கதைகள	-11.4004
une	-11.4008
▁செய்திட	-11.4013
விஜய	-11.4015
வீரன்	-11.4015
வந்தத	-11.4017
▁குடு	-11.4017
கொடு	-11.4019
லைக்கு	-11.4023
▁திசைய	-11.4023
▁ஒளியின	-11.4028
வாரே	-11.4031
▁கத்து	-11.4036
▁காப்பா	-11.4039
▁நூற	-11.4044
டக்குன்னு	-11.4046
மல்	-11.4047
ழில்	-11.4053
▁துறவ	-11.4062
▁இலா	-11.4065
▁நிறுத்து	-11.4067
▁தேடிச்	-11.4067
▁புன்ன	-11.407
யமா	-11.407
பின்ன	-11.407
▁சேர்ந்திரு	-11.4071
▁மண்டியிட	-11.4074
▁pre	-11.4074
las	-11.4075
நீங்க	-11.4078
ய்வது	-11.4079
ack	-11.4079
▁வாசல	-11.4081
எனக்கு	-11.4082
எங்க	-11.4083
ீலா	-11.4084
ருந்தவில்லை	-11.4085
அவன்	-11.4087
நெஞ்சம்	-11.4089
பெண்ணே	-11.4092
சக்க	-11.4092
▁அகி	-11.4093
▁விடுகின்ற	-11.4095
▁தேங்கா	-11.4097
▁நீலம	-11.4098
மலையென	-11.4099
▁ஹீ	-11.41
▁வேண்	-11.41
ir	-11.4102
சிக்கு	-11.4107
▁களை	-11.4107
▁மிதித்த	-11.4108
▁இஷ்	-11.4111
▁மழையாக	-11.4115
ய்யால	-11.4115
நம்ம	-11.4117
போயி	-11.4118
▁கூட்டத்த	-11.4119
laa	-11.412
▁உற்ற	-11.4122
ட்டர்	-11.4122
லினா	-11.4122
▁இத்த	-11.4124
▁And	-11.4126
▁சௌ	-11.4129
மீது	-11.4132
per	-11.4135
▁மாறா	-11.4138
▁அமை	-11.4139
▁சொற்கள	-11.4144
▁இவளோ	-11.4146
சாமி	-11.4147
உனை	-11.4148
S	-11.415
இசை	-11.4151
▁நீயில்லா	-11.4152
▁அம்மாடிய	-11.4152
டாக்டர்	-11.4153
ப்ளீஸ்	-11.4154
po	-11.4154
என்னென்ன	-11.4157
சுய	-11.4158
ரித்தோம்	-11.4158
முத்துகிருஷ்ணன்	-11.4163
முனை	-11.4164
லுல	-11.4164
வாயை	-11.4165
baa	-11.4165
கடைசி	-11.4166
ொம்	-11.4167
▁குட்டியோ	-11.4169
பறிக்க	-11.417
▁வழியென	-11.417
now	-11.4173
ெழில	-11.4175
ஐ	-11.4178
▁புயலொ	-11.4182
மாட்டேன்	-11.4182
போனாளே	-11.4182
தனியா	-11.4182
சச்சா	-11.4182
ஓட்டு	-11.4184
▁புதுச	-11.4186
கண்டோம்	-11.4187
வீட்டுக்க	-11.4191
▁கஷ்டப்பட்ட	-11.4193
முடி	-11.4196
▁நிமிடங்கள	-11.4197
▁டாக்டர	-11.4199
கூடவே	-11.4201
கால்களை	-11.4202
▁தண்ணிய	-11.4202
▁செத்தா	-11.4203
கேட்க	-11.4203
▁தடத	-11.4204
C	-11.4207
கொண்டேன்	-11.4208
▁கலைகள	-11.4211
பூரா	-11.4213
பெயர்	-11.4214
▁இடத்தில	-11.4215
மாறும்	-11.4216
▁நடுவில	-11.4216
யாழினி	-11.4217
ணிந்து	-11.4218
▁ம்ஹ	-11.4223
மொழி	-11.4224
ித்தால்	-11.4225
போடு	-11.4227
▁மருந்த	-11.4228
ha	-11.4229
கண்ணா	-11.423
ot	-11.4231
தரம்	-11.4231
▁மீட்	-11.4235
▁ஒம்ம	-11.4238
ப்பாய்	-11.4239
ba	-11.424
ுதடா	-11.4241
▁உங்கண்ண	-11.4242
வழியே	-11.4243
▁உங்	-11.4243
றாய்	-11.4244
▁குடிக	-11.4247
▁நசுங்க	-11.4251
▁வருவான	-11.4253
கட்	-11.4255
ாளும்	-11.4255
▁கேட்டிட	-11.4257
டிக்கிற	-11.4258
ோமடா	-11.426
வைத்து	-11.4263
▁எனக்கென	-11.4264
▁ஒவ்வொன்ற	-11.4268
▁கிழியா	-11.4268
உங்க	-11.4269
கொடுத்து	-11.4271
▁பாவம	-11.4271
▁பலூன	-11.4274
fe	-11.4276
▁வீங்க	-11.4276
ொடிய	-11.4276
ர்கள	-11.4278
▁நுண	-11.4279
▁முடியும	-11.4286
ட்டுக்கட்ட	-11.4288
ாட்டி	-11.4292
▁இறந்திட	-11.4292
▁உணர்ந்திடு	-11.4293
▁கொல்லாத	-11.4294
ுடுத்தி	-11.4294
▁அர்த்த	-11.4295
▁விநாயக	-11.4295
▁வெவ்வேற	-11.4296
ொன்றில்	-11.4297
த்திரத்த	-11.4299
▁சாப்பிட்ட	-11.43
▁வரலாற	-11.4301
குமார்	-11.4303
fu	-11.4303
▁உறைய	-11.4303
▁காடென	-11.4303
ven	-11.4304
▁பாய்ந்திடு	-11.4305
▁தாய்நாட	-11.4306
▁ஆலேல	-11.4308
க்கியா	-11.4308
▁சுருள	-11.4309
▁சரித்திர	-11.4309
▁வைக்காத	-11.4311
ந்தேன	-11.4311
▁தீண்டாத	-11.4311
▁சிந்திய	-11.4311
▁தவறா	-11.4311
ஆனா	-11.4315
▁இரண்டை	-11.4316
▁பிரியா	-11.4319
▁எல்லைய	-11.432
▁சிங்கிள	-11.4321
ச்சுட	-11.4321
கேட்	-11.4322
▁சப்தங்	-11.4322
குபு	-11.4323
ூறி	-11.4323
செவ்வ	-11.4324
▁ஜொ	-11.4324
▁நனைகிற	-11.4325
▁எஞ்	-11.4325
▁உன்னுள்ள	-11.4325
யிரென	-11.4325
▁கிடைச்சிரு	-11.4326
▁மாட்டிக்	-11.4327
ாத்துகிட்டிரு	-11.4327
▁தள்ளிவிட	-11.4328
ipp	-11.433
ைஸ	-11.433
▁eye	-11.4331
raffi	-11.4332
▁புரட்ட	-11.4332
▁spr	-11.4332
rn	-11.4332
▁gasoli	-11.4333
▁சம்மதிச்சா	-11.4333
▁மாமனாரு	-11.4333
ந்நேர	-11.4333
கிருஷ்ண	-11.4333
▁கெளரவத்த	-11.4333
▁தாம்பூலத்	-11.4333
▁account	-11.4333
▁class	-11.4333
▁interview	-11.4333
▁straw	-11.4333
▁காற்பதனிக்	-11.4333
▁சுழன்ற	-11.4333
▁டிஜி	-11.4333
▁நெடுந்தொலைவ	-11.4333
Click	-11.4333
ISS	-11.4333
iguai	-11.4333
அரவணச்சிக்கிட்டா	-11.4333
கப்புறமாவது	-11.4333
ட்யூன	-11.4333
மறைவேனே	-11.4333
▁Hookah	-11.4333
▁branch	-11.4333
▁browser	-11.4333
▁cellphone	-11.4333
▁control	-11.4333
▁crazy	-11.4333
▁dragon	-11.4333
▁petro	-11.4333
▁phone	-11.4333
▁professor	-11.4333
▁profile	-11.4333
▁rootae	-11.4333
▁shimmy	-11.4333
▁tonight	-11.4333
▁toorae	-11.4333
▁ஃபலூடா	-11.4333
▁அநியாயம்	-11.4333
▁அமைஞ்சிட்டா	-11.4333
▁அரியாசனம	-11.4333
▁அலப்பறையில	-11.4333
▁அவமானப்படுத்தி	-11.4333
▁ஆஃப்கானி	-11.4333
▁ஆநிரை	-11.4333
▁ஆலாலிலோ	-11.4333
▁இயற்பியல்	-11.4333
▁எதிர்பார்ப்பு	-11.4333
▁எமதெண்ண	-11.4333
▁ஐஸ்க்ரீம	-11.4333
▁கடவுச்சொல்ல	-11.4333
▁கமல்ஹாசன்	-11.4333
▁காக்கிச்சட்டைக்	-11.4333
▁குடிச்சாலாவது	-11.4333
▁செந்நிற	-11.4333
▁டவுசர	-11.4333
▁டிரைலர்	-11.4333
▁திமிரழகி	-11.4333
▁தீபாவளி	-11.4333
▁துப்பாக்கிக்கு	-11.4333
▁துரதிஷ்டம்	-11.4333
▁துருதுரு	-11.4333
▁துளித்துளியாக	-11.4333
▁தொரத்தி	-11.4333
▁நட்சத்திர	-11.4333
▁நாளேழுமே	-11.4333
▁பண்ணிக்கிறவங்க	-11.4333
▁பறபறக்குற	-11.4333
▁பார்மாலிட்ட	-11.4333
▁பீட்சா	-11.4333
▁புரிஞ்சிகிட்ட	-11.4333
▁பெருந்தன்மையா	-11.4333
▁மாவரைச்சு	-11.4333
▁மிஸ்டர்ர்ர்	-11.4333
▁முணுமுணு	-11.4333
▁முதற்பார்வை	-11.4333
▁மேரேஜ	-11.4333
▁ரிப்போர்ட்ஸ	-11.4333
▁வரதட்சனையா	-11.4333
▁வலிக்கிதுடி	-11.4333
▁வலையொண்ணு	-11.4333
▁வெண்ணப்பூவே	-11.4333
▁ஸ்க்ரீன	-11.4333
ரங்குவித்து	-11.4333
▁accident	-11.4333
▁internet	-11.4333
▁thick	-11.4333
▁அபகரி	-11.4333
▁எமதன்ன	-11.4333
▁கடுகளவு	-11.4333
▁கயிறா	-11.4333
▁கலகலகல	-11.4333
▁கிரேசியே	-11.4333
▁சதிகாரி	-11.4333
▁சுகந்தரு	-11.4333
▁டின்னர்	-11.4333
▁தகர்த்த	-11.4333
▁தண்டவாளம	-11.4333
▁தீயில்லாமலே	-11.4333
▁பதட்டமா	-11.4333
▁பற்பசை	-11.4333
▁பால்கோவா	-11.4333
▁பொணத்துக்கு	-11.4333
▁மணிக்கணக்கா	-11.4333
▁முயற்ச	-11.4333
▁விருட்சம	-11.4333
▁ஹீரோவாட்டம்	-11.4333
▁kiss	-11.4333
▁ஃபுல்லா	-11.4333
▁எதிர்பார்த்து	-11.4333
▁எழுதுகோல	-11.4333
▁ஏதொன்றும்	-11.4333
▁கண்ணதாசன	-11.4333
▁குட்டியில்லாம	-11.4333
▁கொழுப்ப	-11.4333
▁பிறப்பெடுத்த	-11.4333
▁வடிகட்டி	-11.4333
nbile	-11.4333
ெள்ளையடிக்குறியே	-11.4333
▁அனுபவிக்கறத	-11.4333
▁உசுப்பேத்தி	-11.4333
▁சுதந்திர	-11.4333
▁சைனீஸ	-11.4333
▁படுத்திருக்க	-11.4333
▁பிராபல	-11.4333
▁கிட்டத்தட்ட	-11.4333
▁பிடுங்கி	-11.4333
▁பூங்குயில்	-11.4333
dhaith	-11.4333
நடந்திருச்சின்னு	-11.4333
▁அபப்வா	-11.4333
▁ஐவிரல	-11.4333
▁கடனுக்காக	-11.4333
▁திடுமென	-11.4333
▁விசும்ப	-11.4333
alaiyodu	-11.4333
▁இந்நேரம்	-11.4333
▁தகுதி	-11.4333
lowly	-11.4333
▁total	-11.4333
▁கிழித்தெறி	-11.4333
▁கைவிலங்க	-11.4333
▁டேஞ்சர	-11.4333
▁திரதினா	-11.4333
▁இட்டிலி	-11.4333
▁ஓடியாறேன்	-11.4333
▁கெட்டிக்காரி	-11.4333
▁கெழவ	-11.4333
anava	-11.4333
▁hufoo	-11.4333
▁photo	-11.4333
▁எதிர்பார்த்தேன	-11.4333
▁நிறைவேற்றி	-11.4333
▁ஹனிமூன	-11.4333
kki	-11.4333
▁chicks	-11.4333
▁யாரையாவது	-11.4333
▁crush	-11.4333
▁மக்கடிச்சு	-11.4333
▁சாக்லெட்ட	-11.4333
▁ஜுவால	-11.4333
▁யாதவா	-11.4333
▁மணமணக்கு	-11.4333
▁வாங்கணும்ன்னு	-11.4333
▁கஷ்டப்பட்டதால	-11.4333
▁தீவாளி	-11.4333
நிமிர்ந்திட	-11.4333
▁அணுவெலாம்	-11.4333
▁pull	-11.4333
▁வயசுக்கே	-11.4333
▁anba	-11.4333
▁என்ஜாய்	-11.4333
▁சூட்டுகிறோம்	-11.4333
▁நொறுக்கிடுவோம்	-11.4333
▁பெறந்துட்டாளே	-11.4333
▁soup	-11.4333
▁அனுபவிக்க	-11.4333
▁ஆப்ரேஷன	-11.4333
▁உடைத்தெறி	-11.4333
▁கிருமி	-11.4333
▁செய்யறதில்லை	-11.4333
▁கர்ஜிக்கும்	-11.4333
▁சிறைபிடித்தா	-11.4333
▁பேரழிவ	-11.4333
ச்சுக்கிச்சோ	-11.4333
ஷ்யூ	-11.4333
▁அலுவல்	-11.4333
▁அழைப்பொலி	-11.4333
▁தியேட்டர	-11.4333
▁லோக்கல	-11.4333
▁சக்கர	-11.4333
▁சென்சர	-11.4333
▁தகப்பனும்	-11.4333
▁பொறந்ததுக்கு	-11.4333
▁சொல்லிக்கொடு	-11.4333
▁beach	-11.4333
க்கூடாதே	-11.4334
▁காப்பாத்துனாலே	-11.4334
ாண்டமா	-11.4334
▁மிஸ்டர்	-11.4334
▁அலைகடல	-11.4334
▁நிழற்	-11.4334
▁தேர்வு	-11.4334
▁மன்றாட	-11.4334
▁ஃபேஷன்	-11.4334
▁உனதிதழ்	-11.4334
▁கம்மி	-11.4334
▁சுந்தரி	-11.4334
▁தில்லிருந்தா	-11.4334
▁புஸ்ஸுன்ன	-11.4334
▁அலைபாய்கிறாய்	-11.4334
▁everyday	-11.4334
▁Ngh	-11.4334
▁டீஸ	-11.4334
▁பூஜ்ஜியம்	-11.4334
ravity	-11.4334
▁தனியொரு	-11.4334
▁வர்றதுக்கு	-11.4334
▁நொழஞ்ச	-11.4334
▁புரவிய	-11.4334
▁மேஜிக்	-11.4334
▁டம்மி	-11.4334
துக்குக்கப்புறம்	-11.4334
▁ஆணிவேரா	-11.4334
▁தலைக்கேற	-11.4334
▁நாள்தோறும	-11.4334
▁நழுவுகிறாய்	-11.4334
▁விசியத்தப்பத்தி	-11.4334
▁hurry	-11.4334
inder	-11.4334
▁வேட்டையாட	-11.4334
▁கேட்டிடு	-11.4334
▁கூப்பிட்டீங்களா	-11.4334
▁தாய்மொழி	-11.4334
ொன்றிலே	-11.4334
ூம்பூம்	-11.4334
▁மானென்ற	-11.4334
▁வருபவன	-11.4334
▁fash	-11.4334
▁ஊர்வலம்	-11.4334
▁எவளும்	-11.4334
▁நிக்கறப்ப	-11.4334
▁மாற்றுகின்றாய்	-11.4334
idha	-11.4334
▁பொலம்ப	-11.4334
ndhaal	-11.4334
▁மகராணி	-11.4334
▁வேடிக்கை	-11.4334
flower	-11.4334
▁தாவணி	-11.4334
▁பால்நிலா	-11.4334
▁உனதன்ப	-11.4334
▁சரக்கடிச்சா	-11.4334
▁scene	-11.4334
▁வந்தீங்கன்னா	-11.4334
▁துள்ளிக்கிட்டு	-11.4334
▁ஃபேஸ்புக்	-11.4334
▁மின்னஞ்சல்	-11.4334
▁மில்லுல	-11.4334
▁அரிசி	-11.4334
▁விழுந்தினும்	-11.4334
▁இச்சினி	-11.4334
▁என்னைக்குமே	-11.4334
▁குடிக்கறதுக்கு	-11.4334
▁லஞ்சம்	-11.4334
▁சுமக்கின்ற	-11.4334
▁தொடராமலே	-11.4334
▁மூவண்ண	-11.4335
▁குதித்திட	-11.4335
▁கொண்டாயடா	-11.4335
அடச்சுகி	-11.4335
▁காட்டாறெல்லாம்	-11.4335
▁செஞ்சாதான	-11.4335
▁தர்றேன்	-11.4335
▁தவிக்குது	-11.4335
▁அறுந்தேன்	-11.4335
▁சமையலுக்கு	-11.4335
▁கோமாளி	-11.4335
▁இரவெலாம்	-11.4335
▁மாமனாருகிட்ட	-11.4335
▁விளக்கேற்றும்	-11.4335
▁அசிம	-11.4335
▁புள்ளங்களுக்கு	-11.4335
▁அரட்டை	-11.4335
▁எழுதுன	-11.4335
▁சேமித்த	-11.4335
▁spring	-11.4335
▁பொம்மையாவேன்	-11.4335
▁பிசாச	-11.4335
▁ஊத்துதே	-11.4335
▁அதுவுமில்லாம	-11.4335
▁ஆக்குகிறேன்	-11.4335
▁அள்ளித்தரு	-11.4335
▁திண்டாடுதே	-11.4335
▁பாதையில்லையா	-11.4335
▁பூப்பதே	-11.4335
▁சிறகடிக்கும்	-11.4335
▁நுண்ண	-11.4335
▁new	-11.4335
▁கிரக்கத்த	-11.4335
▁மாறினாயே	-11.4335
▁moon	-11.4335
▁காகிதத்திலே	-11.4335
▁wro	-11.4335
▁hone	-11.4335
▁அதுவுமில்ல	-11.4335
▁ரோமனே	-11.4335
▁குலசாமி	-11.4335
▁சொரியற	-11.4335
▁சிமிட்ட	-11.4335
▁வைரமுத்து	-11.4335
▁திசுக்களி	-11.4336
▁கரும்பா	-11.4336
▁tag	-11.4336
▁every	-11.4336
▁தேடுகின்றாய்	-11.4336
▁தடுமாற	-11.4336
▁விளையாட்டுக்கு	-11.4336
▁நொறுங்கினேன்	-11.4336
ங்குழல்	-11.4336
▁கழட்டு	-11.4336
யிர்த்தெழுந்த	-11.4336
▁ஆணையிட	-11.4336
unny	-11.4336
▁சாம்பல	-11.4336
▁உணவுகள்	-11.4336
▁பண்ணியிருக்காரு	-11.4336
▁தோன்றினாயே	-11.4336
▁vaak	-11.4336
▁ஜென்மத்தில	-11.4336
▁பஞ்சாபி	-11.4336
maa	-11.4336
▁smiley	-11.4336
அமிலம்	-11.4336
▁ஜாக்கி	-11.4336
▁எழுதுதோ	-11.4336
▁பாத்ததில்ல	-11.4336
▁தெளித்திடும்	-11.4337
▁ஒருத்தருக்கு	-11.4337
▁eb	-11.4337
▁சாய்த்து	-11.4337
▁திணறுகிறேன்	-11.4337
▁கழட்டி	-11.4337
▁தொடுவாய	-11.4337
▁கொடுப்பாள்	-11.4337
▁சோர்வ	-11.4337
▁ஒன்றாவோம்	-11.4337
▁நடந்திச்சு	-11.4337
▁மார்க்கெட்ட	-11.4337
▁உழைப்புக்கு	-11.4337
▁ஈகோ	-11.4337
▁ஒடம்பு	-11.4337
▁ஆழியென	-11.4337
▁போயிருக்கான்	-11.4337
▁உள்ளமெங்கும்	-11.4337
▁சோதனை	-11.4337
▁போதும்ங்கறது	-11.4337
▁வழியானாய்	-11.4337
ometer	-11.4337
▁டீசர	-11.4337
▁படபட	-11.4337
▁மழையானாய்	-11.4338
▁தண்டித்தது	-11.4338
▁ஆனேனடி	-11.4338
▁Poo	-11.4338
▁விலக்கி	-11.4338
▁கூறாமலே	-11.4338
ndhi	-11.4338
▁உருகிடுவேன்	-11.4338
▁டால்ஃபின	-11.4338
▁வயிறு	-11.4338
▁பேரண்டம	-11.4338
▁அறிவென்ன	-11.4338
▁இல்லையின	-11.4338
▁கூட்டணி	-11.4338
▁பேதையே	-11.4338
▁கட்டுறோம்	-11.4338
▁டீஸர்	-11.4338
▁கொல்கிறாய்	-11.4338
▁உலகினிலே	-11.4338
▁மையத்திலே	-11.4338
▁தூண்டினாய்	-11.4339
▁தம்மு	-11.4339
▁அல்வா	-11.4339
ப்படுத்தி	-11.4339
▁இறகென	-11.4339
▁சிரிச்சாளே	-11.4339
▁பெருந்தூரம	-11.4339
▁அவமானம்	-11.4339
▁இரசிக்கிறாய்	-11.4339
▁செல்கின்றாள்	-11.4339
▁தீராமலே	-11.4339
▁அடைச்ச	-11.4339
▁நுழைஞ்ச	-11.4339
▁இணைஞ்சு	-11.4339
▁train	-11.4339
▁தயங்குகிறேன்	-11.4339
▁கிடைத்தால்	-11.4339
▁திருடுகிறேன்	-11.4339
▁பயணங்கள்	-11.4339
றுவதே	-11.4339
▁இருக்கறவங்க	-11.434
▁ரேடியோ	-11.434
▁date	-11.434
▁பூட்டிகிட்டா	-11.434
ைக்கெல்	-11.434
▁போதவில்லை	-11.434
▁ஆழந்தான்	-11.434
bomb	-11.434
▁வெறிய	-11.434
▁புடிச்சேன்	-11.434
ங்கார	-11.434
▁திடுக்குன்னு	-11.434
▁கலைகிறேன்	-11.434
ஹா	-11.434
▁உலவலாம்	-11.434
▁என்னென்னென்ன	-11.434
▁நடக்கையில்	-11.4341
cola	-11.4341
▁போயிருச்ச	-11.4341
boa	-11.4341
▁முடிவெது	-11.4341
▁கேளாமலே	-11.4341
▁இணைந்தாட	-11.4341
புரிந்துகொண்டேன்	-11.4341
▁நிறைகிறாய்	-11.4341
▁முடிவதில்லை	-11.4341
▁போட்டதெல்லாம்	-11.4341
▁குறைஞ்ச	-11.4341
▁புதைக்கிறேன்	-11.4341
▁நுழைந்தாயடி	-11.4341
▁மயிலிறக	-11.4342
▁அதுவரைக்கும்	-11.4342
▁ஹனி	-11.4342
▁புழுவென	-11.4342
▁வலியினில்	-11.4342
zz	-11.4342
▁வர்றதா	-11.4342
▁தரிச	-11.4342
▁இருப்பவனை	-11.4342
▁தூண்டிட	-11.4342
▁செகண்ட	-11.4342
▁ring	-11.4342
▁கிடைச்சிருக்கு	-11.4342
▁நதியென	-11.4343
▁நேசத்தில்	-11.4343
▁பிறந்தாள்	-11.4343
▁பீமா	-11.4343
▁மூச்சுக்குள்ள	-11.4343
▁கணவன	-11.4343
ச்சொல்	-11.4343
▁பார்க்கிறோம்	-11.4343
▁பண்டோரா	-11.4343
▁பணிவை	-11.4343
▁தொலைவிலே	-11.4343
gaadha	-11.4343
▁வருவேன்னு	-11.4343
▁ஊறுகாய	-11.4343
▁எடுத்துகிட்டு	-11.4343
▁கொன்னாலும்	-11.4343
▁நாவிலே	-11.4343
▁சலனம	-11.4343
▁ஆழ்மன	-11.4344
▁சிறகடித்தே	-11.4344
▁வாங்கலன்னு	-11.4344
ked	-11.4344
▁புல்லோடு	-11.4344
டவென	-11.4344
ொலிக்குத	-11.4344
▁நோக்கிட	-11.4344
▁தடவையும்	-11.4344
▁அர்ச்சனை	-11.4344
மனவெளிகளில்	-11.4344
▁எப்போதுமே	-11.4344
hJ	-11.4345
▁போவேனடி	-11.4345
▁பொழிவேன்	-11.4345
▁வழியினிலே	-11.4345
▁கொள்கிறாய்	-11.4345
▁ஜோக்கர	-11.4345
▁மறக்கவில்லை	-11.4345
▁ப்ளூட	-11.4345
▁மேட்ச்ச	-11.4345
▁நெருங்காதே	-11.4345
▁cou	-11.4345
ona	-11.4345
▁தழுவல்கள்	-11.4345
தேனடி	-11.4345
▁துடிக்கிறாய்	-11.4346
▁வந்தாச்சுடா	-11.4346
▁மௌனத்தி	-11.4346
▁முயன்றே	-11.4346
▁ஓடுகின்றாய்	-11.4346
ச்சோமே	-11.4346
▁தேகத்துல	-11.4346
▁எங்களால	-11.4346
▁கேட்கிறதே	-11.4346
ைப்பிடி	-11.4346
▁make	-11.4346
▁விரிந்ததோ	-11.4346
▁திமிரோ	-11.4346
▁கொள்கிறேன்	-11.4346
▁முறைத்தே	-11.4346
▁உடைந்தால்	-11.4346
▁வீழ்ந்தாலும்	-11.4346
ன்பிர	-11.4346
▁வாங்கிக்கொண்டு	-11.4346
▁ஜாடிக்கு	-11.4347
ிடலாம்	-11.4347
▁வரமென	-11.4347
▁கவலப	-11.4347
▁விளம்ப	-11.4347
▁கத்துக்க	-11.4347
▁ஃபாரின	-11.4347
▁ஜாதகமும்	-11.4347
▁மொச்ச	-11.4347
▁நிறுவ	-11.4347
▁நிமிடத்தி	-11.4347
▁off	-11.4347
▁தட்டட்டும்	-11.4347
▁திறந்தோம்	-11.4347
▁கீறல்கள்	-11.4348
▁யோசிச்சேன்	-11.4348
டந்துகிட்டிருக்க	-11.4348
தற்கே	-11.4348
▁குளிர்காய்ந்த	-11.4348
▁தெளித்து	-11.4348
▁ஹோட்டல்	-11.4348
▁விழுகிறேன்	-11.4348
▁தாங்கி	-11.4348
teen	-11.4348
▁ரோஷ	-11.4349
▁வீழ்வேனா	-11.4349
▁பண்ணாமலே	-11.4349
▁விரதம்	-11.4349
▁ஆரம்பமா	-11.4349
▁mil	-11.4349
▁வீசினேன்	-11.4349
▁அய்யய்யோ	-11.4349
▁நிறுத்தியே	-11.435
▁சப்தங்கள்	-11.435
▁வாழ்க்கையினை	-11.435
▁போகட்டுமே	-11.435
chargin	-11.435
▁இருந்தவன	-11.435
▁கலவரமே	-11.435
▁துடைக்கும்	-11.435
▁பிடிச்சவன்	-11.435
▁தெரிந்தாய்	-11.435
▁பதவி	-11.4351
▁புரியாத	-11.4351
▁நைட்டு	-11.4351
▁பிரிகையிலே	-11.4351
▁சிரித்தோம்	-11.4351
▁பேய்ப்ப	-11.4351
▁விரிவு	-11.4351
▁போனாளோ	-11.4351
ளைக்குது	-11.4351
▁கொட்டினாய்	-11.4352
▁நடிக்காதே	-11.4352
▁கொண்டாடினாய்	-11.4352
▁தள்ளியிருக்க	-11.4352
▁நிற்கிறேன்	-11.4352
ிசித	-11.4352
▁அணிந்திடு	-11.4352
▁வசந்த	-11.4352
▁கிட்னியில	-11.4352
க்கேடு	-11.4352
▁பறக்குதே	-11.4352
▁வாழ்வோமா	-11.4353
▁பதாகை	-11.4353
▁அவருகிட்ட	-11.4353
▁போடுறோம்	-11.4353
▁போவனும்	-11.4353
▁காய்ச்சுன	-11.4353
▁மாறுச்சா	-11.4353
▁அழறீங்க	-11.4353
▁அடிக்கணும்	-11.4354
▁உறும	-11.4354
▁சிக்கிக்கொண்டு	-11.4354
▁கனிகள்	-11.4354
▁பிய்த்த	-11.4354
▁மனசோ	-11.4354
▁கடசிய	-11.4354
nj	-11.4354
▁வைரசா	-11.4354
▁காடொன்றிலே	-11.4354
▁பங்கையும்	-11.4355
▁எந்திரிச்ச	-11.4355
▁கூறடீ	-11.4355
▁முறைச்சா	-11.4355
▁முட்டாளாய்	-11.4355
▁மூடுறியே	-11.4355
▁கிறுகிறு	-11.4355
▁தருகிறேன்	-11.4355
▁மாட்டிகிட்டு	-11.4355
▁சொன்னதால	-11.4355
▁தியானம	-11.4356
▁விருப்பம்தான்	-11.4356
▁விசியத்தையும்	-11.4356
▁ஜெயித்திடு	-11.4356
▁கேளாயோ	-11.4356
▁வாங்கிக்கிறேன்	-11.4356
▁மூண்ட	-11.4356
▁கேளாமல்	-11.4356
▁கருங்குழி	-11.4357
▁நடிச்சு	-11.4357
ast	-11.4357
▁வெறுப்ப	-11.4357
▁ஏளா	-11.4357
▁ரெட்ட	-11.4357
▁இன்மையில்	-11.4357
▁இளைய	-11.4357
▁ஆறாமல்	-11.4357
▁வரும்போது	-11.4357
▁பாடினோம்	-11.4357
▁குடிச்சது	-11.4358
வெதுப்ப	-11.4358
▁ஆகின்றாய்	-11.4358
▁டண	-11.4358
▁கோழையாய்	-11.4358
▁நிலவலாம்	-11.4358
▁புலன்கள	-11.4358
▁தாயாக	-11.4358
▁கூப்ட்ட	-11.4358
▁தீபிக	-11.4358
▁பாய்கிறதே	-11.4359
▁ரிகிறேனா	-11.4359
▁கூண்டில்	-11.4359
▁பண்ணிட்டான்	-11.4359
▁மூடினேன்	-11.4359
▁விரலோடு	-11.4359
▁சுத்துடா	-11.4359
▁சிம்பா	-11.436
een	-11.436
▁ஆலேலோ	-11.436
ன்னீங்க	-11.436
▁காட்டினேன்	-11.436
▁ஆகட்டுமே	-11.436
▁போடாமலே	-11.436
nai	-11.436
▁அதிரடியா	-11.436
▁மதனா	-11.4361
▁இளந்த	-11.4361
▁தாய்நாட்ட	-11.4361
▁வேரோடு	-11.4361
▁விடுங்கடா	-11.4361
▁வாசிச்சேன்	-11.4361
ாமரை	-11.4362
▁மறுக்காதே	-11.4362
▁பேசிப்ப	-11.4362
▁ஆதார	-11.4362
▁சேர்த்தோம்	-11.4362
▁கொள்ளாமல்	-11.4362
ருகில்	-11.4362
▁ஆடுவேனோ	-11.4362
▁பொறப்பால	-11.4362
▁ஓடினோம்	-11.4362
▁பூக்குதே	-11.4363
▁ஆண்டிட	-11.4363
▁எரிகிறதே	-11.4363
bike	-11.4363
▁நிறைந்தாயே	-11.4363
▁ஓடோடி	-11.4363
▁கன்னி	-11.4364
▁உச்சரி	-11.4364
▁எண்ணிடு	-11.4364
▁குடிக்காதே	-11.4364
▁மனதி	-11.4364
▁கலாச	-11.4364
மிழ்	-11.4364
▁எழடா	-11.4364
▁வியாதி	-11.4364
▁இனிமைகள்	-11.4364
▁எடுக்காத	-11.4365
▁செய்வேனே	-11.4365
▁கதையில	-11.4365
▁துளியென	-11.4365
▁நமக	-11.4365
▁தீந்தாலும்	-11.4365
▁பாடினேன்	-11.4365
டைத்து	-11.4365
ஸ்கோ	-11.4366
▁தூரமா	-11.4366
▁வெண்ணிலாவை	-11.4366
▁அடைத்தது	-11.4366
▁புலரும்	-11.4366
▁சொற்களோ	-11.4366
▁வரைவேன்	-11.4367
▁பூவோட	-11.4367
▁கொண்டென்னை	-11.4367
▁அதிரட்டும்	-11.4367
▁விஷ	-11.4367
▁பையி	-11.4368
▁ஓவியமாய்	-11.4368
▁விண்மீனாய்	-11.4368
▁சொன்னாளே	-11.4368
▁எரியாதே	-11.4368
▁காத்திருந்தேன்	-11.4368
▁ஸ்ட்ர	-11.4368
weet	-11.4369
▁களிற	-11.4369
ஜிகி	-11.437
▁வாழ்கின்றேன்	-11.437
▁அவருக்குன்னு	-11.437
▁பிடிக்கும்ன்னு	-11.437
▁முடுக்கி	-11.437
ூழ்	-11.4371
ramp	-11.4371
▁கவிழ்ந்தேன	-11.4371
▁காண்போமா	-11.4371
ீயோ	-11.4371
▁என்போம்	-11.4371
▁சடவென	-11.4371
▁கழுத	-11.4371
▁அடைந்திடத்	-11.4372
▁சொல்லுங்கப்பா	-11.4372
▁கெடச்சது	-11.4372
▁காத்திருந்து	-11.4372
▁ரகு	-11.4372
▁பார்வையிலே	-11.4372
▁பொண்ணுக்காக	-11.4372
▁முயல்வதும்	-11.4372
▁இரசிக்கிறா	-11.4372
▁வாசலில்	-11.4373
▁தேயாமல்	-11.4373
▁மறக்காதே	-11.4373
ானில்ல	-11.4373
▁வாசியே	-11.4373
▁குதிச்சு	-11.4373
▁கேளடீ	-11.4373
▁பண்ணியிருப்பாள	-11.4374
▁ஆடும்போது	-11.4374
▁பாகத்தில்	-11.4374
▁இழந்தேனே	-11.4375
▁துருவ	-11.4375
▁அறிந்தால்	-11.4375
▁தீட்டினாய்	-11.4375
▁காட்டுக்குள்	-11.4375
▁இம்மண்ண	-11.4375
▁தூய்மையாய்	-11.4375
▁இளமையின்	-11.4376
▁காஜ	-11.4376
▁மூடுமே	-11.4376
▁இணைவது	-11.4376
▁பண்ணினோம்	-11.4376
▁தோற்ப	-11.4376
டுத்திட்டு	-11.4377
ப்பாட்டிடு	-11.4377
▁கண்டாயே	-11.4377
▁வேறெதோ	-11.4377
ுட்டு	-11.4377
▁காவிக்	-11.4377
▁ரத்தமும்	-11.4378
▁அருக	-11.4378
▁கோப்பு	-11.4378
▁கேப்பேன்	-11.4378
ற்றிக்கொண்டும்	-11.4379
▁ஓசைகளை	-11.4379
▁படிச்சேன்	-11.4379
pera	-11.4379
▁மச்சான	-11.438
▁ஜீவனா	-11.438
▁லெ	-11.438
▁லிப்ப	-11.438
▁ஆரல்	-11.438
pd	-11.4381
▁போவோமே	-11.4381
▁இறந்திடு	-11.4381
▁காணுதே	-11.4381
▁உடைகிறேன்	-11.4381
▁பொழிகையில்	-11.4382
▁வீட்லையும்	-11.4382
▁எப்போ	-11.4383
▁இடையினிலே	-11.4383
▁தெக்கு	-11.4384
▁இதழினில்	-11.4384
▁சுமந்தே	-11.4384
▁சூசைட	-11.4384
▁கேட்டுச்	-11.4384
ப்பப்ப	-11.4384
▁ஆலைகள்	-11.4384
▁நிம்மதியா	-11.4384
▁ஓடினேன்	-11.4385
▁நிற்போமே	-11.4385
▁மாஞ்சு	-11.4385
▁குடையும்	-11.4385
▁புல்லாங்குழல்	-11.4386
பிடி	-11.4386
ரியாக	-11.4386
வாக	-11.4386
▁புரட்டும்	-11.4386
▁கோபம	-11.4386
▁தேடினால்	-11.4386
▁காணய்யா	-11.4387
▁வாழ்வென்ன	-11.4387
▁ஏத்திவெச்ச	-11.4387
▁வெடிய	-11.4387
▁பொழிவாய்	-11.4387
▁போகலையே	-11.4387
▁நசுக்கிட	-11.4388
▁man	-11.4388
▁சொல்லாமலே	-11.4388
▁கேக்குமா	-11.4388
▁இன்னு	-11.4388
▁குணம	-11.4388
▁தொலைந்து	-11.4389
▁முரட்டு	-11.4389
▁எடுப்பேன்	-11.4389
▁zu	-11.4389
▁கண்ணுக்குள்	-11.439
▁அப்பப்ப	-11.439
▁இதுக்கெல்லாம்	-11.439
▁பேசாமலே	-11.439
▁சிக்கிக்கிட்ட	-11.439
▁பொண்ணுக்குள்ள	-11.439
▁படிக	-11.4391
▁பார்க்கின்றேன்	-11.4391
▁ஊஞ்சலாடு	-11.4391
word	-11.4391
▁வேண்டுமடி	-11.4392
▁வெக்கமா	-11.4392
▁தருவது	-11.4392
▁கல்லாகி	-11.4392
▁ஸ்டார்	-11.4392
▁ஜம்ப	-11.4393
▁ஓய்ந்த	-11.4393
▁விடுமுறையே	-11.4393
▁மாட்டுவேன்	-11.4394
▁வடிவே	-11.4394
▁கிண	-11.4394
சாலா	-11.4394
▁டூ	-11.4394
▁பலூனா	-11.4394
அலாதின	-11.4394
▁கரைத்து	-11.4395
▁முடிவெடு	-11.4395
▁வாரமே	-11.4395
▁பதும	-11.4396
▁மாறியது	-11.4396
▁ஈடு	-11.4396
▁இருந்தவ	-11.4396
▁மலைகளை	-11.4396
▁மொளச்ச	-11.4396
▁தூரங்கள்	-11.4397
▁என்றாலும்	-11.4397
டடீ	-11.4397
▁தூவினாய்	-11.4397
▁கனியே	-11.4399
▁ஓடட்டும்	-11.4399
▁விடாத	-11.4399
▁இருந்திரு	-11.4399
▁பெல்ட்	-11.44
▁துகிரே	-11.44
▁செல்கிறேன்	-11.44
ென்னுள்ளே	-11.44
▁தேடாதே	-11.4401
▁சோகத்த	-11.4402
▁sl	-11.4403
▁விழியென	-11.4403
▁உயிரோவியம	-11.4403
▁சகதிய	-11.4403
▁விபத்த	-11.4403
▁மயங்கியே	-11.4404
▁பார்த்தேனே	-11.4404
▁கொய்தாய்	-11.4404
▁எரித்தே	-11.4405
▁கொடுக்கத்தான்	-11.4405
▁ஏறினாய்	-11.4406
▁நாடுவேன்	-11.4406
▁திணித்து	-11.4406
▁துளிர்த்த	-11.4406
fish	-11.4406
▁குடிப்பேன்	-11.4407
▁பிரம	-11.4407
▁துப்ப	-11.4408
▁floor	-11.4408
▁பரம்பர	-11.4408
▁விண்ணை	-11.4408
▁தாழ்வு	-11.4409
▁சர்க்க	-11.4409
▁ஊர்மக்கள்	-11.4409
▁நிப	-11.4409
▁காவல்துறை	-11.441
▁வினாக்க	-11.441
சியம்	-11.441
▁திரையிலே	-11.4411
▁tail	-11.4411
▁எழில்	-11.4411
▁தீண்டிடா	-11.4412
▁கொண்டேனடா	-11.4412
▁தூங்கத்தான்	-11.4412
▁கீறல்	-11.4412
▁நீரோட்டம	-11.4412
▁நெஞ்சோட	-11.4414
▁நிற்போம	-11.4414
▁கணக்கா	-11.4414
ேஸு	-11.4414
▁பயணிக்க	-11.4414
த்தீரத்தான	-11.4414
▁டண்டனக்க	-11.4414
▁பாசத்தை	-11.4414
▁தேவையில்லையே	-11.4415
▁தேடுவேன்	-11.4415
▁மாஸா	-11.4415
▁பிறகுன்னை	-11.4415
▁ராகமே	-11.4415
▁தூரிகையே	-11.4415
▁தாளமே	-11.4416
▁பாருண்ணா	-11.4416
▁பேயாய்	-11.4416
▁வானத்தை	-11.4417
▁அதுவரை	-11.4417
vodu	-11.4417
▁நொடிகளில்	-11.4418
▁காணுவேன்	-11.4418
▁மோகமோ	-11.4418
▁ஒலிகள்	-11.4418
▁பாக்கெட்ட	-11.4418
▁இழந்த	-11.4418
▁அழுவேன்	-11.4419
▁பண்ணிக்கோ	-11.4419
▁நரகம	-11.442
▁தேடுதே	-11.4421
▁think	-11.4421
▁வரைந்தேன்	-11.4421
▁தூறிட	-11.4421
▁லிங்க	-11.4421
▁சொல்கிறாய்	-11.4422
▁வாசமாய்	-11.4422
தூரம	-11.4422
▁முன்னோர்	-11.4422
▁வாழுவேன்	-11.4423
▁தைத்து	-11.4423
▁Dei	-11.4423
▁hip	-11.4423
▁ஆண்டி	-11.4424
▁கருவிழி	-11.4424
▁ரிச	-11.4424
▁நீங்கினாய்	-11.4424
▁சேர்த்தான்	-11.4424
சிறுவன	-11.4425
ஜம்	-11.4425
▁அச்சத்தில்	-11.4425
▁பேச்சுக	-11.4425
▁வைக்காதே	-11.4426
▁செலவா	-11.4426
▁தீண்டாமலே	-11.4426
▁Ha	-11.4426
▁ஒலியின்	-11.4427
▁தொண்ண	-11.4427
▁எப்படிம்மா	-11.4428
▁கொள்வோம	-11.4428
▁சாப்பிடுங்க	-11.4429
▁தீண்டாதே	-11.4429
▁வருகிறாய்	-11.4429
▁வேணும்ன்னு	-11.443
▁பிச்சி	-11.4432
▁தளர்த்த	-11.4432
▁பார்த்திடு	-11.4432
▁சொந்தமே	-11.4432
▁விலங்குகள	-11.4433
▁இன்றியும்	-11.4433
▁சிந்தியே	-11.4433
▁ராதை	-11.4433
▁மாலையில்	-11.4433
▁உணர்ந்திடும்	-11.4434
▁கண்டே	-11.4434
▁காதோடு	-11.4434
டிச்சான்	-11.4434
▁கொண்டாலே	-11.4434
ஃபை	-11.4435
▁மின்னத்தான்	-11.4435
▁இறுக்கம்	-11.4435
▁பூசுகிறா	-11.4435
▁சொல்லாம	-11.4435
▁நீளுமா	-11.4436
▁கனக்கும்	-11.4437
▁விழுந்தால்	-11.4437
▁ஆகுது	-11.4437
▁பிரிந்தாய்	-11.4437
story	-11.4437
▁மறைந்திருக்கும	-11.4437
▁அதுக்காகத்தான	-11.4437
▁சொன்னதுதான்	-11.4437
▁வானந்தான்	-11.4438
▁சொலிக்க	-11.4438
▁போகாதோ	-11.4438
▁ரணம	-11.4439
▁ஒருத்தர	-11.4439
▁சீன	-11.4439
▁ஏந்திக்	-11.444
▁பார்க்கவே	-11.444
பப்பப	-11.4441
▁இருந்தார்	-11.4441
▁ஆனோம்	-11.4442
▁புதுமை	-11.4442
▁முந்	-11.4442
▁தொடுதிரைய	-11.4443
▁ஐரோப	-11.4443
டைந்தோம்	-11.4443
▁தாங்குமா	-11.4443
▁போயிட்டான்	-11.4443
▁வாசல்ல	-11.4443
ார்டு	-11.4444
▁தீர்ந்துபோ	-11.4444
▁பிச்சுக்கிட்ட	-11.4445
▁வருஷமா	-11.4445
ப்பத	-11.4445
▁செல்வோமே	-11.4445
▁சாயல்	-11.4445
▁குடிய	-11.4446
▁வேண்டியதுதான	-11.4446
▁உதிரி	-11.4447
▁பங்காளிக	-11.4447
▁மனத்தை	-11.4447
▁திங்கள	-11.4449
அதான்	-11.445
▁சாஞ்சா	-11.4451
▁தீயணிந்த	-11.4451
▁உத	-11.4451
▁மீனாவுக்கும்	-11.4451
▁Yema	-11.4452
▁இந்திர	-11.4452
▁காட்டிடு	-11.4453
▁காலியா	-11.4453
▁சுழலில	-11.4453
▁தணிக்க	-11.4454
ப்பேசி	-11.4454
▁வயல	-11.4454
▁முகையே	-11.4454
▁பிழையா	-11.4455
▁முள்ளில்	-11.4455
▁விரலாய்	-11.4457
▁இருதயம	-11.4457
▁தீண்டவா	-11.4457
▁சட்டையைப்	-11.4457
▁நம்மள	-11.4458
▁நாணமா	-11.4458
▁கும்பலோட	-11.4458
▁செய்வான்	-11.4458
▁வாழ்வேனே	-11.4459
ோசை	-11.4459
▁மொற	-11.4459
▁புரியாது	-11.446
▁வந்தாச்சு	-11.446
▁சாலம்	-11.4461
▁போகுது	-11.4462
▁இறைவனே	-11.4462
▁மொழிகள	-11.4462
▁தொலைவது	-11.4462
▁கொண்டாயா	-11.4462
▁வாய்ப்பே	-11.4463
▁வம்பு	-11.4464
▁திறந்தே	-11.4465
▁பாறைக்குள்	-11.4465
▁அதிர்ந்திட	-11.4465
ீயே	-11.4466
▁மொண்டு	-11.4466
▁பேலே	-11.4466
▁வந்தாய	-11.4467
டிச்சேன்	-11.4467
ளிக்கிறேன்	-11.4468
▁கமல	-11.4468
▁பேசினேன்	-11.4468
▁பில்ட	-11.4469
▁விரலில்	-11.447
▁அவளோ	-11.447
கச்சிவ	-11.4471
▁நினைவாய்	-11.4471
▁நிமிடங்கள்	-11.4471
ாண	-11.4472
nā	-11.4472
▁நெஞ்சத்தில்	-11.4472
ற்றத்த	-11.4473
▁போவேனே	-11.4474
▁ஓடுவேன்	-11.4476
▁கண்டஞ்ச	-11.4476
▁கேட்டுப்பார	-11.4477
▁வாழத்	-11.4477
▁தொலைந்தேன	-11.4477
▁ஆற்றை	-11.4479
▁நெருப்பை	-11.4479
▁போவதும்	-11.4479
▁உருப்ப	-11.448
▁மிரளு	-11.448
▁சட்டை	-11.448
▁வேழம	-11.448
▁துளிரே	-11.4482
arm	-11.4482
ft	-11.4483
▁வாழலாம்	-11.4483
▁மெதக்குற	-11.4483
▁போர்வை	-11.4483
▁மெச்ச	-11.4484
டுறேன்	-11.4485
▁பிரிந்தேன்	-11.4486
▁வீழ்ந்தேன்	-11.4486
▁நிலமும்	-11.4487
்புகள்	-11.4491
▁போவது	-11.4493
▁வேண்டாம்மா	-11.4493
▁வாரியா	-11.4493
▁வயச	-11.4493
ஆக	-11.4493
▁உள்ளேயு	-11.4494
▁உயிர்த்து	-11.4494
▁கிழிக்கும்	-11.4494
▁உதித்த	-11.4495
னையில்ல	-11.4495
▁விரியும	-11.4495
ச்சாளே	-11.4496
▁சிம்ம	-11.4496
jd	-11.4496
▁காலையில்	-11.4496
ேஷன்	-11.4496
▁புல்லும்	-11.4497
▁சாம்பார	-11.4498
▁ஆவான்	-11.4501
சொல்லி	-11.4502
▁பாடலும்	-11.4502
▁நடிகா	-11.4502
▁தொலைதூர	-11.4502
த்துவ	-11.4504
▁நிற்பாள	-11.4504
▁விதமா	-11.4505
▁தங்கத்	-11.4506
▁எளிதி	-11.4506
▁மனிதம்	-11.4507
▁போயிர	-11.4507
▁நிலையோ	-11.4507
▁பாருடீ	-11.4508
▁வானத்திலே	-11.4508
▁இடத்தில்	-11.4509
▁திருடன்	-11.4509
ழிஞ்சிடுவான்	-11.4509
▁அவ்வளவுதான்	-11.4512
▁ராஜாளி	-11.4513
▁எடுத்தான்	-11.4513
▁சொன்னதை	-11.4513
▁பார்பி	-11.4513
▁மனமெல்லாம்	-11.4513
ாச	-11.4515
▁மருந்தா	-11.4515
▁கண்ணில்லா	-11.4515
apar	-11.4515
▁கரைந்தேன்	-11.4516
▁சொல்லித்	-11.4516
டியோவ	-11.4517
▁வாழ்ந்தாலும்	-11.4517
▁காற்றெல்லாம்	-11.4517
▁பட்டாடை	-11.4517
▁அஞ்சும்	-11.4517
▁வரதா	-11.4517
ச்சாரம	-11.4518
▁அணிந்தேன்	-11.4518
மாட்டிக்கிறீங்க	-11.4519
▁குழம்பிட	-11.452
▁அவ்வே	-11.4522
▁போவான்	-11.4523
tic	-11.4524
▁வெங்க	-11.4525
▁சிறகின்	-11.4526
▁நிக்காதே	-11.4526
▁அப்படியா	-11.4528
▁கொடுக்கனும்	-11.4528
▁சொல்லுடீ	-11.453
▁உழைப்ப	-11.453
மனை	-11.4532
▁அகல்	-11.4532
▁பார்த்திடா	-11.4532
டமே	-11.4539
▁கூடுமே	-11.4544
▁இல்லியா	-11.4544
▁சாய்வ	-11.4545
▁பக்க	-11.4546
▁கேட்டிடும்	-11.4546
▁முல்லை	-11.4548
▁அறிவுர	-11.4549
▁ஐஃப	-11.455
பமா	-11.4551
▁சல்லிக்கட்டு	-11.4551
▁காலடி	-11.4551
▁ஆடையாய்	-11.4552
▁பாக்	-11.4552
ர்மன்	-11.4552
▁மெய்யென்ற	-11.4553
▁அலைபாயு	-11.4554
பேசும்	-11.4554
▁நீக்கினாய்	-11.4556
▁வெடிச்சா	-11.4556
▁சிதறும்	-11.4556
▁நானி	-11.4557
ndame	-11.4558
யிர்	-11.456
்னு	-11.4562
ய்ந்தாலுமே	-11.4562
▁கெட்டுப்போ	-11.4562
▁நடிப்பா	-11.4563
ழிந்து	-11.4563
ன்றின்	-11.4564
▁எழுவேன்	-11.4566
▁ஆடய்யா	-11.4566
▁சங்கு	-11.4566
▁பையிலே	-11.4567
ப்பெட்டி	-11.4567
▁பாதரு	-11.4568
▁நினைத்து	-11.4568
▁மாட்டாய	-11.4571
▁வராங்க	-11.4572
▁விடல	-11.4572
▁கொடுத்துவிட்டு	-11.4573
▁கொலப்ப	-11.4575
▁உடையும்	-11.4576
fore	-11.4576
▁வீழ்கிறேன	-11.4578
▁உனக்கோ	-11.4578
▁பொசுங்க	-11.4579
▁உதவிட	-11.4579
▁நுழைந்தேன்	-11.4581
▁என்றாகின	-11.4581
▁காடாய்	-11.4581
▁ராதைக்க	-11.4582
▁ஏறப்போகு	-11.4584
▁முனை	-11.4586
▁போடாதே	-11.4586
ypa	-11.4586
▁ரட்ட	-11.4587
ரீக	-11.4588
▁வரந்தர	-11.4588
▁கொடுத்தது	-11.4588
▁கேட்டுக்கொண்டேன	-11.4589
▁க்ர	-11.4589
thing	-11.4589
▁கடித	-11.459
▁காமம	-11.4591
▁பாதங்கள்	-11.4592
▁நீங்கும	-11.4593
▁உன்மேல்	-11.4594
▁கிட்னிதான்	-11.4594
▁சாச	-11.4594
▁ஒத்துக்கிட்ட	-11.4595
▁மேனித்	-11.4595
▁இப்பவே	-11.4595
▁நிறைந்திட	-11.4597
▁குரலினை	-11.4598
▁சாப	-11.4598
▁போனாயே	-11.4598
ராஜ	-11.4599
▁உயர்த்த	-11.4599
▁தீமூளும	-11.4599
வியர்	-11.4599
▁குறிப	-11.4603
▁நீங்குதே	-11.4604
▁ஆணவ	-11.4605
▁நகர்ந்திட	-11.4606
▁நிகழ்வது	-11.4607
▁அஞ்சு	-11.4607
▁அனை	-11.4609
▁சிலுத்த	-11.461
▁வண்டா	-11.461
வாங்கி	-11.461
▁ஏறிட	-11.4611
▁சொல்லிட	-11.4611
▁பௌ	-11.4612
▁இருக்கறது	-11.4614
▁இரக்கம	-11.4615
▁மானுட	-11.4615
▁துகளே	-11.4617
▁இன்னின்ன	-11.462
▁பதிலே	-11.462
▁பகைவர்	-11.4621
ம்ம்ம்	-11.4621
▁கடலும்	-11.4624
▁கூந்தலோ	-11.4626
▁நெருப்பே	-11.4626
▁தள்ளாடு	-11.4628
▁இறந்துபோ	-11.4628
▁எங்கடீ	-11.4628
▁வந்திடற	-11.4629
▁தோற்க	-11.4629
சங்க	-11.4629
bit	-11.4631
▁கேள்விப்பட்ட	-11.4632
▁தள்ளிவிட்டு	-11.4633
▁Che	-11.4634
▁வெளியே	-11.4634
▁வீசினாய	-11.4635
▁உறைவத	-11.4635
▁சொன்னதா	-11.4636
▁பொறவா	-11.4639
▁மிதித்திடும	-11.4639
▁பத்தவெச்ச	-11.464
▁உண்மையில்	-11.4641
யிடும்	-11.4642
▁முகமுடி	-11.4642
▁வேறொண்ண	-11.4642
▁கண்ணீராய்	-11.4642
ம்மாடி	-11.4644
கிக்	-11.4645
▁நெனப்பு	-11.4647
▁திருடா	-11.4648
யலுக	-11.4648
▁கைத்தட்ட	-11.4649
▁மேய்கிறாய	-11.4651
விரல்	-11.4651
▁ஊட்டு	-11.4652
▁போகத்	-11.4653
▁தும்ப	-11.4653
▁மடித்து	-11.4654
▁வையி	-11.4654
▁கொண்டதால்	-11.4654
▁கிறுக்கோ	-11.4655
▁fan	-11.4655
▁பேப்பர்	-11.4656
▁ஹீட்டு	-11.4656
▁இன்னோர	-11.4656
▁மொழியே	-11.4657
▁வீரா	-11.4657
▁சிதறல்	-11.4658
▁வேலியில்லா	-11.4658
eve	-11.4659
▁கருப்பு	-11.466
▁தொடராத	-11.466
▁சேத்துவிட	-11.4661
▁மடங்க	-11.4661
▁சேர்ந்தே	-11.4662
▁நன்மை	-11.4662
▁துடைப்பாய	-11.4663
டாடுங்	-11.4664
▁வாய்மூட	-11.4664
ரீ	-11.4665
▁இளம்	-11.4666
▁உம்	-11.4667
தானென	-11.4668
ள்ளுதல்	-11.4669
ண்டி	-11.4669
▁ம்ஹு	-11.4669
▁ரெண்டாக்கி	-11.4669
▁மலர்கள்	-11.467
ுக்கமா	-11.4671
▁கண்டா	-11.4672
▁கடக்கும்	-11.4673
▁கிடக்கும்	-11.4674
▁cho	-11.4674
▁தீரும	-11.4676
▁அடமானம	-11.4676
▁பொய்களும்	-11.4676
▁கதையா	-11.4677
▁பேசுறா	-11.4678
▁தக்கா	-11.468
காந்த	-11.468
▁கேட்டதும்	-11.4683
▁வைத்தாய	-11.4683
▁தலைவா	-11.4686
▁இலக்க	-11.4686
▁கிள்ள	-11.4688
▁தவ	-11.4689
▁தீங்கை	-11.4698
▁வழிந்தே	-11.4699
▁அலையில்	-11.47
▁சாயும்	-11.4701
▁hop	-11.4703
ப்பாங்க	-11.4704
▁ஆறோ	-11.4704
cur	-11.4707
▁கௌத	-11.4707
▁ஜே	-11.4708
▁The	-11.4709
▁கெளரவம்	-11.471
▁குறையெ	-11.4712
▁நெஞ்சத்	-11.4712
...(	-11.4713
▁உறைந்த	-11.4713
▁நெடு	-11.4715
▁இசைத்திட	-11.4715
▁தொலைஞ்சிட	-11.4716
▁தங்கம	-11.4718
▁நீயில்லாம	-11.4718
▁காற்றினில	-11.4721
▁போச்ச	-11.4722
▁ஆசையா	-11.4723
▁உறங்கிட	-11.4725
▁செத்து	-11.4728
ியின்னா	-11.4728
lack	-11.4729
▁நிற்கும்போது	-11.4729
▁சாங்கு	-11.4731
▁பாடல்கள்	-11.4732
▁இசையாக	-11.4733
▁மறந்தோம	-11.4734
டுத்ததில்லையடி	-11.4736
▁காதலியே	-11.4736
▁புள்ளை	-11.4736
▁வைரஸ	-11.4736
▁கரையே	-11.4737
▁வானமும்	-11.4737
▁சில்லென்ற	-11.4739
▁தந்தத்	-11.4741
itar	-11.4741
▁அள்ளு	-11.4744
▁தட்டிக்	-11.4745
▁நீங்காத	-11.4747
▁எதிர்பாரா	-11.4749
▁வீச்சில	-11.4753
▁இவ்வா	-11.4754
▁நீங்கியே	-11.4756
▁முடிவென்று	-11.4756
urn	-11.4758
ut	-11.4759
பம்	-11.4761
தடா	-11.4762
▁கோமான	-11.4762
▁fl	-11.4763
்கும்	-11.4766
ek	-11.477
sso	-11.4772
▁ரணமா	-11.4773
▁ஏறக்	-11.4773
டியினில்	-11.4774
▁காதின்	-11.4777
▁பசங்கள	-11.4779
டிய	-11.478
▁உடைத்துவிட	-11.478
▁நிலைப்பத	-11.4781
gh	-11.4781
▁எல்லார	-11.4783
ுரம்	-11.4783
▁ஷாப்பு	-11.4784
mine	-11.4784
......	-11.4785
▁வளைவுகள	-11.4786
▁குஞ்சுக	-11.4791
▁அணிஞ்ச	-11.4793
▁காத்தே	-11.4793
ற்புத	-11.4793
▁எங்கயும்	-11.4795
▁விற	-11.4795
▁காசாசை	-11.4795
▁நானாக	-11.4797
▁வேர்விட	-11.4798
▁வாத்திய	-11.4801
▁தவிக்கிறேன	-11.4801
▁மனமெல்லாம	-11.4802
▁சப்பிக்	-11.4803
▁வில்லா	-11.4806
குவேன்	-11.4807
▁இப்பவ	-11.4809
தாரு	-11.4809
▁நினைவென	-11.4809
▁பறந்திடுவான	-11.481
▁வழிகள்	-11.481
ிச்சுட்டு	-11.4811
▁உயர்	-11.4812
படிச்சு	-11.4812
ojo	-11.4813
களுக்கு	-11.4814
▁பேரில்	-11.4814
zo	-11.4814
ேத்துவா	-11.4815
▁ஆற்றில	-11.4817
▁துளிர்க்கு	-11.4817
▁மீனோ	-11.4818
திக்கற	-11.4819
▁கொண்டது	-11.482
▁சடசட	-11.482
▁வாழவா	-11.482
▁புதைந்த	-11.4821
டில்	-11.4823
▁குட்ட	-11.4824
▁ப்ரி	-11.4825
▁நெருக்கத்தி	-11.4827
▁உண்டான	-11.4829
▁brea	-11.483
▁ஆடும	-11.483
னார்	-11.4834
▁வாரான்	-11.4837
லிக்	-11.4838
▁நெஞ்சில	-11.4838
▁சொல்லித்தந்தா	-11.4839
▁விளையாடும்	-11.4839
ர்ம	-11.484
▁நீராட	-11.484
ுகுந்தா	-11.4841
▁caus	-11.4842
▁துடிதுடிக்கு	-11.4842
▁மாறாமல	-11.4842
▁மழைத்	-11.4844
▁கொன்றாய	-11.4845
▁சாய்ச்ச	-11.4845
▁அதிகம	-11.4846
.......	-11.4846
▁ஐந்தா	-11.4848
▁பொண்ணுல	-11.4851
▁ஒட்டிக்கிட்ட	-11.4851
டைகளை	-11.4851
ரத	-11.4852
▁தொண்டன	-11.4852
▁கெட்டு	-11.4853
ியதோ	-11.4853
▁அதுக்க	-11.4854
ிட்டாளே	-11.4856
▁தோழன	-11.4857
▁மாட்சியோ	-11.4858
▁நம்புன	-11.4858
சையும்	-11.4859
ென்றானா	-11.4862
ple	-11.4863
▁செய்தே	-11.4865
லிக்க	-11.4865
▁குறும்	-11.4866
▁நுதல	-11.4867
காலுல	-11.4868
▁ஈர்த்த	-11.4872
▁மார்	-11.4872
கோதும	-11.4873
▁சொல்லிச்	-11.4874
▁கும்பிட்ட	-11.4874
▁படக்கு	-11.4875
▁விடிஞ்ச	-11.4875
ற்றை	-11.4877
▁ta	-11.4879
்லை	-11.488
கலம்	-11.4882
▁நல்லாதான்	-11.4883
▁தீர்ந்தால்	-11.4883
▁நல்லபடி	-11.4885
▁கடையு	-11.4886
காமி	-11.4888
ட்டிக்குவோம்	-11.489
▁துடிப்பும்	-11.4891
ெய்து	-11.4892
too	-11.4895
▁பட்டில்	-11.4896
▁பிறவிய	-11.4899
ாடுங்க	-11.4902
▁புன்னகையோ	-11.4903
▁நரி	-11.4903
ச்சிருச்சு	-11.4907
▁வதைக்க	-11.4907
▁வதைத்த	-11.4907
டாதோ	-11.4908
▁மீன்களா	-11.4911
ப்பைய	-11.4913
டுற	-11.4914
றினால்	-11.4917
▁நொடிப்	-11.4919
க்குறது	-11.4923
▁இரவும்	-11.4923
▁பழச	-11.4925
▁உடைப்போம	-11.4926
▁எறிந்திட	-11.4926
ham	-11.4928
▁படிச்ச	-11.4929
ன்னல்	-11.493
▁தீய்வ	-11.4931
▁தாவரம	-11.4931
▁முத்தமிட்டு	-11.4932
▁சிகரட்ட	-11.4936
ில்லாத	-11.4936
▁கடுக	-11.4937
▁புறப்பட்ட	-11.4937
▁நட்ட	-11.4938
▁ஓடோ	-11.494
▁கேளா	-11.4942
ோடிடும்	-11.4942
▁முடிச்சிட	-11.4943
▁மறக்கும்	-11.4944
▁பிழைப்பேன	-11.4944
▁சிலி	-11.4947
▁வேணும	-11.495
▁கேட்டுப்	-11.4956
▁மிதிச்ச	-11.4957
▁தவித்திட	-11.4959
▁குத்தம்	-11.4959
▁மொழியென	-11.496
▁மின	-11.4962
ட்டானே	-11.4962
▁பாரி	-11.497
▁கிளப்பி	-11.497
▁யோசி	-11.497
விதமா	-11.4971
▁முகத்தின	-11.4972
▁விசாரிச்ச	-11.4973
்பேனா	-11.4973
ோட்டோ	-11.4974
வாழ்க்கையோ	-11.4975
▁வலையில	-11.4976
▁செல்லத்	-11.4978
மீ	-11.4978
▁நீயென்றா	-11.4981
கருதிய	-11.4983
்டும்	-11.4983
ிறதோ	-11.4983
▁மெய்யாகுத	-11.4984
ிறதே	-11.4985
▁ஜாதிய	-11.4987
▁வந்திருக்கா	-11.4987
ங்கினேன்	-11.4995
▁இங்கெ	-11.4998
ீட்டா	-11.4998
▁தையா	-11.4998
▁சின்னப்	-11.4999
▁வைத்தே	-11.5
▁hot	-11.5
▁வான்வெளிய	-11.5003
▁துடித்தத	-11.5003
▁சூச	-11.5003
▁வசி	-11.5005
▁நினைவெ	-11.5008
▁எதுவ	-11.5009
▁தேங்காய	-11.5011
ருளாய்	-11.5015
▁பள்ளிய	-11.5023
▁குண்டும	-11.5029
▁நுகர்ந்து	-11.5029
ூப்பிடறத	-11.5033
ரமே	-11.5035
▁உனக்கென்ற	-11.5036
▁உள்ளது	-11.504
காரணத்த	-11.5044
னமும்	-11.505
▁இளகிய	-11.5051
▁கெஞ்சு	-11.5052
irt	-11.5052
▁விசை	-11.5055
▁சைச	-11.5057
▁இடிஞ்ச	-11.5059
▁சேர்வோம	-11.506
ட்டாளே	-11.506
▁இருக்கோ	-11.506
லையோட	-11.5062
▁சிரிப்பத	-11.5063
ிது	-11.5065
▁நகர்	-11.5067
ுத்திக்காட்டு	-11.5073
ிலோ	-11.5075
▁க்யூவ	-11.5076
▁அணுவ	-11.5076
▁தும்பிய	-11.5076
பு	-11.5079
▁ஒழ	-11.5081
▁கூப்பிட்ட	-11.509
தணிய	-11.509
றவன்	-11.5091
▁விடுமுறைய	-11.5098
ெய்தோம்	-11.5099
▁இமைக்கா	-11.5103
▁அமிழ்தமா	-11.5105
▁ஆலை	-11.5107
முழிச்சு	-11.5111
லியா	-11.5114
▁மறுத்து	-11.5117
▁அவ்வளவுதான	-11.512
▁இணைந்தோம	-11.5122
மாட்டிக	-11.5124
▁தவழு	-11.5124
cha	-11.5126
▁வருவாய்	-11.5126
▁nat	-11.513
▁குமரி	-11.513
யென்றால்	-11.5132
▁காதுகள	-11.5132
▁பொழியாமல	-11.5133
▁தென்	-11.5136
▁பானைகள	-11.5137
▁உனைய	-11.5137
▁போகுற	-11.5138
▁தமிழச்சி	-11.5138
▁ஒத்துமை	-11.5139
தனா	-11.5139
▁தோப்பு	-11.514
▁இதழி	-11.5143
்றா	-11.5145
▁கோக்கும்போத	-11.5146
▁ஏறிக்	-11.5148
▁மூட்டி	-11.5149
ச்சச்சா	-11.5149
▁ஞாயம	-11.5152
▁முழுங்க	-11.5154
av	-11.5154
▁கயல	-11.5155
▁வம்ப	-11.5155
▁பரவா	-11.5157
▁முடிவிலியின	-11.5158
ந்தும்	-11.5158
▁இந்நா	-11.5161
▁கிங்கா	-11.517
▁அமையாத	-11.517
▁இல்லன்னு	-11.5173
▁தித்திக்க	-11.5174
ொள்ளா	-11.5179
▁வாழி	-11.5179
▁கோடியில	-11.518
▁பேங்	-11.5182
▁கழுவி	-11.5185
▁கிடச்ச	-11.5185
▁நீயிருக்க	-11.5185
▁அட்வ	-11.5187
▁தலைக்	-11.5189
ணவறை	-11.5189
▁தருவ	-11.5189
▁தோணி	-11.519
▁வெறுமைய	-11.5193
▁ஏற்க	-11.5195
▁இங்கிலீ	-11.5197
▁சுமந்த	-11.52
▁ஸ்பை	-11.5202
▁செய்வானே	-11.5204
▁விழுந்துவிடு	-11.5206
▁புரிஞ்சுக்க	-11.5211
வேண்டாம்	-11.5211
தார்	-11.5212
▁ஓசைகள	-11.5212
▁இங்கிருக்க	-11.5212
▁மேஞ்ச	-11.5214
▁சாகாத	-11.5223
லட்சியத்	-11.5223
▁அந	-11.5225
▁வெறுத்திட	-11.5225
▁பசியே	-11.5226
ிட்டாய்	-11.5226
amp	-11.5227
▁பம்பரம	-11.5228
ுவாரு	-11.5237
▁கைத்த	-11.5237
▁வைப்பத	-11.5242
▁ஆபிஸ்	-11.5246
மறையுது	-11.5249
rr	-11.5253
▁day	-11.5256
▁மீட்டிங்	-11.5262
▁தேஞ்சா	-11.5264
▁நான்கைந்தை	-11.5266
▁சாச்சு	-11.527
லையில்	-11.527
▁குதிக்கிற	-11.5272
▁ஹாஸ்பிட்டல்	-11.5272
ாக்கில்	-11.5273
ானால்	-11.5275
ுச்சுன்னா	-11.5277
▁ரகுபதிதான்	-11.5281
்ன்னு	-11.5281
▁தேத்த	-11.5282
▁gh	-11.5288
வரி	-11.5291
▁பேய்க	-11.5293
▁கூகுல	-11.5294
▁திரட்டி	-11.5301
றுக்கு	-11.5301
▁கிரகங்களை	-11.5305
▁தாங்குவ	-11.5316
▁சாக்கட	-11.5316
aga	-11.5316
▁முட்டாள்	-11.5317
▁எனக்கோ	-11.5321
▁பண்ணும்	-11.5323
▁நனைத்தாய	-11.5324
ரூபம்	-11.5324
▁பிண	-11.5327
வ்வ	-11.5328
▁அழைத்தேன	-11.5329
▁விரிப்ப	-11.5334
▁ஜாமத்த	-11.5334
ந்திடவே	-11.5335
▁தூவானில	-11.5335
ப்பட்டா	-11.5344
▁உடைச்சி	-11.5344
▁இடையினில	-11.5345
▁வாரி	-11.5349
▁இச்ச	-11.5354
▁தேயாத	-11.5356
rage	-11.5362
முட்டிக்	-11.5367
▁பாறையில	-11.5372
லன்னு	-11.5373
▁அழுக்கை	-11.5377
▁முளைக்குத	-11.5378
oje	-11.5381
▁கோரினா	-11.5383
ொலுச	-11.5384
ிக்கிற	-11.5385
▁சூடே	-11.5398
▁நிகழ	-11.5405
▁பொறந்து	-11.5408
▁ஏத்துன	-11.5409
▁காதை	-11.5412
▁அணைய	-11.5413
▁எனதழக	-11.5419
▁காட்சிய	-11.5422
▁வேறாய்	-11.5427
▁ருசிச்சு	-11.543
▁ரசி	-11.5431
சல	-11.5433
▁ராதைக்கு	-11.5434
▁தோடு	-11.5437
ட்டினேன்	-11.5438
ிருக்கலாமே	-11.5441
▁நடுவ	-11.5442
▁கிங்	-11.5443
▁ராங்க	-11.5445
IL	-11.5447
ங்கூட	-11.5459
▁பொன்ன	-11.546
▁சூடாக	-11.546
▁இமயம்	-11.5463
▁திக்கும்	-11.5464
▁மூடிக்கிட்ட	-11.5465
▁பூத	-11.5465
▁வாழை	-11.5469
▁வெக்கம	-11.547
புவாய்	-11.5471
▁நண்ப	-11.5484
ட்டிக்	-11.5484
▁சிறைய	-11.5487
▁சக	-11.5491
ெட்டுல	-11.5493
▁காதலோ	-11.5497
▁நீண்டிடு	-11.5505
▁மாட்டிக்கிட	-11.5505
▁லூ	-11.5508
▁நிஜத்தி	-11.5508
ப்பதால்	-11.5511
ர்ந்து	-11.5514
▁ஒன்றான	-11.5517
யத்தை	-11.5519
மெ	-11.552
▁சேர்ந்தாட	-11.552
டித்திடுவேன்	-11.5522
▁யாழ	-11.5526
ூன்	-11.5529
ல்லே	-11.553
▁ஜெயிக்கத்	-11.5531
டச்சு	-11.5533
▁நமத	-11.5535
லமா	-11.5537
▁படரு	-11.5545
▁வார்த்தைகள	-11.5554
▁சாய்	-11.5557
▁தெள்ள	-11.5558
▁என்பத	-11.5559
சையோடு	-11.5561
▁வில்லனுக்க	-11.5563
ess	-11.5563
▁ஆட்டத்துக்க	-11.5566
▁வெளிச்சத்த	-11.5566
▁மூழ்குத	-11.5568
ங்குழி	-11.557
ுப்பு	-11.5571
▁சேல	-11.5573
▁கோப்பையி	-11.5574
▁லூசு	-11.5576
காய்	-11.558
▁மதிப்பி	-11.5584
▁காரா	-11.5584
▁கண்களில	-11.5587
▁C	-11.5593
ிப்பத	-11.5595
tter	-11.5595
▁கொழ	-11.5596
▁மரு	-11.5597
பவ	-11.56
▁எடுப்பான	-11.5602
தியினை	-11.5605
▁கொள்ளு	-11.5608
▁மதம	-11.561
▁மென்மையா	-11.5616
▁ரோட்டுக்கு	-11.5618
ினானா	-11.5619
ண்டில்	-11.5624
▁மறைகிற	-11.5626
▁உருவாகும	-11.5627
▁போரா	-11.5628
▁கொதிக்க	-11.5629
▁உயர்வு	-11.5633
▁பிறகே	-11.5633
▁அலைவத	-11.5643
▁வீணென்ற	-11.5644
▁குத்தாத	-11.5645
ண்ணி	-11.5646
▁தொலைஞ்ச	-11.5647
▁சுவர்கள	-11.5656
▁மாவ	-11.5662
பீஸா	-11.5669
▁வீசிட	-11.5673
ini	-11.5676
க்காத	-11.5679
▁எண்ணம	-11.5685
▁அமர	-11.5685
ொறந்திருக்கு	-11.5686
urr	-11.5687
▁மலர்வாய	-11.5692
கூடும்	-11.5692
▁செல்கின்றா	-11.5698
▁செய்தார	-11.5698
▁கிழியு	-11.5699
▁கெடக்குத	-11.5699
▁நாய்கள	-11.5705
ற்றிக்கொண்ட	-11.5707
▁நிறையுத	-11.5709
▁பொறப்பி	-11.5711
▁ரூட்ட	-11.5713
கத்	-11.5714
▁jun	-11.5719
▁கொடுக்கலாம	-11.5721
▁நஷ்ட	-11.5724
விங்கள	-11.5725
▁மாக	-11.5727
▁எங்கண்ணு	-11.5728
▁உண்டானதே	-11.5729
பது	-11.5737
▁இரத்த	-11.5737
ையென	-11.5739
▁இச்	-11.5739
▁பிரிந்தோம	-11.5745
ப்பர	-11.5754
▁பிறருக்க	-11.5755
▁நடுங்கிடு	-11.5763
▁ஷோவ	-11.5763
▁ஆசைய	-11.5768
▁பருவ	-11.5769
காண்போமே	-11.5771
▁போன்றத	-11.5774
▁வாழ்வொன்ற	-11.5777
▁சீதைக்க	-11.5779
ஜ்	-11.578
▁ஊழ	-11.578
▁புரிஞ்சுகிட்ட	-11.5785
பத்தி	-11.5786
▁உடைய	-11.5791
▁கசிந்த	-11.5792
▁திட்டி	-11.5795
▁அனுபவம	-11.5801
▁வஞ்சி	-11.5805
ிதம்	-11.5807
▁மாறுகின்ற	-11.5807
ம்பல	-11.5812
▁மன்ம	-11.5813
▁அதப்	-11.5817
▁நிலவும்	-11.5817
▁தோட்டாக்க	-11.5818
▁திடுக்க	-11.5819
ூட்டிட	-11.582
▁நிற்காத	-11.583
▁flu	-11.5834
கின்றான்	-11.5837
ிட்டீங்களே	-11.5839
ாசை	-11.5839
▁ஆசப்பட	-11.5842
க்கற	-11.5842
▁சப	-11.5843
▁வெண்மைக்கு	-11.5849
▁lad	-11.5851
லமென	-11.5857
▁Co	-11.5859
ளைத்தாயடி	-11.5859
▁போனான்	-11.5862
ப்பிழ	-11.5864
▁pin	-11.5866
ையினை	-11.5869
▁துன்ப	-11.5875
▁ஆர்மோன்	-11.5877
றிப்	-11.5878
▁ஒருத்தன	-11.5878
▁வைரம	-11.5883
▁வஞ்ச	-11.5887
▁இறை	-11.5893
▁பொட	-11.5894
▁ஓடா	-11.5896
ப்பொண்ணுனாலும்	-11.5897
▁அணைத்துக்கொ	-11.5898
▁புதி	-11.5901
▁வாசத்தால	-11.5901
▁இணைத்திட	-11.5902
▁பொய்யி	-11.5903
on	-11.5905
க்குடை	-11.5907
▁வயல்	-11.5911
ுவிடும்	-11.5914
புட்டா	-11.5915
பாலி	-11.5915
▁மிதிக்க	-11.5927
▁பாதாள	-11.5934
▁ஓட்டி	-11.5936
துதான்	-11.5938
ேசுல	-11.595
ழந்தே	-11.595
ிருக்கா	-11.5955
ிடுவான்	-11.5963
கட்டிக்கிட்டு	-11.5964
▁திரவ	-11.5969
ொல	-11.5981
த்திரை	-11.599
களிலே	-11.5992
▁போறான	-11.5994
▁தந்தத	-11.5997
▁சுடர்விடும	-11.5997
dru	-11.6006
▁கரைகின்ற	-11.601
▁மயங்கினேன	-11.6011
▁வீழ்ந்தாய	-11.6018
னந்தா	-11.6021
▁துளிர்க்கின்ற	-11.6022
▁உயரங்கள	-11.6023
ம்பா	-11.6027
▁கொல்க	-11.6028
▁சதி	-11.6036
week	-11.6037
ெய்	-11.6039
▁வீடும்	-11.604
டிச்சு	-11.6045
▁என்னா	-11.6048
▁நாட்டி	-11.6048
▁வீழு	-11.6053
▁படிப்போம	-11.6055
ிக்காம	-11.6055
தென	-11.6058
▁மேகம	-11.6062
▁ஏந்திக்கொண்ட	-11.6063
▁தேய்த்த	-11.6066
▁ரசித்த	-11.6066
▁கொன்றத	-11.6071
ிடுவாளே	-11.6077
aazh	-11.6078
▁எடுத்தே	-11.6079
▁இருக்கும	-11.6079
▁சேர்ந்தா	-11.608
ினாள்	-11.6089
▁தினம	-11.609
▁துளை	-11.6093
▁தவறி	-11.6096
▁நிக்குற	-11.6102
க்காது	-11.6113
▁நோட்டு	-11.6117
▁நிமிஷ	-11.6122
டைச்சுக்குவோம்	-11.6124
ண்ண	-11.6127
aadha	-11.6129
▁தொலைத்தேன	-11.613
▁பறக்கிறேன	-11.6132
ானதே	-11.6136
ின்னும்	-11.6137
▁விரும்பாத	-11.6138
்கின்ற	-11.6141
டுங்	-11.6147
▁சுட்டு	-11.6155
▁bin	-11.616
டுமே	-11.616
▁காதலிச்சே	-11.6161
▁மம	-11.6168
▁வரிவ	-11.6169
▁என்கிறாய்	-11.6174
னங்கள்	-11.6185
ருப்பாய்	-11.6189
▁மேச்ச	-11.6189
▁ஏற்ப	-11.619
டையில்லா	-11.6191
ச்சுடுவா	-11.6198
▁கரைந்திடு	-11.6206
▁அதிசயம	-11.621
▁பண்ணறா	-11.6212
ாங்கல்	-11.6217
▁வறுமை	-11.6218
▁தந்துவிட்ட	-11.6222
▁உதிரட்டும	-11.6224
▁தாளம	-11.6225
▁இமைகளில	-11.6235
▁தேனி	-11.6238
▁ஆடுகின்ற	-11.6239
▁தருவத	-11.624
▁செய்வது	-11.6247
▁வேற்று	-11.6254
to	-11.6255
ொலி	-11.6256
▁குழைவ	-11.6258
▁எந்திரி	-11.6258
▁அன்னைக்க	-11.6274
▁gig	-11.6276
▁நனைத்திட	-11.629
விழியோடு	-11.6294
▁ஆமாம்	-11.6294
▁வீண்தான	-11.6298
▁பேசியிருக்க	-11.6302
▁ஹார்ட்டு	-11.6311
ியென	-11.6317
▁தவறுகள	-11.632
▁உள்ளுக்குள்ள	-11.6321
▁தெரியு	-11.6321
த்தது	-11.6322
இருவரு	-11.6322
▁கிளியா	-11.633
▁இருக்கையில	-11.633
▁இருப்பது	-11.6333
▁திரிஞ்ச	-11.6337
வமா	-11.6337
▁உலகத்தி	-11.6337
▁முன்னா	-11.6342
▁செந்தூ	-11.6342
டைந்து	-11.6345
▁காடும்	-11.635
ட்டால்	-11.6353
▁முள்ளா	-11.6357
மோகனா	-11.6362
▁முடிவே	-11.6368
▁ஊசியா	-11.6377
ிக்கொள்ளட்ட	-11.6382
▁உதிர்க்க	-11.6383
▁உருண்டை	-11.6387
ீன்	-11.6388
▁பைய	-11.639
▁பஸ்ஸ	-11.6391
▁உருவி	-11.6393
▁சம்ம	-11.6395
▁ஏற்றுக்கொண்டத	-11.6405
ிக்கிறாய்	-11.6406
▁கேச	-11.6406
▁ஓயாத	-11.6408
▁ஆயி	-11.6409
▁சாவிய	-11.641
த்திடு	-11.6411
▁பூமா	-11.6414
▁முடிச்சு	-11.6418
ரமாய்	-11.6419
▁விழியோடு	-11.642
un	-11.6424
▁அறுத்திட	-11.6425
ழியுதோ	-11.6428
▁நதிகளி	-11.6436
▁அடைப	-11.6438
▁ஈட்டி	-11.6439
▁அறிமுகம	-11.644
▁தீந்து	-11.6441
யி	-11.6443
▁Pa	-11.6444
போன	-11.6444
▁ஈசல	-11.6447
▁இருந்தது	-11.6447
ட்டோ	-11.6449
▁தன்மைய	-11.645
▁அகல	-11.6461
▁உயிர்களை	-11.6462
▁காண்ப	-11.6464
▁தீபம	-11.6464
மானத்தை	-11.6479
▁தவித்த	-11.648
க்கத்துக்கு	-11.6483
▁எல	-11.6497
unc	-11.6498
▁செருப்ப	-11.6507
றைந்தாய்	-11.6509
▁கல்யாணமா	-11.6509
▁சேதித்	-11.6511
▁ஹொ	-11.6517
பத்துக்கு	-11.652
▁சாய்கின்ற	-11.6522
▁மாத்துவேன்	-11.6525
▁அழிவது	-11.6525
▁காசுக்க	-11.6528
▁தோளின	-11.6532
ட்டியாட்ட	-11.6535
டத்துக்கு	-11.6537
▁கூம	-11.6538
சிய	-11.6539
▁அம்புகள	-11.6539
▁சொல்லறேன்ன	-11.6539
திக்கி	-11.6543
▁இனியு	-11.6543
▁சப்தம	-11.6549
▁காற்றா	-11.6552
னக்	-11.6555
▁ஊர்வ	-11.6573
▁far	-11.6573
ain	-11.6583
பானைய	-11.6587
▁மணிக்க	-11.659
ட்னி	-11.659
▁சிங்கமா	-11.6591
▁மரணத்த	-11.6594
யத்	-11.66
▁வரைந்திருந்த	-11.6601
▁ஞானத்த	-11.6602
c	-11.6605
ாலாடை	-11.6606
்சி	-11.6621
பிடிக்கற	-11.6623
▁வாயில	-11.6625
▁தோன்றுவத	-11.6627
▁ரோல	-11.6629
▁கொய்வா	-11.6637
▁காத்திருந்த	-11.6638
ரண	-11.6639
▁காந்தி	-11.664
▁புரள	-11.6648
▁பேத	-11.6648
னொலியாய்	-11.6649
செல்ல	-11.665
▁படகா	-11.6652
▁ஐந்து	-11.6653
time	-11.6656
▁உதைக்கு	-11.6656
▁யாம்	-11.666
▁பணத்த	-11.6661
ண்பான	-11.6664
▁அழைத்தால	-11.6673
▁முறைய	-11.6673
▁ஆம்பிள	-11.6676
▁சிறும	-11.6683
ருந்திய	-11.6685
க்குத	-11.6692
க்கொள்ளுதல்	-11.6695
▁பத்தா	-11.6695
▁அவனுங்க	-11.6697
▁சந்தோஷம	-11.6699
▁ஆவா	-11.67
▁எதிரிக்	-11.6702
▁மொழியால	-11.6704
▁தூவினா	-11.6706
▁ஆட்டி	-11.6707
▁தொடுவான	-11.6716
ஞன்	-11.6718
▁டோர	-11.6718
▁துள்ளுத	-11.6724
▁மதில	-11.6726
▁நன்றிய	-11.6729
ாடுவேன்	-11.6735
▁பிணம	-11.6735
ைஞ்சு	-11.6738
▁பேசின	-11.674
▁உலகத்த	-11.674
ன்னே	-11.6743
ாயம்	-11.6748
▁நீளும	-11.6751
ப்பாவுக்கு	-11.6756
▁விழுவத	-11.6757
▁போகிற	-11.676
ச்செல்ல	-11.6765
ொல்லுடீ	-11.6771
▁தன்னால	-11.6772
▁குனிந்தத	-11.6774
னூர்	-11.6778
▁கேக்கா	-11.6785
வுக்கு	-11.6789
ளம்பி	-11.6793
வுத	-11.6803
▁சேப்ப	-11.6804
▁கேட்டுக்கி	-11.6806
▁தேனில	-11.6813
கொள்ளும்	-11.6814
க்குறேன்	-11.6816
▁ஏல	-11.6819
ின	-11.6821
ேனடா	-11.6823
▁வானவில்ல	-11.6829
▁எம்ப	-11.6832
▁ஈன்ற	-11.6832
ுச்சோ	-11.6837
ானதோ	-11.684
க்களம	-11.684
டைப்பது	-11.6846
▁உரித்த	-11.6859
▁அமுதா	-11.6866
app	-11.687
ையின்னு	-11.6875
ாட்சியடீ	-11.6888
▁பிரிந்தேன	-11.689
▁கவலையில்	-11.6891
▁vi	-11.6895
▁வீழ்ந்தேன	-11.6898
▁புல்லட்ட	-11.6901
மையின்	-11.6901
ட்டிக்காட்டு	-11.6902
▁தேயு	-11.6905
▁போதும	-11.6908
கொடுக்கற	-11.6911
▁வணங்குகிற	-11.6911
▁ராஜாவி	-11.6912
▁சுரங்க	-11.6917
த்திரம்	-11.6921
ட்டிவ	-11.6922
▁ஆசைகள	-11.693
ாரி	-11.6932
▁மறந்திட்ட	-11.6935
▁ஒண்ணாக	-11.6939
▁அழுகைக்க	-11.694
ூட்டம்	-11.6941
▁வாயோ	-11.6948
ன்னும்	-11.6949
புள்ள	-11.6958
▁புதையல்	-11.6961
ராங்கு	-11.6962
டர்மே	-11.6967
▁வீற்றி	-11.6974
▁வரையில	-11.6983
▁தாக்கின	-11.6986
orul	-11.6988
▁)	-11.6988
▁போற்ற	-11.6989
▁வருகின்ற	-11.699
▁மூட்டு	-11.699
யென்	-11.6994
ானத்தை	-11.6995
▁சிரிக்கிற	-11.6996
▁நறுக்கி	-11.6998
▁வெறு	-11.7006
ூத	-11.7006
த்தீர	-11.7007
சிறித	-11.702
்பு	-11.702
▁திருந்திட்ட	-11.7026
ுயலொண்ண	-11.7029
▁தண்டி	-11.7031
▁பொறுமை	-11.7032
▁zh	-11.7039
▁மொத்தத்த	-11.7048
▁போட்	-11.705
▁ஒட்டுமொத்தம	-11.7052
ிருந்தும்	-11.7052
க்குட	-11.7061
▁புதிர்	-11.7062
▁நின்றாள	-11.7063
ட்டுந்தான்	-11.707
டிவா	-11.707
ச்சியை	-11.7078
▁நால	-11.7081
▁சுத்தம	-11.7084
▁Mot	-11.7086
▁St	-11.7101
▁ஆரம்ப	-11.7112
ட்டமாய்	-11.7114
ல்லாம	-11.7116
▁வேக	-11.7117
▁பார்க்கின்றத	-11.7119
வொம்	-11.712
▁மூளையில்	-11.7123
டியில்	-11.7125
கொட்ட	-11.7127
▁ஏதென்ற	-11.713
யில்லா	-11.7136
சாய	-11.7139
▁விலகுத	-11.7139
▁Sa	-11.7149
ங்கறது	-11.7153
ாலோட	-11.7165
▁விசில	-11.7166
கச்	-11.7168
▁அமைத்த	-11.7171
ணர்வ	-11.7172
▁அவ்வானம	-11.7175
ியிலே	-11.7178
▁அதுக்	-11.7178
▁ஊட்டிய	-11.718
▁நசுக்க	-11.7182
▁துளிர்க்க	-11.7196
▁நித்தி	-11.7206
டினேன்	-11.7212
கினி	-11.7216
▁கோக	-11.7228
▁சாப்ப	-11.7236
▁கூரில	-11.7236
▁சாய்ந்தே	-11.7237
▁எழுப்பு	-11.7237
▁தொலைந்திட	-11.7239
ட்டுதான்	-11.7242
ர்ந்த	-11.7244
rs	-11.7247
லிருந்து	-11.7258
▁மேட்டர்	-11.7259
▁வெச்சிட்டு	-11.7263
▁வரிச	-11.7273
ிருந்தே	-11.7273
▁ஆளா	-11.7274
▁முறையில்ல	-11.7276
▁காப்பாத்த	-11.7278
▁dro	-11.7278
சமா	-11.7286
▁அசைக்க	-11.7293
விழியில்	-11.7302
த்ததும்	-11.7302
ாலுமே	-11.7306
்ட	-11.7308
▁துளிர்க	-11.7313
ருல	-11.7315
க்குதோ	-11.7321
தைக்	-11.7322
▁முதுகின	-11.7323
▁துள	-11.7324
ருமத்த	-11.7324
▁பெட்டி	-11.7327
▁நிற்குத	-11.7328
ிடுக்கு	-11.733
▁கூண்டு	-11.7334
oo	-11.7339
▁சிக்கிக்கொ	-11.7345
வித்தான்	-11.7345
▁யோ	-11.7348
▁குழலி	-11.7349
▁இழைய	-11.735
top	-11.7352
ியாத	-11.7354
▁செய்தேன	-11.7356
த்திச்	-11.7361
utter	-11.7373
▁வேறென்	-11.7374
▁இருந்திச்ச	-11.7379
▁வேண்டு	-11.738
▁நார்	-11.7382
▁பிறர்க	-11.7382
▁உயர்ந்தத	-11.7384
▁தோல்விய	-11.7386
▁சுருங்கிடும	-11.7391
ுந்	-11.7396
தையின்னு	-11.74
ொருள்	-11.7404
▁தீயாக	-11.741
ாடி	-11.7411
▁சுவாசமா	-11.7412
வங்களுக்கு	-11.7412
கொள்ள	-11.742
▁கிடைக்காத	-11.7422
▁சினம	-11.7424
▁கொல்வ	-11.7424
▁கிள	-11.7426
ஃபெ	-11.7428
வரா	-11.7446
ிர	-11.7452
▁சிந்தாம	-11.7468
ஹூம்	-11.747
▁வேஷ	-11.7471
▁இறப்பி	-11.7471
▁இழந்தேன	-11.7475
ண்ணின்	-11.7479
ஃபோனுக்கு	-11.7483
▁ஜெயிச்சா	-11.7485
▁பிரிஞ்சு	-11.749
▁சாதா	-11.7497
ன்னிக்கு	-11.7497
▁சென்றத	-11.7501
மைத்தாயே	-11.7504
வைக்	-11.7507
▁வினா	-11.7513
▁குறையே	-11.7516
கும்போதோ	-11.7517
ார	-11.7519
▁பறித்தாய	-11.7525
▁பிடிக்கிற	-11.7528
றக்கிறேன்	-11.7529
▁கம்பி	-11.7529
▁நல	-11.7537
▁கலரா	-11.7539
▁என்றென்னை	-11.7541
லோகம்	-11.7548
▁எரிந்திடு	-11.755
ுங்காட	-11.7552
▁குறள	-11.7563
▁பூம்பா	-11.7569
ac	-11.7571
▁செந்தேன	-11.7581
▁குரலுக்கு	-11.7591
▁குறையில்ல	-11.7595
▁வில	-11.7601
▁வாக்கிய	-11.7601
▁வானேற	-11.7602
▁பாடிடு	-11.7603
▁கேர	-11.7603
▁கிளப்ப	-11.7605
ோழி	-11.7605
ுந்த	-11.7609
ட்டினி	-11.761
▁மெல	-11.7614
▁போறத	-11.7622
▁சிறகினில	-11.7625
▁புரட்சிய	-11.7633
▁ரூபாய	-11.7641
▁பாகுபலியி	-11.7641
▁தீட்டிடு	-11.7645
▁தீவிர	-11.7653
▁முத்தம	-11.7654
▁பொழிவ	-11.7663
பூராவும்	-11.7667
▁கரைந்திட	-11.7669
சட்ட	-11.7677
▁கட்டப்பை	-11.7677
ிப்பது	-11.7679
▁என்னவா	-11.768
hot	-11.7689
▁பொய்யென்	-11.7691
▁இருளி	-11.7692
▁கழ	-11.7698
ழையாகவே	-11.7698
▁உழ	-11.7699
▁மெய்யென்	-11.7701
▁பார்த்தாய	-11.7706
▁மதிய	-11.7707
றேன்ங்க	-11.7709
▁நகங்கள	-11.7712
▁தேர்	-11.772
▁குழம்பிய	-11.7721
▁தழுவிடு	-11.7726
▁அரசன	-11.7732
▁சாயாம	-11.7737
▁சொல்லுவ	-11.7739
கையும்	-11.7739
▁ஏமாத்த	-11.7747
▁சமைப்ப	-11.7748
ound	-11.7752
இது	-11.7755
ம்பர	-11.7757
பல்	-11.7759
ைந்த	-11.776
▁தொடங்கிடும	-11.7769
▁அணைந்தே	-11.7776
ணங்களை	-11.7778
சாத்தி	-11.7779
▁அரும்பு	-11.7786
▁பாக்கும	-11.7787
▁தீப	-11.7789
▁நினைப்ப	-11.779
கோட	-11.7801
▁சாத்தே	-11.7801
▁நழுவ	-11.7802
▁பள்ள	-11.7803
கருவாட	-11.7808
▁பாழ	-11.781
ட்டாலும்	-11.781
ாளடி	-11.7815
▁பாக்கலாம	-11.7815
ming	-11.7818
▁கட்டப்பாவும	-11.7825
▁por	-11.783
தடம்	-11.7832
▁நகை	-11.7834
▁மரண	-11.7836
▁அழகென்ற	-11.7837
me	-11.7845
▁கிளம்ப	-11.7846
▁கிட்டார	-11.7851
யு	-11.7858
▁தேடல	-11.7863
ிறாள்	-11.7865
▁காக்	-11.7865
▁வீரன்	-11.7874
acti	-11.7883
க்கறதுக்கு	-11.7902
▁நின்றேன	-11.7909
ப்புற	-11.7909
▁சுழலு	-11.7911
▁கனவிலும	-11.7911
▁ரகசியம	-11.7916
▁எதிரொளிய	-11.793
▁ஆடுற	-11.7933
▁துன்பத்த	-11.795
ிக்கு	-11.7951
ாருன்னு	-11.7954
▁சோத்து	-11.7966
க்கினி	-11.7969
▁உழைக்க	-11.7969
▁தெரிந்தா	-11.7973
▁சீறு	-11.7976
▁gon	-11.7976
▁தொலைவே	-11.798
▁கனாக்க	-11.7987
▁உறவின	-11.7987
▁காணு	-11.7989
▁மணக்க	-11.799
▁களைந்தாய	-11.799
ுடிச்சா	-11.8
▁திருடிட	-11.8006
▁செயிக்க	-11.8006
ேசிக்கலாம்	-11.8012
ந்திடலாம்	-11.8012
▁நங்க	-11.8019
▁முயல்வ	-11.8024
▁சூடி	-11.8027
▁தோன்றின	-11.8037
▁சூட்டின	-11.804
ிச்சிட்ட	-11.804
▁பரப்ப	-11.8044
ழைக்கும்	-11.8048
▁ஜாதக	-11.8053
ுவேன்னு	-11.8056
▁தெரிவ	-11.8066
▁வீசுவத	-11.8069
க்கிருக்கு	-11.807
னையோ	-11.8072
▁தீண்டிட	-11.8078
ுடிக்குற	-11.8078
க்குட்டி	-11.8082
▁நிக்கலாம	-11.8082
ிடத்	-11.8083
▁அசைவை	-11.8088
்ள	-11.8089
னமே	-11.8092
▁படுக்க	-11.8102
▁மோர	-11.8103
▁உரை	-11.8108
▁கோயில்	-11.8108
▁உழை	-11.8109
▁பகலி	-11.811
▁செருக்க	-11.8111
க்ட்	-11.8112
்திந்திந்தி	-11.8112
▁உசுப்ப	-11.8127
▁ஊதிக்க	-11.8129
▁கலக்க	-11.8137
பங்கள்	-11.8143
வையாய்	-11.8144
▁பொம்மைய	-11.8146
▁விழியால	-11.8152
▁இழந்தத	-11.8156
த்திடும	-11.8157
▁நொடிகளை	-11.8165
▁பட்டி	-11.8168
ெண்ண	-11.8171
▁ஒன்ன	-11.8172
▁ஒலியில்	-11.8173
▁உள்ளம	-11.8174
▁வீரத்த	-11.8174
▁நிகழ்த்த	-11.8177
▁யாம	-11.8178
ந்திடத்தானே	-11.8178
லகம்	-11.819
▁விழுங்க	-11.8192
kp	-11.8202
▁அலகின	-11.8214
▁குறுக்க	-11.8218
▁நிறைந்தே	-11.8225
்கிறதே	-11.8228
tone	-11.823
▁கூர	-11.8234
்யா	-11.8235
▁மதுவி	-11.8235
▁சிலிர்த்த	-11.8236
▁அழுவத	-11.824
திசை	-11.8243
▁தெரிந்து	-11.8262
nce	-11.8266
ரண்டு	-11.8267
்டான்	-11.8277
▁அறிவு	-11.8279
▁தீர்ந்தத	-11.8279
▁போடலாம	-11.8279
▁உணர்கிற	-11.8283
▁பொங்கிடும	-11.8284
▁பட்டன	-11.8285
▁திரையை	-11.8291
ance	-11.8298
தில்லையடி	-11.8302
▁பொன்னா	-11.8305
▁அப்படிய	-11.8309
▁தொங்க	-11.8309
ுலமும்	-11.8311
▁காப்பாத்து	-11.8314
களைக்	-11.8318
▁யோசித்தா	-11.8319
▁பெய்த	-11.8332
ப்பதும்	-11.8335
eat	-11.8335
ாகுது	-11.8342
▁ஜோ	-11.8344
▁பொழுதுகள	-11.8346
றதே	-11.8354
▁வந்தாள	-11.8366
▁அழகில்ல	-11.8367
லகினில்	-11.837
▁ஆபத்த	-11.8373
பதா	-11.8377
ிஷ	-11.8382
▁பீல	-11.8385
ையெது	-11.8389
ெரிந்திடு	-11.8389
▁கன்னங்க	-11.8392
▁உருகுத	-11.8392
▁துடைத்த	-11.8397
▁அருளி	-11.8399
▁தீட்டும	-11.8401
இதுதான	-11.8401
ந்திடுவேன்	-11.8405
▁துரு	-11.841
▁இறுக	-11.841
்னும்	-11.842
▁திறவா	-11.8423
▁களி	-11.8423
▁பிடிச்சது	-11.8426
▁வீசுன	-11.8432
▁குருதியி	-11.8434
▁உனக்காகத்	-11.8437
▁சிவந்த	-11.8446
▁வாலி	-11.8455
▁dr	-11.8459
▁போவோம	-11.8465
▁செம்மை	-11.8475
த்துகிட்டு	-11.8475
திடும்	-11.8477
▁இடங்கள	-11.8479
▁வெண்ம	-11.8489
▁சிக்ஸ	-11.8491
▁தெளிக்கு	-11.8495
▁போவாள	-11.8501
porta	-11.8504
▁இலையி	-11.8516
்கின்றான்	-11.8524
▁தரையு	-11.8526
ுவமா	-11.8532
கேப்	-11.8532
da	-11.8544
▁கிங்கு	-11.8544
▁அரவ	-11.8561
▁மாலைய	-11.8567
▁எரிக்கிறா	-11.857
▁கேள்விய	-11.8571
▁வாழ்வதே	-11.8572
றுதே	-11.8576
▁கசங்க	-11.8579
hu	-11.8581
▁கிளம்பிட	-11.8582
▁சொல்வேன	-11.8588
▁அம்பா	-11.8596
▁காற்றோ	-11.8601
▁குரு	-11.8609
▁cat	-11.8618
காரி	-11.8618
▁நிகழ்த்தி	-11.8626
▁தண்ணீரில	-11.8628
ந்தோமே	-11.8634
▁அகலின	-11.8661
▁இறுகி	-11.8662
▁அசையா	-11.8664
▁பீலி	-11.8665
▁பச்சைய	-11.8676
ாற்றுவாய்	-11.8676
▁கலவி	-11.8678
▁மயக்கிடுவ	-11.8678
▁ஏமாத்து	-11.8686
கூ	-11.869
of	-11.8693
▁வெறுத்த	-11.8695
▁பையா	-11.8695
cu	-11.8697
▁மோது	-11.8698
▁துப்பு	-11.8699
த்தையும்	-11.8701
ந்தாளே	-11.8702
vala	-11.8709
ொட்டு	-11.871
டுத்து	-11.8711
த்தையோ	-11.8712
▁அடித்த	-11.8714
களே	-11.8718
▁பூமியி	-11.8722
▁என்பாய	-11.8739
பாதை	-11.8741
கொடி	-11.8741
▁கீற	-11.8746
்ரியா	-11.8747
ற்றிலே	-11.8748
னதடா	-11.8759
▁விழுந்தேன	-11.8759
▁Mar	-11.8768
▁உள்ளூர	-11.8768
ெட்ட	-11.8776
▁சிறுக	-11.8794
▁விழுந்திடு	-11.8796
▁கிடக்கு	-11.88
▁எந்திரம	-11.8802
ண்	-11.8804
▁ஒட்டக	-11.881
▁விதைகள	-11.8815
▁கூத்தா	-11.882
ீதி	-11.8822
▁நிலத்தில	-11.8824
▁பாட்டுக்க	-11.8827
▁வலைய	-11.883
வயது	-11.8833
▁நாளங்கள	-11.8844
ானாள்	-11.8845
லியும்	-11.8848
▁மூழ	-11.8849
▁சட்டத்த	-11.8855
▁முழுமையா	-11.8862
ரசி	-11.8868
ுவானுங்க	-11.8881
▁சிந்திட	-11.8883
▁கீத்த	-11.8889
▁இன்பம	-11.8889
னொரு	-11.8889
றந்துட	-11.8898
ண்ணெல்லாம்	-11.89
▁காட்டட்ட	-11.89
▁வன்ம	-11.89
▁லோக	-11.8904
ell	-11.8905
ுன்னை	-11.8907
▁வீழ்கின்றத	-11.8919
வடிவம்	-11.8919
ன்பே	-11.8921
▁எவன	-11.8923
▁தூரிகைய	-11.8925
மென	-11.8928
▁வல்ல	-11.8931
▁தண்ட	-11.8935
கல	-11.8944
▁பவித்ராவ	-11.8945
ப்பதில்ல	-11.8948
▁ஆடைகளை	-11.8957
ne	-11.896
▁இருவிழி	-11.8967
iv	-11.8968
▁மாட்டேன	-11.8968
▁செந்	-11.8968
ங்குது	-11.8969
▁தோண்டி	-11.897
ானவன	-11.8972
டப்போம்	-11.8978
▁முகமா	-11.8978
▁சொல்லறத	-11.8988
▁வரட்டு	-11.8991
துக்கி	-11.8998
▁போக்கி	-11.9003
▁பைக்க	-11.9006
▁ஜெயிச்ச	-11.9012
▁மறந்தாய	-11.9017
ும்போதோ	-11.9018
▁கவ	-11.9023
▁நேரம	-11.9024
▁மட்ட	-11.9024
ுங்கோ	-11.9034
லியே	-11.9036
▁துடிக்கு	-11.9037
▁விடைகொ	-11.9043
▁ஆம	-11.9046
▁பேய	-11.9048
▁wat	-11.9049
ரல்	-11.9049
atter	-11.9052
▁கழுத்து	-11.9061
▁முடிவது	-11.9064
▁பிரிஞ்ச	-11.9066
▁பறையோ	-11.9068
வானில்லை	-11.9073
குழல்	-11.9076
▁குயிலு	-11.9077
▁ஆகும	-11.9081
▁உயர்ந்த	-11.9083
ழல்	-11.9084
▁கிறுக்கல	-11.9092
டைபோட	-11.9095
லமாய்	-11.9104
கொள்வாய்	-11.9106
▁காட்டுல	-11.9108
▁ஆடட்டும	-11.9108
போத	-11.9109
▁இயக்கிட	-11.9112
க்கச்	-11.9114
▁வாழ்வேன	-11.9114
▁tr	-11.9116
ந்திர	-11.9118
ழைச்ச	-11.9121
▁போனோம	-11.9128
யில்லாமல்	-11.9128
▁குறும்ப	-11.9129
▁சடைய	-11.9129
▁சாப்பிடு	-11.9135
▁வீழ்கின்ற	-11.9136
▁உசிரைய	-11.9138
ிடத்தானே	-11.914
▁எடுப்பா	-11.9144
ஃபோனு	-11.9145
▁துடிப்பு	-11.9146
களாய்	-11.9153
▁தொண்ட	-11.9156
▁par	-11.9158
டைய	-11.9163
▁போற்றுவா	-11.9172
காண	-11.9172
▁பூமிக்கு	-11.9172
▁சுமை	-11.918
கமெல்லாம்	-11.9181
▁செவியி	-11.9182
டெறும்ப	-11.9185
்று	-11.919
▁அறிவி	-11.9192
▁குடிசையி	-11.9194
ஸ்தான	-11.9197
▁செய்தா	-11.9205
▁வாங்கிய	-11.9207
வ்வளவு	-11.9207
ோல்	-11.9209
ேய்	-11.9224
▁பொங்கிடு	-11.9225
டோ	-11.9225
▁எரிந்திடும	-11.9226
ாங்கு	-11.9227
▁சோலைய	-11.9233
ாரண	-11.9254
▁கிண்ணத்தை	-11.9255
▁அடிவானி	-11.9255
▁......	-11.9257
க்கென	-11.9263
▁வச்ச	-11.927
துக்கு	-11.9282
enoa	-11.9293
▁தூவிய	-11.9299
ஞ்சல்	-11.9311
ுஞ்சா	-11.9315
▁Cu	-11.9326
▁நிறையு	-11.9331
துவை	-11.9331
ந்திடுவான்	-11.9333
ியோட	-11.9334
▁நொடிய	-11.9334
▁தைரிய	-11.9338
▁நிலவின	-11.9339
▁வளத்தேன	-11.9345
▁நீங்காம	-11.9356
ற்றியே	-11.9362
▁இருக்கலாம	-11.9367
▁நாடோ	-11.9368
▁கொய்கிற	-11.9372
▁படித்து	-11.9379
மரமே	-11.9383
▁மறையா	-11.9385
▁பூகம்ப	-11.9387
▁சிறையில	-11.9391
▁அறு	-11.9393
▁இப்பூமி	-11.9397
தைப்	-11.9399
▁உரி	-11.9404
ரேன்	-11.9404
▁சரித	-11.9408
▁எழுதின	-11.9426
▁நெருப்பி	-11.9428
▁அணையா	-11.9442
வட்டும	-11.9442
றுவேன்	-11.945
லெட்ட	-11.9452
க்ஸ	-11.9456
விட்டுப்	-11.9472
▁தோற்றம	-11.9473
னுள்ளே	-11.9479
▁ஒட்டுமொத்த	-11.948
pp	-11.948
▁தொடங்கு	-11.948
▁கெஞ்ச	-11.9481
ுறீக	-11.9481
டாம்	-11.9482
▁இசைக்கு	-11.9484
மான்கள்	-11.9496
க்கியே	-11.9503
மகள்	-11.9504
▁கொடுப்பத	-11.9512
▁அவசரம	-11.9513
▁மாட்டாங்க	-11.9514
▁பவிய	-11.9514
▁வெளக்க	-11.9516
▁அடைப்ப	-11.9518
▁வராத	-11.9526
▁கேட்டாய	-11.9529
▁சொல்லற	-11.9548
தன	-11.9555
▁பூவி	-11.9556
▁கொடுத்திட்ட	-11.9558
▁வாங்கும்	-11.9561
▁தட்டு	-11.957
ிருந்தால்	-11.9584
்பது	-11.9585
ec	-11.9594
ுவாளே	-11.9601
▁கண்ணி	-11.9603
▁விரிந்தாய	-11.9604
வில	-11.9606
▁உனக்கில்ல	-11.961
▁கட்டளைய	-11.9613
▁முர	-11.9614
▁கூட்டிட	-11.9618
▁சொன்னதும	-11.962
க்குவான்	-11.9621
▁காணோம	-11.9631
▁விதைத்திடு	-11.9631
▁ஒண்ட	-11.9634
▁திரியா	-11.9636
▁சுற்று	-11.9636
ண்ட்ஸ்	-11.9643
▁மீதில	-11.9646
திய	-11.9647
▁ஆத்து	-11.9651
▁saa	-11.9654
▁வந்தோம	-11.9654
கோ	-11.9655
▁பேசுவ	-11.9656
▁ஒளித்	-11.9664
▁மீனாவி	-11.9678
▁தொழுத	-11.9686
▁பண்ணிக்குவ	-11.9688
கின்றோம்	-11.9689
மூவ	-11.9703
▁களைத்த	-11.9705
டையோ	-11.9709
▁வென்றா	-11.9714
ற்கா	-11.9717
ியாம்மா	-11.9727
▁தூக்கு	-11.9729
▁ஊர்ந்த	-11.9732
▁பேசலாம	-11.9736
க்கையில்	-11.9742
▁அடைக்க	-11.9745
த்ததுக்கே	-11.9748
▁கேஸ	-11.9753
▁சுருங்கு	-11.9754
▁fu	-11.9755
▁பூராவும	-11.9756
ுவிட்டாய்	-11.9757
ானமென	-11.9766
▁dra	-11.9774
▁பெண்ணுக்க	-11.9775
▁வானவில்லில	-11.9778
ண்ம	-11.9792
▁இடிய	-11.9794
▁அளக்கும	-11.9794
▁கங்கைய	-11.9801
▁சேர்வத	-11.9801
▁துப்புத்	-11.9805
▁தெரிஞ்சு	-11.9805
கிடும்	-11.9813
▁சொல்லுச்ச	-11.982
வையோ	-11.982
▁நனைந்திடும	-11.9824
▁காவிய	-11.9827
ொன்றாய்	-11.9834
▁குடும்பம	-11.9835
வொன்றை	-11.984
▁குனிந்த	-11.9845
▁அணிவி	-11.9847
▁கலகம	-11.9856
ச்சுக்கு	-11.9858
▁ஆக்கிப்	-11.9863
ழையோடு	-11.9864
திந்த	-11.9873
ash	-11.9874
▁உண்	-11.9878
▁காதல்கார	-11.9886
▁கொத்த	-11.9887
▁கூடே	-11.9892
▁தொடரும	-11.9895
▁உள்ளத்த	-11.99
மூட்டக்	-11.9901
மிஷன	-11.9903
▁இறக்கிட	-11.9904
▁ருசி	-11.9904
▁கரும	-11.9913
▁ஏக்க	-11.9916
▁எரித	-11.9921
ேனடீ	-11.9923
▁கிடைப்பத	-11.9927
▁கூட்டு	-11.9932
▁அலையில	-11.9933
▁தொழுவ	-11.9937
▁டெட	-11.9938
▁துட	-11.9956
மலே	-11.9962
▁ஸ்க	-11.9974
▁அடைந்து	-11.9975
▁தோல்வியு	-11.9985
த்துக்க	-11.9986
▁அடித்திட	-11.9988
▁இருட்டி	-11.9995
▁மயிலா	-12
▁இன்னி	-12.0007
▁வானொலிய	-12.0011
ார்ட்ட	-12.0016
ாப்பு	-12.0022
mone	-12.0027
▁கொட	-12.0029
▁பாட்டா	-12.0032
▁தாம்	-12.0039
▁தெய்வ	-12.0044
டித்திடும்	-12.0045
▁ஃப்	-12.0047
▁சர்	-12.0051
▁மானி	-12.0055
▁நனைத்த	-12.0059
▁லத்த	-12.0059
▁கவ்விக்	-12.007
▁நாவினில	-12.0071
டுமா	-12.0077
மூளும்	-12.0082
ியடிச்சு	-12.0083
▁பப்ப	-12.0084
▁நடக்கு	-12.0089
▁அடு	-12.0092
▁இசையா	-12.0093
▁நித	-12.0095
▁தீர்ந்து	-12.0095
▁பூக	-12.0101
ைத்திடும்	-12.0117
ின்ம	-12.0117
▁தோற்றி	-12.0121
▁மூவ	-12.0125
ைத்து	-12.0126
ுந்தன்	-12.0127
மீனாய்	-12.0141
▁கொட்டிய	-12.0147
னவோ	-12.0159
▁நெச	-12.0164
டப்பது	-12.017
▁திசைமா	-12.0171
▁காரிருள்	-12.0185
▁ப்ள	-12.0186
▁காமத்த	-12.0192
மைய	-12.0196
ுதா	-12.0211
▁உடல்கள	-12.0213
▁அளித்த	-12.0213
சத்தில்	-12.0214
▁பியா	-12.0216
▁பெண்ணு	-12.0217
▁பற்கள	-12.0219
ய்நிகரா	-12.0222
▁நம்பிக்கைய	-12.0235
ாவி	-12.0245
ச்சுட்டேன்	-12.0246
▁குரலு	-12.0252
▁ஏற்	-12.0252
▁என்னாவ	-12.0257
குறி	-12.0264
▁சேராத	-12.0264
ட்டியே	-12.0265
▁பெர	-12.0265
ாடை	-12.0274
▁வாசிச்ச	-12.0276
்கி	-12.0278
னையும்	-12.0282
▁பாத்தது	-12.0286
▁மார்பு	-12.0288
ாட்டர்	-12.029
▁கரையில்	-12.0305
க்கம்	-12.0307
டைத்திட	-12.0309
▁தூங்கிட	-12.0311
▁மறந்தேன	-12.0313
▁பறித்த	-12.0315
க்கிடும்	-12.0315
▁பிம்பத்த	-12.0319
▁மண்டைக்குள்	-12.0325
ிப்பேன்	-12.033
ிட்டதால	-12.033
▁சிதறு	-12.0343
▁செல்வேன	-12.0344
ாடினால்	-12.0344
றதுல	-12.0351
▁எவர	-12.0354
▁வடிவம	-12.0354
▁flyin	-12.0356
▁ஏற்றுக்கொண்ட	-12.0357
▁அறிமுக	-12.0359
▁பிடிக்குத	-12.0361
ணங்கிடும்	-12.0363
▁யாக	-12.0366
றிவுக்கும்	-12.0367
துல	-12.0368
இருவர	-12.0369
▁சப்த	-12.038
▁கரைந்தால	-12.0385
▁கேட்பது	-12.0388
▁ஏறிடு	-12.0392
▁உறவில்ல	-12.0395
▁பஸ்ஸி	-12.0403
▁மானக்க	-12.0406
ச்சுக்	-12.0418
▁உணர்வி	-12.0427
டினால்	-12.0429
லாம	-12.0433
▁குவித்தா	-12.0436
...)	-12.0437
▁பேராச	-12.0439
னிடம்	-12.044
▁தலைகீழா	-12.0441
லைந்து	-12.0453
▁சிரிப்பேன	-12.0454
▁தோச	-12.0459
▁எஸ்க	-12.0469
ிட்டிருக்க	-12.0472
mo	-12.0475
ரவால்	-12.0479
▁மறைஞ்ச	-12.0485
ase	-12.0488
▁பத்திரம	-12.0489
▁கருவி	-12.049
▁காலமில்ல	-12.049
▁பேருந்த	-12.0494
ந்தம்	-12.05
க்கொ	-12.0503
▁டேட்டா	-12.0505
தால	-12.0505
▁Mad	-12.0507
▁லாப	-12.051
▁இடையோ	-12.0511
▁மறைந்தே	-12.0518
வுண்ட	-12.0519
த்துக	-12.0522
கூட்டம்	-12.0524
னால	-12.0526
▁கோத்த	-12.0533
!!	-12.0535
▁பொசு	-12.0536
▁தன்னை	-12.0539
ளூறும்	-12.0544
▁வாசந்	-12.0545
▁பத்திக்கு	-12.0548
▁படர்ந்த	-12.0549
▁புரிந்திட	-12.0555
▁விரித்தே	-12.0565
▁அதிசய	-12.0573
▁வஞ்சிய	-12.0574
▁லீலை	-12.0574
▁விழிகளி	-12.0586
ெரிந்த	-12.0603
▁உயிர்கள	-12.0604
▁நிஜ	-12.0618
▁மினுக்க	-12.064
மிஷத்தில்	-12.0641
▁எழுதிட	-12.0646
▁ஆரம்பி	-12.065
லாட்டி	-12.0652
▁மொட்டா	-12.0654
ியென்றெண்ணாதே	-12.0654
கிலோ	-12.0655
ாட்சி	-12.0657
▁Mak	-12.0657
▁நடிகை	-12.0658
▁ஹார்ட்ட	-12.066
▁வேகத்தின	-12.0665
▁அருவியில	-12.0671
▁குழலா	-12.0673
ுதாம்	-12.0674
ank	-12.0676
ர்த்திடும்	-12.0677
▁திரும்பிய	-12.0679
▁பஞ்சா	-12.0681
▁எமக்க	-12.0687
மி	-12.069
▁கசக்குவ	-12.0691
he	-12.0691
ottle	-12.0693
▁சான்	-12.0694
ட்டாய்	-12.0699
ind	-12.0699
ென்றா	-12.0704
▁மற்று	-12.0706
சையெல்லாம்	-12.0711
ைக்கிறோம்	-12.0712
▁இணங்கி	-12.072
▁தப்புக்கு	-12.0722
டையென	-12.0722
▁மடியா	-12.0723
▁அழிந்தத	-12.0732
▁தாவிட	-12.0742
▁sc	-12.0748
ille	-12.0748
ளக்	-12.076
ிமேல	-12.0762
ந்திருக்கும்	-12.0764
▁துவ	-12.0765
ரன்டீ	-12.077
▁தெர	-12.0774
▁va	-12.0774
▁பெறும்	-12.0784
றியிலே	-12.0785
▁முத்துவ	-12.0789
▁சுருங்கிட	-12.0795
ளையும்	-12.08
▁மோகத்	-12.0831
ங்கிடும்	-12.0833
யாரு	-12.0834
▁gro	-12.0834
றது	-12.0834
ையைப்	-12.0835
▁சிரிப்பே	-12.0841
ண்ணீரிலா	-12.0843
ாட்டா	-12.085
▁மாட்டிடு	-12.0878
டைத்தது	-12.0879
▁pun	-12.0883
▁குப்பைய	-12.0885
▁சுடுக	-12.0886
▁துற	-12.0887
▁புதியத	-12.0893
▁மலர்களி	-12.0893
▁குடிக்கிற	-12.0896
▁நினைவுகளோ	-12.0899
கத்தினை	-12.0903
▁கொள்ளா	-12.0904
கலங்கிட்டு	-12.0907
கமும்	-12.0907
rap	-12.0912
க்குன்னு	-12.0924
▁கொத்து	-12.0926
டுவாய்	-12.0929
▁உயிரி	-12.0931
▁பொருந்த	-12.0932
▁கரைவ	-12.0933
▁தரைய	-12.0937
▁குழை	-12.0938
▁இதயந்	-12.0941
eekend	-12.0942
ஃப்ரா	-12.0943
▁பாய்கிறத	-12.0944
ையினில்	-12.0944
பத	-12.0945
▁விலகு	-12.0946
▁கட்டிக்கிட்ட	-12.0946
▁கிளைய	-12.0947
ொடிகள்	-12.0954
▁மாறிட்ட	-12.0957
ையென்றாகி	-12.096
▁அண்ணனுக்க	-12.0962
▁வெச்சது	-12.0965
▁மயக்கி	-12.0965
▁தந்துன	-12.0991
▁இறக்கு	-12.0998
▁சுடர்விட	-12.1003
வரு	-12.1004
கோர்த்துப்	-12.1007
டுகிறேன்	-12.1007
▁எங்கூர	-12.101
▁ஆட்டந்த	-12.1014
ற்றிடுதோ	-12.1024
▁பொறும	-12.1026
▁அடிய	-12.1027
nte	-12.103
▁முடித்த	-12.1031
மானி	-12.1049
▁பாத்துட்ட	-12.1055
ுன்ன	-12.1056
ண்ணன்கிட்ட	-12.1063
▁வருத	-12.1068
allet	-12.1071
ிழிந்தேன்	-12.1071
▁உடலெ	-12.1078
▁மாறுமட	-12.108
▁முதல்முறை	-12.1084
▁எண்ணை	-12.109
▁கோழ	-12.109
விட்டால்	-12.1094
ந்தோம்	-12.1095
ள்ளிய	-12.1107
▁தேனா	-12.1116
▁வாடகை	-12.1119
▁ஐஸ	-12.112
லக்	-12.1129
ிக்கிட்டா	-12.1134
கத்தில்	-12.1138
▁ஏதுமில்ல	-12.1142
▁மனுசன	-12.1143
▁தொறத்த	-12.1144
்போம்	-12.1152
▁la	-12.1154
ஞ்சாவ	-12.1154
ாலா	-12.1155
▁மாட்டிக்க	-12.117
▁ஆர்மோன	-12.1179
▁ஆவுற	-12.1179
ிறு	-12.1184
ாயங்கள்	-12.1189
▁அருந்தி	-12.1191
ப்போனா	-12.1197
▁பறைய	-12.1203
வதென்ன	-12.1205
்ன	-12.1206
▁வீசும	-12.1208
▁இறக்கிடு	-12.121
்தனை	-12.121
▁நீள்கிற	-12.1214
▁சாயு	-12.1221
யறிந்து	-12.1223
▁வாழுத	-12.1224
▁ஒருத்தனு	-12.1228
▁பாதையெ	-12.1232
▁உரைத்தா	-12.1236
▁பொத்த	-12.124
▁நட்பில்	-12.1242
▁tea	-12.125
▁சீட்டு	-12.1252
ருவா	-12.1253
▁இரவில	-12.1263
ுறவன்	-12.1269
▁இத்	-12.128
▁கெட்டவ	-12.1281
▁மாஸ	-12.1282
ரிடம்	-12.1295
▁கூத்தாட	-12.1296
சிந்து	-12.1298
சிடு	-12.131
▁கண்ணனோ	-12.1311
ish	-12.1315
▁ஆச்சுன்ன	-12.1316
ந்தான	-12.132
▁விண்மீன	-12.1321
▁கிடைக்கா	-12.1328
▁சத்திய	-12.133
ிச்சேன்	-12.1334
றுக்கும்	-12.1336
aka	-12.1339
▁விளை	-12.1344
▁வாழ்த்தும	-12.1358
▁விரித்து	-12.1361
▁நெகிழி	-12.1361
யூட்ட	-12.138
▁துடித்த	-12.1386
▁என்னென்	-12.1396
வள	-12.1415
▁செக்	-12.1417
▁மூட்டை	-12.142
ன்மத	-12.1426
▁இனிக்க	-12.143
ணிந்தேனே	-12.1431
▁மான்கள	-12.1432
ளுக்கொரு	-12.1433
திர	-12.1435
▁காண்போம	-12.1437
▁உடைச்ச	-12.1443
▁மற்ற	-12.1452
காயம்	-12.1453
▁அப்பாவு	-12.1454
ண்டித்	-12.1454
▁சிலர	-12.1459
▁இளக	-12.146
▁அடியில	-12.1465
ட்டினால்	-12.1468
▁பிறைய	-12.1476
▁கட்டின	-12.1478
ங்கண்ணா	-12.1481
▁கன்னத்த	-12.1484
▁கொள்வான	-12.1484
▁தூளா	-12.1485
▁தோன்றுவ	-12.1487
▁படித்த	-12.1492
▁குப்பைக்க	-12.1496
லீசு	-12.1501
▁br	-12.1501
▁விரலை	-12.1503
டையை	-12.1505
டிந்து	-12.1509
▁செய்யற	-12.1518
▁மோதிய	-12.152
▁சலாம	-12.1523
மானால்	-12.1526
▁திடுக்	-12.1544
▁மழையி	-12.1545
தையெல்லாம்	-12.1549
▁பதறி	-12.1551
ாவு	-12.1551
ro	-12.1553
▁கைமா	-12.1555
▁சிங்கம	-12.1561
த்திக்கும்	-12.1565
▁பழக்கி	-12.1572
▁நீந்தி	-12.1575
▁cal	-12.159
சைப்போம்	-12.1592
▁செய்திடு	-12.1596
▁அஸ்க	-12.1599
▁சரச	-12.16
▁ஓய	-12.1602
யான்	-12.1607
த்திடுவோம்	-12.161
▁பாய்கிற	-12.161
ைத்திருந்தேன்	-12.1614
▁அடுக்க	-12.1616
▁விழித்தே	-12.1624
▁பாத்துக	-12.1624
த்திடுவேன்	-12.1628
களைத்	-12.1632
▁ரோட	-12.1632
▁கொள்வா	-12.1636
▁நெளி	-12.1639
▁பாடிய	-12.1642
▁எழுந்த	-12.1647
▁விழித்த	-12.1652
▁கடலலை	-12.1653
த்திக்கோ	-12.1664
ழிவேன்	-12.167
▁உயிரா	-12.1671
▁எல்லாரு	-12.1675
▁கட்டிக்கொடு	-12.1678
▁செஞ்சா	-12.1683
ோடிப்	-12.1688
தாலா	-12.1691
▁பேசிக்கிற	-12.1692
ad	-12.1692
▁வளைக்க	-12.171
ிக்கவா	-12.1714
▁வெல்	-12.172
▁பிறந்திடு	-12.1722
▁அலைக	-12.1723
▁வளைக	-12.1724
ேரி	-12.1734
▁மீதிலு	-12.1734
▁நச்சு	-12.175
▁மோட்ட	-12.1753
▁புரிந்து	-12.1762
கிறான்	-12.1765
▁முறைக்க	-12.177
ுக்கொரு	-12.1771
▁வாசங்	-12.1776
▁மேய்	-12.1781
▁மனிதரி	-12.1782
ழுது	-12.1784
▁வெட	-12.1793
கன்	-12.1798
▁காற்றுக்கு	-12.1799
▁நரைத்த	-12.1804
▁உரையா	-12.1808
▁தேவதைகள	-12.1809
▁பூங்காற்ற	-12.1813
ற்றே	-12.1819
ணைந்தே	-12.182
▁வான்மே	-12.1823
▁முடியாம	-12.1826
மாலை	-12.1827
▁மாமர	-12.1828
ெல்	-12.183
துலக்க	-12.1831
தீக்கா	-12.1833
ம்பு	-12.1835
▁அடர்	-12.184
▁பொறவ	-12.1848
▁லூச	-12.1851
ருவ	-12.1861
▁விலையா	-12.1864
▁பேசாம	-12.187
க்கின்றேனே	-12.1875
ைக்கையிலே	-12.1877
▁நெரிசல	-12.1881
ig	-12.1886
▁பள்ளி	-12.1888
▁வாழ்வென்ற	-12.189
ையடி	-12.1891
▁வெய்	-12.1895
ஞ்சோம	-12.1897
▁பந்தம	-12.1904
▁நிப்ப	-12.1907
▁முள்ளு	-12.1908
▁அத்	-12.191
ிழிக்கின்றேன்	-12.1912
ுண்டு	-12.1916
ever	-12.1929
ச்சில்	-12.193
▁என்பா	-12.1935
▁விடியாத	-12.1946
▁கைதி	-12.1949
ாகாதே	-12.1953
▁மெத	-12.196
▁கிழம	-12.1967
▁நியூ	-12.1968
▁உயிரென்	-12.1978
▁அப்பனா	-12.1982
டர்வியூ	-12.1985
க்கவா	-12.1988
ுப்பா	-12.1988
▁எனதழகி	-12.199
▁விளிம்பி	-12.1992
▁வீரனா	-12.1993
▁மெல்லிடை	-12.2004
த்தீ	-12.2007
▁குளிப்ப	-12.2009
ர்மேன	-12.2018
▁காவலன	-12.2018
▁paa	-12.2022
▁முப்பத	-12.2026
▁ஆகுற	-12.2033
▁வரஞ்ச	-12.2041
னதும்	-12.2049
▁வைத்திட	-12.2069
▁வரவேண்ட	-12.207
▁மாத்திட	-12.2076
▁அச்சத்த	-12.2077
ita	-12.208
ுட்டேன்	-12.208
ாசனம	-12.2085
▁உடைத்தே	-12.2088
▁சோலை	-12.209
ரமர	-12.2091
▁கசப்ப	-12.2097
ாமத்தான்	-12.2101
▁காற்றின்றி	-12.2105
▁சேர்த்தே	-12.2105
ுலதான்	-12.2106
ிக்காதீங்க	-12.2107
மண	-12.2109
▁மோகன	-12.2109
▁பசியெ	-12.2109
▁இட்ட	-12.211
▁காதலில	-12.212
▁படைத்த	-12.213
▁மறந்துட	-12.2136
▁இடைவெளிய	-12.2137
னுமா	-12.2154
▁பயல	-12.2155
வதை	-12.2157
▁வேரா	-12.2159
ியிருக்கான்	-12.2177
▁முகத்தி	-12.2179
ுவோ	-12.218
லிங்	-12.218
லையும்	-12.218
▁நூலு	-12.2192
▁ஒத்துக்க	-12.2198
ிங்ஸ	-12.2202
▁நிக	-12.2207
▁பூவாகி	-12.2213
▁உணர்ந்தத	-12.2216
▁அண்ணனுங்களு	-12.2222
ியிருக்கு	-12.2223
▁தோட்டாவ	-12.223
▁பாய்ச்சு	-12.2235
த்துக்குறேன்	-12.2235
▁தீத்தா	-12.2235
▁ஏத்து	-12.2237
▁பண்பா	-12.2246
▁மெய்யி	-12.2249
▁தழ	-12.2252
▁உடனடி	-12.2252
▁ஆசையில்	-12.2254
்லா	-12.2257
▁கடைய	-12.2263
யிரம்	-12.2277
▁ஊட்டி	-12.2281
▁சீண்ட	-12.2288
▁வைத்திடு	-12.2302
சமும்	-12.2308
eal	-12.2309
ஸ்த	-12.2312
சிவப்பை	-12.2315
▁நாலா	-12.2316
டக்	-12.2317
சில்	-12.232
▁நனைக்க	-12.2326
▁வாள்	-12.2326
ப்பியா	-12.2326
டித்தாய்	-12.2327
▁சீவி	-12.2329
▁ஊமை	-12.2333
கொள்	-12.234
▁முடிவை	-12.2349
▁மறந்திடும	-12.2352
gi	-12.2357
▁மூண	-12.2357
்டா	-12.2357
ன்றேன்	-12.2359
▁விழுந்திட	-12.2366
▁என்னாக	-12.2366
▁அணைக்கு	-12.2366
▁தாகங்	-12.2368
யின்னா	-12.2372
ப்படை	-12.2374
▁மீட்டி	-12.2375
டச்சானா	-12.2385
▁உணர்ந்து	-12.2386
▁கூரா	-12.2387
ீனா	-12.2387
▁கூகு	-12.2395
ானிய	-12.2402
ொண்டு	-12.2405
▁பிணங்க	-12.2405
▁மூடிட	-12.2408
ற்கு	-12.2412
▁நான்கைந்த	-12.2414
பமாய்	-12.2415
▁தூச	-12.2419
▁அடிச்சிட்ட	-12.2422
▁ஒம	-12.243
▁படுப்ப	-12.2433
▁எரித்திடு	-12.2435
▁தோண	-12.2437
▁காத்திடு	-12.2438
ங்கையாய்	-12.2439
▁தண்ணீர	-12.2445
▁பாப்ப	-12.2449
▁நாவ	-12.245
ம்பரம்	-12.245
▁வீசுவா	-12.2452
ுகின்றான்	-12.2458
▁தொடங்கிடு	-12.246
ண்டோ	-12.2465
▁அடிச்சே	-12.2466
▁வெட்கத்	-12.2467
▁ஆர	-12.247
▁காதலிச்ச	-12.2473
▁உள்ளங்கை	-12.2475
▁தேனு	-12.2475
▁misse	-12.2476
ளிலே	-12.2485
ாய்கின்றாய்	-12.2485
ou	-12.2491
▁வந்திட்ட	-12.2492
ளாம்	-12.2492
▁வலியெ	-12.2496
▁நொடியோ	-12.2502
▁தண்ணிக்கு	-12.2502
▁தனிமைதான	-12.2505
ியாட்டம்	-12.2507
▁மிர	-12.2509
▁கணம	-12.2513
▁ரத்தம	-12.2517
▁அசைப்ப	-12.2517
▁கண்டேனட	-12.2522
▁.......	-12.2524
ன்கிட்ட	-12.2532
ந்திடுவாளே	-12.2538
▁கவர்	-12.2539
▁இரண்டா	-12.2539
▁கொள்ளுத	-12.2543
▁போகவில்லை	-12.2544
குழல	-12.2546
ட்டாவுன்னு	-12.2555
▁பலரி	-12.2555
தூரம்	-12.2561
▁மலையா	-12.2563
▁யாரெ	-12.2568
▁coc	-12.2572
▁வேகங்	-12.2574
ாழ்க்கையோ	-12.2576
▁நிரந்தர	-12.2577
▁aa	-12.2578
▁பொன்வ	-12.258
▁அமிழ்த	-12.2582
▁ஆடாம	-12.2596
▁போடற	-12.26
ெட்டி	-12.2602
ிகி	-12.2604
▁காத்தத்	-12.2605
ட்டோம்	-12.2608
▁தூண்	-12.2609
▁வீசாத	-12.261
ாண்டு	-12.2611
மைக்கும்	-12.2613
▁கவிஞ	-12.2616
ித்ததும்	-12.2617
▁war	-12.262
பாய்	-12.262
hjp	-12.2622
▁beatin	-12.2623
ித	-12.2623
ுடித்தேன்	-12.2634
▁முத்தத்தின	-12.2646
▁பூத்திட	-12.2649
▁க்யூ	-12.265
மணி	-12.2653
▁மலைகளி	-12.2654
▁கலவர	-12.2657
▁இழுக்கு	-12.2658
றப்பாயா	-12.2663
▁இனிமையில	-12.2664
▁பூப்பூ	-12.2672
னாலுமே	-12.2673
ுட்டா	-12.2675
▁புடவை	-12.268
ழுகின்றேன்	-12.2682
▁போராடி	-12.2685
ard	-12.2685
▁பிம்பத்	-12.2691
▁கூவு	-12.2694
▁திமி	-12.2698
▁கெடச்சா	-12.27
▁கனவுகள	-12.27
▁ப்ர	-12.2702
வைத்த	-12.2716
சக்காரன்	-12.2716
▁பாடல	-12.2718
டர்கிறதோ	-12.2719
▁எல்லையில்ல	-12.2723
▁பார்த்ததும	-12.2723
யனும்ன்னு	-12.2728
▁பசித்த	-12.2728
ட்டிக்கிட்டேன்	-12.2731
ானி	-12.2734
▁இங்	-12.2737
ெத்துப்	-12.2737
சும்	-12.2739
றவே	-12.274
ங்கப்பாகிட்ட	-12.2743
▁மறைந்திடு	-12.2743
▁தீட்டின	-12.2746
▁இடுப்ப	-12.2748
▁தங்கையா	-12.2751
▁நுழைந்தே	-12.2754
ிச்சவன்	-12.2757
▁இமைகளி	-12.2769
ளால	-12.277
சர	-12.2777
ல்லாமே	-12.2777
▁பசைய	-12.2781
தற்கு	-12.2786
ொய்ய	-12.2789
ந்தாச்சு	-12.2789
ணங்கள்	-12.2791
▁ரங்க	-12.2792
▁கவலப்பட	-12.2794
▁கூறி	-12.2802
▁தெய்வத்	-12.2803
▁பண்ணிட	-12.2816
ுவியா	-12.2819
தென்று	-12.2821
ூட்டமே	-12.2822
ண்டாட்டிகிட்ட	-12.2825
ீட்டுப்	-12.2828
தஞ்செய்ய	-12.2829
▁கடிச்ச	-12.2832
▁செவ்வ	-12.2836
▁சேத்தா	-12.2836
▁சிவக	-12.2838
▁வேட்டா	-12.2839
▁திரட்ட	-12.2843
▁உமை	-12.2845
▁கிறுக்கிடு	-12.2846
▁போகத்தான	-12.2848
ரதின	-12.2849
▁பிரிவு	-12.2851
ூலம்	-12.2854
▁ஜாதி	-12.2862
▁புகழை	-12.2863
▁பிரிந்தே	-12.2868
▁தொடுவ	-12.2872
காட்டவா	-12.2874
▁mar	-12.288
▁மாத	-12.2882
▁வெளிச்ச	-12.2885
புர	-12.2887
▁தோற்	-12.2889
lu	-12.2892
பாடு	-12.2892
▁முழுமை	-12.2893
▁கம்	-12.2897
பவன	-12.2899
▁முடிக்கா	-12.2902
▁தொடங்குகிற	-12.2902
▁இரண்டாக	-12.2906
▁வந்தத	-12.291
▁பருப்ப	-12.2912
▁விழியா	-12.2913
▁முட்டாள	-12.2917
▁தங்கை	-12.2924
▁வாளென	-12.2927
▁விரிக்கி	-12.2931
றவில்லை	-12.2931
▁தோசைக்	-12.2934
▁சிரித்தே	-12.2936
▁thermo	-12.2943
▁காய்	-12.2944
▁ஏட்ட	-12.295
வேனா	-12.295
ழிக்கும்	-12.2954
▁மீனை	-12.2957
▁மூன்ற	-12.2965
▁இனிக்குத	-12.2967
▁பெங்க	-12.297
ாடிக்	-12.2972
mos	-12.2981
்கோ	-12.2988
▁சத்தங்க	-12.2989
▁இருந்தத	-12.2998
ica	-12.2999
தாளம்	-12.3001
ைப்போல	-12.3001
▁தொலைய	-12.3002
▁கிறுக்குற	-12.3003
▁கீற்று	-12.3004
▁அடைபட	-12.3006
rri	-12.3008
▁மொழியோ	-12.3009
ினு	-12.301
▁விரட்ட	-12.3012
த்திப்	-12.3018
ிருச்சு	-12.3021
blin	-12.3021
▁தொறக்கு	-12.3035
வனை	-12.3037
▁பிழைகள	-12.3039
ெழு	-12.3045
▁இன்பமென	-12.3046
▁தும்பி	-12.3053
▁உதை	-12.3053
ௌ	-12.3056
ழம்	-12.3058
▁பொய்யு	-12.3064
▁பறந்தோ	-12.3065
▁பேரோ	-12.3068
ன்ஸ	-12.3071
ொல்லை	-12.308
த்தனையோ	-12.3082
ுட்டிக்	-12.3083
▁சிப்பா	-12.3087
ஒரு	-12.3088
▁தூங்கி	-12.3091
திர்	-12.3099
▁கூறினா	-12.31
த்தாள்	-12.3101
▁வெறும	-12.3105
▁வில்லன	-12.3109
▁வண்	-12.3115
ப்போக	-12.3116
ிம்பம்	-12.3118
omen	-12.3124
ுழைந்திட	-12.3126
ையி	-12.3132
▁ராண	-12.3133
bi	-12.3135
ப்பால	-12.3137
னைக்கு	-12.3137
▁போதல	-12.3139
vo	-12.314
ள்கின்றாய்	-12.3145
▁பொம்ம	-12.3146
ோவியம்	-12.3147
▁திரும்பு	-12.3149
▁அருந்த	-12.3151
ச்சொல்லி	-12.3152
ூலும்	-12.3159
▁கோலங்க	-12.3159
▁விழிகளோ	-12.3162
▁முலை	-12.3165
ழந்தேன்	-12.3168
ாமா	-12.3169
ொஞ்சம்	-12.3172
▁மறவா	-12.3175
▁ரோட்ட	-12.3179
ற்றிப்	-12.3179
▁வட	-12.3188
▁வானமெ	-12.3197
▁மனதுள்	-12.3206
ம்பாய்	-12.3212
▁தண்	-12.3213
▁திண்டாட	-12.3215
ரெ	-12.3216
ின்றேனே	-12.3224
ரிக்கும்	-12.3228
▁மிருக	-12.3236
ிரித்தாலே	-12.3238
றுத்திடும்	-12.3238
்தடம்	-12.3241
▁ஊச	-12.3242
ாங்களா	-12.3242
▁என்றென்	-12.3255
▁சிசு	-12.3257
▁உதவ	-12.3258
▁மகளி	-12.3259
▁புட்ட	-12.326
▁ஓரி	-12.3264
▁சொல்லித்த	-12.3265
மாட்ட	-12.3273
▁இம	-12.3273
▁வாயோட	-12.3273
வத்தை	-12.3278
▁ஆங்க	-12.3284
▁பொழியு	-12.3295
லவிரவ	-12.3296
்பா	-12.3297
சையிலே	-12.3299
▁தேகத்	-12.3302
ady	-12.3302
▁புடிச்ச	-12.3302
ுடா	-12.3302
▁உனைத	-12.3303
▁இளகி	-12.3303
▁ஒவ	-12.3305
▁பறவ	-12.3305
▁சுடரா	-12.3306
ருவாங்க	-12.3306
ொல்கின்றாய்	-12.3307
▁தண	-12.3309
▁வேண்ட	-12.3309
▁நோயில்	-12.3316
ியிருக்கேன்	-12.3317
▁திறம	-12.3322
ீதா	-12.3323
ன்றானோ	-12.3324
nadhi	-12.333
▁அமர்ந	-12.3337
▁பிடிக்கா	-12.3338
▁கோடிய	-12.334
மூடி	-12.3341
▁aw	-12.3342
▁அற்ப	-12.3343
ிகள்	-12.3349
▁உண்ம	-12.3353
பாயும்	-12.3359
நம	-12.3363
▁மகள	-12.3365
திரே	-12.3365
▁வேகமா	-12.3379
mu	-12.3385
ந்தரா	-12.3386
▁கொண்டேனட	-12.3393
▁தாக்கு	-12.3394
sc	-12.3403
▁கனவுக்கு	-12.3404
▁மலைக	-12.3404
▁இசையின	-12.3409
▁டிக்கெட்	-12.3411
▁nos	-12.3412
▁தீயேற	-12.3419
▁தொடுப்ப	-12.3421
tam	-12.3422
▁வெறுமை	-12.3422
▁உங்கண்ணன்	-12.3425
▁நிலையில்லா	-12.3425
▁கெளரவம	-12.3427
hi	-12.343
▁உடலுக்கு	-12.3431
anne	-12.3435
▁குஞ்ச	-12.3437
னியை	-12.3439
தைத்தால்	-12.344
▁நினைவோ	-12.3441
▁தேச்ச	-12.3443
▁வாய்பே	-12.3447
▁சீதைய	-12.3453
போகும்	-12.3459
▁பேங்க	-12.3465
ct	-12.3473
▁ஷாப்ப	-12.3474
mi	-12.3476
vee	-12.3478
▁துடிதுடி	-12.3486
டிச்சுக்	-12.3493
[...]
