<unk>	0
<s>	0
</s>	0
<pad>	0
xxfld	0
xxmaj	0
xxup	0
xxrep	0
xxwrep	0
_	-3.24998
▁Not	-3.98457
ffensive	-4.01143
o	-4.0264
a	-4.39407
▁	-4.61056
e	-4.81192
.	-5.05621
s	-5.11727
...	-5.22091
▁TA	-5.44992
▁O	-5.47376
..	-5.49486
Insult	-5.53605
i	-5.56027
TW	-5.63699
,	-5.66192
argeted	-5.66738
u	-5.72237
m	-5.76905
▁OFF	-5.8299
la	-5.90539
▁la	-5.90753
▁da	-5.93764
▁NOT	-5.95166
▁like	-5.95802
....	-5.99018
USER	-5.99631
ensive	-6.00172
T	-6.03983
▁@	-6.04579
n	-6.16581
▁#	-6.17216
▁ah	-6.1834
ed	-6.18364
y	-6.21933
Group	-6.27541
▁a	-6.28026
fensive	-6.30375
um	-6.32685
▁nu	-6.37092
▁படம்	-6.3996
▁mass	-6.43134
k	-6.46907
▁movie	-6.4815
▁ku	-6.49145
▁level	-6.49448
▁oru	-6.5058
▁trailer	-6.50703
rgeted	-6.52047
▁padam	-6.54581
na	-6.56437
்	-6.581
-	-6.58411
nu	-6.59652
r	-6.60129
ga	-6.60931
▁வாழ்த்துக்கள்	-6.63377
off	-6.64507
h	-6.64853
▁fans	-6.653
an	-6.65331
▁thala	-6.66137
ku	-6.66476
▁I	-6.68704
▁Off	-6.69091
d	-6.70974
▁Thala	-6.71169
2	-6.71333
▁not	-6.71363
Unt	-6.72111
▁na	-6.72481
ing	-6.74313
▁sir	-6.74706
ya	-6.76578
t	-6.76777
▁than	-6.77098
1	-6.77216
▁vera	-6.80692
TAG	-6.80903
▁va	-6.80924
▁punda	-6.81533
Tamil	-6.82283
of	-6.82768
da	-6.82828
▁சார்பாக	-6.8298
am	-6.8539
▁வெற்றி	-6.85596
l	-6.87929
▁iruku	-6.88031
4	-6.89603
.....	-6.89857
thu	-6.89912
8	-6.90087
en	-6.90169
▁pa	-6.94519
3	-6.94947
▁illa	-6.95659
I	-6.97154
▁Of	-6.97267
6	-6.97536
▁Vera	-6.97794
Target	-6.97917
'	-6.98056
▁super	-6.981
▁u	-6.9912
tha	-7.01263
▁23	-7.03943
Unta	-7.04103
0	-7.04896
▁and	-7.05853
nga	-7.06299
▁இந்த	-7.06449
ive	-7.07039
5	-7.08599
ம்	-7.0894
▁tha	-7.10854
▁2	-7.10977
▁:	-7.11562
7	-7.12683
▁i	-7.12987
ndividual	-7.13583
▁waiting	-7.13715
▁anna	-7.14108
ka	-7.14277
▁...	-7.14798
sive	-7.1518
?	-7.1571
▁in	-7.16241
▁s	-7.16534
▁enna	-7.16583
nsive	-7.16684
offe	-7.16769
offen	-7.16826
▁1	-7.16883
▁.	-7.18964
▁ya	-7.19383
▁is	-7.19503
9	-7.2004
▁பெற	-7.2011
▁nalla	-7.21018
▁,	-7.21056
▁to	-7.21475
▁Tam	-7.2184
HL	-7.2195
▁p	-7.2284
aa	-7.24369
In	-7.24387
ha	-7.24514
▁for	-7.25032
dividual	-7.25984
offens	-7.27029
▁fan	-7.27795
▁k	-7.30226
▁Anna	-7.30486
ra	-7.32318
▁RT	-7.3275
ma	-7.34013
▁irukku	-7.34653
al	-7.36757
▁A	-7.37718
▁semma	-7.38033
▁likes	-7.3844
▁hit	-7.40361
ும்	-7.41351
▁nee	-7.41516
▁intha	-7.4166
▁panna	-7.41673
▁Vijay	-7.42574
▁love	-7.44065
▁the	-7.44679
Ta	-7.45058
▁..	-7.45392
▁v	-7.4665
▁e	-7.46904
lam	-7.48614
ai	-7.49228
▁m	-7.49778
ar	-7.50308
▁pola	-7.5082
▁unaku	-7.50998
▁po	-7.51006
▁ஒரு	-7.51627
▁Surya	-7.51846
▁romba	-7.53665
es	-7.53904
▁ma	-7.54375
▁t	-7.5524
▁Trailer	-7.5547
le	-7.5557
!	-7.55761
g	-7.55822
▁ka	-7.55992
▁you	-7.5632
kku	-7.58726
▁vijay	-7.59377
▁தான்	-7.59732
▁en	-7.60209
iya	-7.60613
ru	-7.60929
in	-7.61157
▁thaan	-7.62942
▁am	-7.63035
▁bro	-7.63263
▁ne	-7.64005
er	-7.65601
▁views	-7.68202
v	-7.6876
▁but	-7.70152
▁panni	-7.70247
▁un	-7.70883
▁teaser	-7.70941
▁sema	-7.71787
than	-7.72189
▁poi	-7.7275
▁சாதி	-7.7308
▁mattum	-7.73097
p	-7.73808
▁unga	-7.74764
ு	-7.76155
▁so	-7.76435
ை	-7.76497
......	-7.76598
dhu	-7.76958
)	-7.77112
inga	-7.77268
▁3	-7.77272
du	-7.77498
ey	-7.77627
f	-7.77953
▁surya	-7.78505
il	-7.79771
▁n	-7.80116
ta	-7.80274
ve	-7.81749
▁dhan	-7.81757
▁S	-7.81849
ye	-7.83943
▁Enna	-7.85154
"	-7.8532
▁marana	-7.85741
▁Padam	-7.85919
▁it	-7.86526
▁podunga	-7.87146
▁....	-7.87466
▁vara	-7.88053
tu	-7.88562
▁bgm	-7.89398
va	-7.89547
▁b	-7.89945
▁Super	-7.90337
▁ellam	-7.90622
▁ithu	-7.91027
di	-7.9113
▁d	-7.9123
ne	-7.91673
ana	-7.9168
▁release	-7.93129
▁mela	-7.9335
▁enga	-7.9353
▁film	-7.94019
c	-7.9411
▁-	-7.94205
▁here	-7.95023
b	-7.9571
▁10	-7.96353
▁N	-7.96397
▁indha	-7.9758
ின்	-7.97785
▁dialogue	-7.98174
▁Mass	-7.98619
▁(	-7.98822
▁pakka	-7.9921
▁of	-7.99435
▁loosu	-7.99591
ே	-7.99623
Other	-7.99811
pa	-7.9984
▁maari	-7.99948
▁aa	-7.99967
▁from	-8.00006
▁thevidiya	-8.00227
▁me	-8.00499
▁ha	-8.00879
▁music	-8.00997
▁mari	-8.01284
om	-8.01602
▁iruka	-8.0177
w	-8.01923
▁ஜாதி	-8.02078
▁ena	-8.02901
▁kuda	-8.03047
▁NGK	-8.03064
▁mathiri	-8.0366
▁irukum	-8.03807
anga	-8.0385
yum	-8.04788
▁P	-8.05189
▁இது	-8.05482
▁r	-8.06027
M	-8.06067
▁Intha	-8.064
▁neraya	-8.0642
▁koothi	-8.07158
▁star	-8.0785
te	-8.08232
▁se	-8.08243
▁4	-8.08644
▁Dei	-8.09279
▁neenga	-8.09368
▁o	-8.09564
▁yen	-8.09592
ah	-8.10151
▁ajith	-8.10315
ala	-8.1077
▁all	-8.10886
▁thalaiva	-8.12609
▁ye	-8.13019
▁Oru	-8.13285
▁pannunga	-8.1474
uku	-8.14776
▁"	-8.14812
▁Rajini	-8.15425
th	-8.16015
z	-8.16078
on	-8.16492
▁&	-8.16653
▁my	-8.17005
▁oda	-8.17054
▁h	-8.18135
▁ve	-8.18204
▁tamil	-8.18263
▁th	-8.18779
aga	-8.19163
▁M	-8.192
▁5	-8.19404
gal	-8.20032
▁antha	-8.2028
▁c	-8.20402
kum	-8.20408
aaa	-8.20557
▁sa	-8.2086
▁Semma	-8.21344
▁paarunga	-8.21479
▁Suriya	-8.21946
▁y	-8.22233
▁l	-8.22505
ly	-8.22629
▁eppadi	-8.22945
▁avan	-8.2364
▁no	-8.23717
▁time	-8.23793
▁Like	-8.23867
ன்	-8.24397
K	-8.24695
▁Ajith	-8.25047
unga	-8.25106
athu	-8.25179
▁lam	-8.25494
▁வாழ்த்துகள்	-8.25669
ா	-8.26099
oda	-8.26544
chi	-8.27016
▁vanthu	-8.27179
▁be	-8.2765
▁scene	-8.27971
▁dislike	-8.27996
கள்	-8.28004
aru	-8.28216
ukku	-8.28246
▁rajini	-8.28276
▁g	-8.28314
▁thalaivar	-8.28492
▁kooda	-8.28553
▁pathi	-8.28646
st	-8.28794
dha	-8.29687
▁Marana	-8.30129
▁video	-8.3057
▁wait	-8.31061
▁K	-8.31424
▁U	-8.31518
:	-8.31535
chu	-8.31745
▁on	-8.32043
▁திரௌபதி	-8.32065
j	-8.32354
▁காதல்	-8.32505
▁comment	-8.32596
▁vaa	-8.32763
▁athu	-8.32825
ri	-8.32909
▁best	-8.33145
▁"@	-8.3323
▁poda	-8.33284
க்கு	-8.33747
▁Dai	-8.33911
ni	-8.34512
▁ke	-8.35169
▁suriya	-8.35208
▁ko	-8.35224
hu	-8.35331
▁pan	-8.35346
▁T	-8.36338
ama	-8.36398
▁vida	-8.36608
▁நாடக	-8.36739
▁iruntha	-8.36787
num	-8.37211
q	-8.3725
▁this	-8.3726
hi	-8.37476
▁sonna	-8.37913
▁ila	-8.38372
▁varum	-8.38605
து	-8.40041
re	-8.40782
ng	-8.41428
ge	-8.41665
▁Thalaivar	-8.41671
▁idhu	-8.4199
▁dha	-8.4221
▁Ku	-8.42851
▁hai	-8.43298
▁என்று	-8.43521
ke	-8.43628
ee	-8.439
▁100	-8.43988
▁per	-8.44242
li	-8.44267
▁pundai	-8.443
▁veetla	-8.44724
▁Na	-8.44897
▁BGM	-8.45564
▁amma	-8.45758
▁innum	-8.46253
▁thalapathy	-8.46348
▁Tamil	-8.46525
▁இருக்கு	-8.46817
ல	-8.4708
▁ni	-8.47244
gala	-8.4733
ti	-8.47431
▁ipdi	-8.47599
▁வேண்டும்	-8.48059
க	-8.48937
ers	-8.49118
lla	-8.49177
▁potta	-8.49328
▁f	-8.49382
▁vetri	-8.49506
▁நான்	-8.50033
thi	-8.50314
▁pera	-8.50463
▁Indha	-8.50888
▁?	-8.50922
▁one	-8.51033
ில்	-8.5183
▁w	-8.51943
▁aana	-8.51948
▁Thalapathy	-8.52011
▁B	-8.52444
▁Nee	-8.52538
!!	-8.52979
▁hero	-8.53194
▁Da	-8.53242
x	-8.53519
▁solla	-8.53522
னு	-8.54321
▁atha	-8.54615
▁support	-8.54992
10	-8.55223
▁Romba	-8.55284
▁pottu	-8.55385
▁ra	-8.555
▁V	-8.55522
▁E	-8.55538
▁solli	-8.55877
the	-8.55919
atha	-8.55935
▁naa	-8.56435
▁ki	-8.56549
▁என்ன	-8.56646
▁an	-8.5668
▁namma	-8.56838
▁Sema	-8.5707
▁வன்னியர்	-8.57109
▁j	-8.57984
▁irukkum	-8.5842
▁Movie	-8.58469
▁song	-8.58614
▁Ada	-8.58892
▁back	-8.59357
▁periya	-8.594
▁style	-8.5977
▁epdi	-8.59852
ki	-8.59896
▁pathu	-8.59991
▁konjam	-8.60156
▁அண்ணா	-8.60168
.......	-8.6034
▁.....	-8.60637
▁man	-8.61088
▁nan	-8.6175
ada	-8.6186
▁ella	-8.61923
▁Sir	-8.62429
ல்	-8.62574
▁irukka	-8.6259
▁um	-8.62777
is	-8.62967
▁Nalla	-8.63293
▁are	-8.63481
rs	-8.63846
▁C	-8.63891
▁7	-8.63899
▁look	-8.64068
▁Waiting	-8.64281
me	-8.64604
▁வெற்றியடைய	-8.65083
▁pana	-8.65097
▁மட்டும்	-8.65146
se	-8.65318
▁Thalaiva	-8.65403
van	-8.65479
▁pe	-8.65957
▁இருக்கும்	-8.65974
▁மக்கள்	-8.66022
▁6	-8.66152
as	-8.66279
de	-8.66301
▁திரைப்படம்	-8.66416
▁acting	-8.66598
▁vantha	-8.66997
▁ta	-8.67039
si	-8.67221
ns	-8.67259
▁potu	-8.67433
▁padatha	-8.67882
▁En	-8.67981
▁THALA	-8.68001
ுக்கு	-8.68044
kal	-8.68158
▁படத்தை	-8.68186
▁மோகன்	-8.68643
தான்	-8.68844
▁Fans	-8.68945
ur	-8.69093
▁enaku	-8.69301
▁podu	-8.69559
▁inga	-8.69605
▁மாதிரி	-8.69777
▁Ithu	-8.70027
▁But	-8.7014
▁pannu	-8.70156
▁தமிழ்	-8.70908
lo	-8.71053
▁re	-8.71419
nnu	-8.71521
▁he	-8.72084
▁manasu	-8.72192
▁naan	-8.7229
▁pani	-8.72387
▁அடைய	-8.72397
▁Love	-8.72425
▁அனைத்து	-8.72615
▁first	-8.72871
geted	-8.73398
▁le	-8.73427
▁மாவட்டம்	-8.73448
▁di	-8.74354
Tar	-8.74487
▁kitta	-8.74541
ாக	-8.74698
▁pothu	-8.74708
▁சமுதாயம்	-8.74827
▁cinema	-8.75272
▁ad	-8.75547
▁eh	-8.7556
▁Unaku	-8.7562
▁yaru	-8.75739
▁veri	-8.75826
▁Hit	-8.7591
▁patha	-8.75946
kka	-8.76128
▁Ena	-8.76569
▁தல	-8.76574
▁ba	-8.76765
!!!	-8.76771
▁andha	-8.7682
▁naal	-8.76873
▁96	-8.76929
ttu	-8.77031
▁Unga	-8.77054
▁ok	-8.77728
▁matum	-8.77752
▁அருமை	-8.78183
▁D	-8.78218
ji	-8.78355
▁panra	-8.78514
▁as	-8.78767
▁vi	-8.78918
▁20	-8.79029
▁eduthu	-8.79262
▁masss	-8.79342
lu	-8.79469
▁kola	-8.79713
▁mokka	-8.79973
ay	-8.80073
▁என்	-8.80238
▁Yuvan	-8.80317
uthu	-8.80645
lum	-8.80691
ara	-8.80794
▁su	-8.80795
▁+	-8.80974
▁ana	-8.81258
ram	-8.8141
▁Teaser	-8.81512
el	-8.81672
??	-8.81777
or	-8.82002
▁or	-8.82046
▁ippo	-8.82109
▁story	-8.82142
▁அந்த	-8.82185
▁petta	-8.82402
▁sollu	-8.82569
▁entha	-8.82607
▁irunthu	-8.82739
▁nala	-8.82887
▁big	-8.83279
▁eruku	-8.83546
▁8	-8.83547
▁R	-8.83944
▁last	-8.84037
▁டா	-8.8444
▁iru	-8.84567
▁ava	-8.85505
▁uh	-8.85526
▁viswasam	-8.8556
▁pora	-8.85656
▁par	-8.85671
▁jathi	-8.85829
aaaa	-8.86063
▁by	-8.86459
▁just	-8.87266
▁!	-8.87271
adhu	-8.87411
▁போல	-8.87476
▁இல்லை	-8.87586
▁use	-8.87625
aya	-8.88222
▁unna	-8.88349
▁summa	-8.88511
▁adi	-8.88985
▁de	-8.89237
aaaaaaaaaaaaaaaa	-8.894
▁Hindi	-8.89623
thaan	-8.898
vanga	-8.89961
▁sol	-8.9016
▁good	-8.90278
▁vachi	-8.90311
anum	-8.90362
▁mudiyathu	-8.90723
▁jaathi	-8.91088
thala	-8.91239
▁we	-8.91384
▁All	-8.91399
▁Bro	-8.91501
▁trending	-8.91635
▁at	-8.91697
▁short	-8.91834
iye	-8.91976
▁எங்க	-8.9235
▁Naan	-8.92409
▁Petta	-8.92646
ch	-8.93037
▁name	-8.93309
▁varuthu	-8.93408
nd	-8.93623
ringa	-8.93931
▁ipo	-8.93957
▁paru	-8.93971
▁very	-8.9403
cha	-8.94179
▁up	-8.94205
▁kids	-8.94239
(	-8.94382
oo	-8.94868
▁paaka	-8.94915
▁copy	-8.94999
iyum	-8.9521
▁9	-8.95316
▁adhu	-8.95508
▁Enga	-8.95549
▁நல்ல	-8.95639
▁dei	-8.95655
▁tweet	-8.95681
▁million	-8.95766
▁full	-8.95808
S	-8.95928
man	-8.9604
▁id	-8.96083
▁itha	-8.96148
▁மாபெரும்	-8.9623
illa	-8.96305
???	-8.96624
▁vandhu	-8.96787
▁ur	-8.96808
மற்றும்	-8.96835
to	-8.97057
dhan	-8.97341
டா	-8.97409
he	-8.97534
▁Ella	-8.97636
ila	-8.97765
▁பார்க்க	-8.98093
▁dhaan	-8.98242
anu	-8.9842
▁Un	-8.98599
▁vela	-8.98851
▁irundha	-8.98881
oooooooooooooooo	-8.9908
▁looks	-8.99263
▁sari	-8.99282
▁makkal	-8.9956
▁daa	-8.99716
vum	-8.99802
▁F	-8.99867
▁avanga	-8.9991
▁ravi	-9.00221
nna	-9.00268
▁theri	-9.00429
▁asinga	-9.00515
▁caste	-9.01055
▁paaru	-9.013
▁over	-9.01402
▁G	-9.01654
ன	-9.02357
at	-9.02391
▁Namma	-9.02476
▁vj	-9.02485
▁pann	-9.02826
▁Va	-9.02853
▁Bigil	-9.03173
▁mavane	-9.03395
▁அது	-9.03422
▁pad	-9.03422
ran	-9.03634
▁comedy	-9.03725
it	-9.03747
Indi	-9.03765
▁ivlo	-9.03921
▁illama	-9.0401
pu	-9.04088
▁day	-9.0409
▁feel	-9.04187
A	-9.04215
யும்	-9.04287
▁evlo	-9.04375
▁Avan	-9.04537
Ind	-9.04575
▁எல்லாம்	-9.04616
▁ungala	-9.04646
▁after	-9.05042
▁Last	-9.05194
▁onnu	-9.05329
vi	-9.05393
▁mo	-9.05416
▁ch	-9.05432
vidual	-9.05535
▁குல	-9.05955
▁tag	-9.05992
▁see	-9.06208
▁padathula	-9.06486
▁Dislike	-9.06556
▁director	-9.06728
▁varala	-9.06817
▁vachu	-9.06884
▁peru	-9.06974
alum	-9.07131
▁Mari	-9.07272
▁mu	-9.0734
ividual	-9.07376
▁will	-9.07426
ry	-9.07457
ngala	-9.07904
▁ir	-9.07906
▁STR	-9.07947
▁police	-9.08019
▁நீ	-9.08099
uu	-9.08116
ppa	-9.08375
▁Bgm	-9.08436
▁next	-9.0844
kala	-9.08457
▁kulla	-9.0862
▁kat	-9.08723
▁king	-9.08925
▁sethupathi	-9.09217
▁நன்றி	-9.09224
▁90	-9.09245
........	-9.09353
▁solra	-9.09641
▁ketta	-9.09781
ர்	-9.09789
▁venum	-9.09972
▁part	-9.09991
ce	-9.10064
▁apdi	-9.10146
▁kena	-9.10836
un	-9.10899
▁அ	-9.11079
▁porom	-9.11111
alam	-9.11227
▁mar	-9.11236
adi	-9.11351
rathu	-9.11411
▁பெண்	-9.11479
ir	-9.11564
nda	-9.11605
ii	-9.11844
▁yuvan	-9.11882
and	-9.11936
▁Vara	-9.12072
▁!!	-9.12144
▁semaya	-9.12298
▁500	-9.12448
▁remake	-9.12514
nam	-9.12545
▁இல்ல	-9.12593
▁leval	-9.1272
▁sollunga	-9.1273
▁No	-9.12906
▁yaaru	-9.12984
▁al	-9.13336
▁always	-9.13341
ங்க	-9.13415
▁ethu	-9.13474
▁ippadi	-9.13549
▁hi	-9.13567
▁var	-9.13606
▁paka	-9.1361
▁Vikram	-9.13631
▁Idhu	-9.13732
▁pat	-9.13798
▁irruku	-9.13947
▁சொல்லி	-9.14689
ad	-9.14726
▁flop	-9.14859
mmmmmmmmmmmmmmmm	-9.14937
▁appo	-9.14996
et	-9.15023
▁ellarum	-9.15102
▁wow	-9.15226
▁dai	-9.1534
uuu	-9.15391
ll	-9.15665
enga	-9.15776
▁ponga	-9.15873
▁pu	-9.15941
sa	-9.15975
▁that	-9.15997
▁Dhanush	-9.16023
▁kerala	-9.16035
▁comments	-9.16038
▁str	-9.16201
▁pona	-9.16269
im	-9.16282
▁ja	-9.16309
ithu	-9.16379
▁Ne	-9.16583
▁எந்த	-9.16637
+	-9.16752
▁adha	-9.16871
▁avar	-9.17298
ts	-9.17322
gu	-9.17323
▁thana	-9.17328
100	-9.17331
▁appa	-9.17546
kkum	-9.17906
thula	-9.18249
▁oombu	-9.18278
ellam	-9.18388
▁கொங்கு	-9.18474
▁ulla	-9.18507
▁real	-9.18593
▁voice	-9.18991
ea	-9.19098
▁kar	-9.19264
▁maathiri	-9.19267
ae	-9.19301
▁Antha	-9.1935
▁pandra	-9.19369
▁kandipa	-9.19373
▁lo	-9.19386
iii	-9.19519
▁go	-9.19536
▁Tha	-9.197
▁Inga	-9.19759
▁kita	-9.19891
▁with	-9.19979
▁work	-9.20303
ted	-9.20404
▁பல	-9.20405
▁nanga	-9.20804
▁do	-9.2085
▁only	-9.20962
▁Punda	-9.21076
▁si	-9.21274
▁madhiri	-9.21324
ies	-9.21344
▁Pa	-9.21418
▁days	-9.21489
ula	-9.21886
▁vanga	-9.22227
▁pesa	-9.22364
▁mudiyala	-9.22472
sh	-9.2248
▁vere	-9.22548
▁L	-9.22569
ranga	-9.22741
▁pannitu	-9.22796
▁சார்பில்	-9.22828
▁awesome	-9.2292
▁paatha	-9.22999
▁rendu	-9.23277
▁mat	-9.23416
▁varanum	-9.23591
▁blockbuster	-9.23728
▁30	-9.2444
▁paathu	-9.2452
▁12	-9.24529
▁theriyum	-9.24539
▁கவுண்டர்	-9.24674
ால்	-9.24712
▁ho	-9.24777
▁pongal	-9.24947
▁=	-9.2497
▁நீங்க	-9.2497
▁Ravi	-9.25145
▁irukan	-9.25189
▁poola	-9.25499
us	-9.25962
ss	-9.26149
▁gethu	-9.26234
▁life	-9.26369
▁arasiyal	-9.26783
▁pathutu	-9.26938
hal	-9.27024
▁Ennada	-9.27062
▁vittu	-9.27251
▁சமூகம்	-9.27446
▁Telugu	-9.27473
P	-9.27535
▁pota	-9.2763
▁ga	-9.27755
yo	-9.2786
▁11	-9.27955
▁LA	-9.28057
▁paya	-9.28095
▁kaga	-9.281
▁Thevidiya	-9.28165
▁எல்லா	-9.28201
15	-9.28219
▁Shankar	-9.28239
▁thu	-9.28296
▁great	-9.2857
nt	-9.286
ி	-9.28688
▁paiyan	-9.28729
▁ivan	-9.28942
▁வரும்	-9.28944
▁raja	-9.28965
▁kan	-9.28993
▁Loosu	-9.28997
▁vikram	-9.29057
▁vandha	-9.29096
ோ	-9.29113
ting	-9.2919
po	-9.29222
▁Th	-9.29536
▁எங்கள்	-9.29812
▁paa	-9.30079
▁apo	-9.30155
▁yenna	-9.30268
ba	-9.30495
▁pasangala	-9.30527
▁மேல	-9.30527
▁ji	-9.30651
க்கும்	-9.30896
rum	-9.30926
▁bigil	-9.30954
▁pasanga	-9.3104
▁singam	-9.31355
▁can	-9.31374
▁15	-9.31473
adu	-9.31705
▁சொல்ல	-9.31769
▁இப்படி	-9.31828
▁combo	-9.32133
▁வேற	-9.32166
ையும்	-9.32319
13	-9.3256
▁cha	-9.32732
▁parunga	-9.32786
su	-9.3293
▁சமுதாய	-9.32994
eee	-9.33107
var	-9.33177
tta	-9.33296
▁van	-9.33385
▁wa	-9.33452
laam	-9.3358
▁கூட	-9.33761
▁Neenga	-9.33859
▁SURIYA	-9.33863
▁ponnu	-9.33998
▁namba	-9.34085
▁ungaluku	-9.3434
▁movies	-9.34415
▁உங்க	-9.34456
▁வேளாளர்	-9.3457
▁Mela	-9.34584
▁onnum	-9.3492
tion	-9.34945
ty	-9.35038
▁av	-9.35101
▁x	-9.35104
▁ar	-9.35131
em	-9.35375
▁First	-9.35382
▁set	-9.35434
▁மாஸ்	-9.35541
▁z	-9.35704
▁திரெளபதி	-9.35869
வே	-9.3625
▁வெற்றிபெற	-9.36333
▁co	-9.36402
vu	-9.36539
est	-9.36588
▁போன்ற	-9.3663
ani	-9.3672
▁ahh	-9.3679
ja	-9.36864
▁telugu	-9.36955
▁irukanum	-9.36981
▁much	-9.3706
▁more	-9.37492
▁My	-9.37563
▁......	-9.37571
ren	-9.37831
▁ல	-9.37847
▁val	-9.37932
▁lvl	-9.37988
but	-9.38018
▁Hollywood	-9.38071
▁Illa	-9.38118
han	-9.38133
oru	-9.38204
▁idha	-9.38296
▁panunga	-9.38368
▁poga	-9.3843
▁again	-9.38512
▁H	-9.38634
▁dhanush	-9.38639
▁Thalaivaa	-9.38871
▁வெறி	-9.38934
▁katta	-9.38946
▁your	-9.38959
▁Fan	-9.38963
▁keka	-9.3921
▁thayoli	-9.39271
gi	-9.39324
▁ponna	-9.3949
▁happy	-9.39555
▁ப	-9.39606
▁verithanam	-9.39646
▁padama	-9.39728
▁vai	-9.39765
▁Kola	-9.39867
▁சூர்யா	-9.39888
ari	-9.39915
▁Nan	-9.40212
▁post	-9.40213
▁pod	-9.40573
iga	-9.40607
▁Oruthar	-9.4063
▁seri	-9.40704
laye	-9.40753
ன்னு	-9.40847
▁family	-9.40854
▁kumar	-9.41399
▁Kumar	-9.41444
ko	-9.41448
▁team	-9.41567
▁Ellam	-9.41787
▁hindi	-9.41792
▁yar	-9.41813
▁Pakka	-9.41816
14	-9.41872
▁irundhu	-9.41917
▁siva	-9.41955
▁times	-9.41982
▁இயக்குனர்	-9.42001
▁ore	-9.42003
▁kondu	-9.42283
iku	-9.42367
,,	-9.4249
▁Viswasam	-9.4258
▁சமூக	-9.42581
▁sarbaga	-9.42584
os	-9.42609
▁iruken	-9.43074
ika	-9.43173
ooo	-9.43224
kanum	-9.43315
▁அரசியல்	-9.4346
ro	-9.43521
▁Wow	-9.4362
▁நல்லா	-9.43646
▁Otha	-9.4378
▁2.0	-9.43866
yam	-9.43973
▁mudi	-9.44044
▁24	-9.44062
யே	-9.44086
▁pada	-9.44152
ndi	-9.44203
▁Ma	-9.44246
tan	-9.44262
▁apram	-9.44337
▁thappu	-9.44429
▁pannuga	-9.4472
dan	-9.44736
do	-9.44755
▁dislikes	-9.45048
▁ada	-9.45405
ion	-9.45417
D	-9.45417
▁veriyan	-9.45418
▁ithula	-9.45589
itu	-9.45634
▁You	-9.45688
pro	-9.45712
▁Look	-9.4579
tamil	-9.45821
▁நம்	-9.45845
bro	-9.46119
▁Level	-9.46194
▁ஆனால்	-9.46397
▁மாவட்ட	-9.46533
▁Yen	-9.46712
▁இங்க	-9.46735
▁நாடார்	-9.46885
▁தேவர்	-9.46908
ium	-9.46931
▁The	-9.46958
▁Rajni	-9.47074
ley	-9.47095
▁thalaivaa	-9.47227
▁pls	-9.47259
20	-9.47483
▁annan	-9.475
30	-9.47519
▁ethana	-9.476
▁Athu	-9.47768
▁aalu	-9.47832
▁jai	-9.48131
▁Jayam	-9.48174
▁make	-9.48236
ham	-9.4841
▁Panna	-9.48448
▁podra	-9.48565
Un	-9.48759
▁50	-9.48869
▁thaa	-9.4888
▁veliya	-9.48938
▁It	-9.4896
▁soll	-9.49228
adha	-9.49274
▁nenga	-9.4936
rom	-9.49393
avum	-9.49454
▁உள்ள	-9.49482
▁yaar	-9.49567
▁para	-9.49574
12	-9.49824
▁vechi	-9.49843
அனைவரும்	-9.49847
▁actor	-9.49899
▁varuma	-9.49967
thuku	-9.50355
▁review	-9.50486
N	-9.50537
super	-9.50587
▁!!!	-9.50632
▁கண்டிப்பா	-9.50706
▁Y	-9.50905
no	-9.50913
▁guys	-9.50991
▁La	-9.51061
▁sambavam	-9.51077
ic	-9.51133
eenga	-9.51316
dhi	-9.51401
days	-9.51428
▁te	-9.519
▁வீர	-9.51915
▁think	-9.51924
▁pot	-9.51941
▁screen	-9.51954
▁பார்த்து	-9.51997
able	-9.52031
▁vada	-9.52049
▁வர	-9.52054
▁vs	-9.52111
▁otha	-9.52425
ale	-9.52556
த்தை	-9.52664
▁vidu	-9.52831
▁இ	-9.52888
▁விட	-9.52999
▁Trending	-9.53009
▁MASS	-9.53021
50	-9.5308
▁So	-9.53083
▁என	-9.53119
▁nice	-9.53393
▁kal	-9.53414
up	-9.53418
▁iruk	-9.53475
▁channel	-9.5358
▁munnadi	-9.53655
▁sanda	-9.53724
▁pesura	-9.53753
thai	-9.53758
▁jayam	-9.53758
▁poguthu	-9.53818
▁varalam	-9.53837
▁Andha	-9.5417
ப்	-9.54283
ura	-9.54355
▁🤣	-9.54357
▁block	-9.54408
▁Ka	-9.54545
ிய	-9.54545
▁poo	-9.54555
raj	-9.54571
kk	-9.5474
▁nama	-9.54769
▁kon	-9.54774
▁aachu	-9.54776
▁sk	-9.54886
▁sunni	-9.5497
▁W	-9.54988
▁தரமான	-9.55021
▁theatre	-9.55036
ான	-9.55087
mm	-9.55158
▁Innum	-9.55226
▁edutha	-9.55287
வும்	-9.55304
▁same	-9.55336
▁chinna	-9.55378
▁fa	-9.55578
▁varla	-9.55701
▁ennada	-9.55721
▁don	-9.55782
id	-9.55999
▁Selva	-9.56056
▁சங்கம்	-9.56072
▁ap	-9.561
vathu	-9.56302
▁er	-9.56472
▁keta	-9.56481
▁பெரிய	-9.56661
▁Naa	-9.56705
▁adichu	-9.5673
▁yara	-9.56747
▁யாரு	-9.56966
▁eppo	-9.57074
▁பா	-9.57096
▁ed	-9.57353
▁fun	-9.5749
ava	-9.57527
▁better	-9.57687
▁200	-9.57689
▁tho	-9.57733
ff	-9.57846
▁பொண்ணு	-9.57849
ட்டு	-9.57979
age	-9.58031
▁adichi	-9.5832
▁irukura	-9.58337
▁varlam	-9.58423
#	-9.58467
▁path	-9.58561
▁por	-9.58562
▁நம்ம	-9.58736
▁இருந்து	-9.588
▁velai	-9.58837
pe	-9.59066
▁please	-9.59144
▁li	-9.5918
▁Siva	-9.59187
▁இன்னும	-9.59225
▁pala	-9.59252
▁hard	-9.59285
▁fake	-9.59501
wa	-9.59542
▁bo	-9.59571
▁thambi	-9.59614
▁Poda	-9.59701
▁kudathu	-9.59755
lama	-9.60082
ali	-9.60095
▁avlo	-9.60228
▁செம	-9.60281
▁Mani	-9.60494
mo	-9.60775
thal	-9.60784
▁ready	-9.60921
▁solravanga	-9.61021
▁el	-9.61051
▁சாதிய	-9.61104
▁year	-9.61289
▁Ye	-9.61296
▁valthukal	-9.61323
thil	-9.61385
▁che	-9.61415
ment	-9.6145
▁therila	-9.61529
▁nal	-9.61538
!!!!	-9.61826
▁சார்	-9.6209
▁tan	-9.62302
▁எடுக்க	-9.62576
▁Lalettan	-9.62623
R	-9.62765
ndu	-9.62776
த்து	-9.6278
▁award	-9.63024
▁lag	-9.63048
▁pi	-9.63085
▁new	-9.63174
ingala	-9.63187
▁க	-9.63234
▁illaya	-9.63261
▁varaikum	-9.63274
▁if	-9.63291
pan	-9.6333
▁sila	-9.63378
▁lagi	-9.63415
▁rajni	-9.63537
kan	-9.63585
▁mathi	-9.63596
▁ஆதரவு	-9.63615
unu	-9.63646
▁0	-9.63694
▁Who	-9.63713
▁thappa	-9.638
▁90'	-9.63846
▁னு	-9.6389
▁endha	-9.63915
▁role	-9.64209
▁Ipo	-9.64249
▁get	-9.64251
anna	-9.64254
per	-9.64254
▁Comment	-9.64269
▁ethuku	-9.64585
▁Enaku	-9.64631
▁Neraya	-9.64711
▁thi	-9.64752
▁அவன்	-9.64845
18	-9.64868
dy	-9.64914
▁ro	-9.64941
▁இதை	-9.64996
ation	-9.65043
▁செருப்படி	-9.65073
love	-9.65129
▁son	-9.65246
▁sam	-9.65246
▁evan	-9.65246
▁photo	-9.65348
▁aaga	-9.65354
▁ela	-9.65363
kuda	-9.65424
kar	-9.65519
▁enn	-9.65608
▁எடுத்து	-9.65737
▁அவர்களுக்கு	-9.65746
▁எனக்கு	-9.65747
▁பெண்களை	-9.65757
▁kaithi	-9.65844
▁Ivan	-9.65866
/	-9.65875
▁பெண்கள்	-9.65985
lai	-9.6622
▁naala	-9.66335
▁Annan	-9.66375
▁erukku	-9.6652
▁left	-9.66578
▁ரொம்ப	-9.66588
ext	-9.66631
tt	-9.66645
▁view	-9.66665
▁Ungomma	-9.66674
▁Amma	-9.6684
▁நா	-9.6689
▁irukanga	-9.66893
▁சூப்பர்	-9.6699
▁அரசியலுக்கு	-9.67009
▁முக்கியம்	-9.67113
▁FANS	-9.67138
▁Diwali	-9.6724
▁irukinga	-9.6729
aaaaa	-9.67322
ie	-9.67323
▁naanga	-9.67453
▁2019	-9.67473
aaaaaaaaaaaaaaa	-9.67504
▁இப்படம	-9.67605
▁akka	-9.67674
▁dan	-9.67728
dam	-9.67764
▁Eppadi	-9.6777
▁yarum	-9.6777
▁varudhu	-9.67823
▁soli	-9.67891
▁q	-9.67902
▁என்ற	-9.67906
ity	-9.68065
▁1996	-9.68085
nge	-9.68158
appa	-9.68171
▁kum	-9.68173
padam	-9.68185
▁காண	-9.68194
▁bekka	-9.68315
▁kku	-9.68351
▁version	-9.68358
vera	-9.68367
▁fr	-9.684
▁chi	-9.68417
ak	-9.68446
▁கொண்டு	-9.68471
akka	-9.68485
riya	-9.68519
▁semmaya	-9.68553
,,,	-9.68594
▁et	-9.68628
▁troll	-9.6879
▁aah	-9.68936
▁therika	-9.68963
mi	-9.69249
ul	-9.6925
▁Kerala	-9.69353
▁பாப்பா	-9.69388
▁theriyala	-9.6941
ayum	-9.69415
▁எங்களுக்கு	-9.69439
▁From	-9.69472
▁ஆனா	-9.69532
லாம்	-9.69611
à	-9.69623
▁koodhi	-9.69623
▁paiya	-9.69623
▁soon	-9.69633
ittu	-9.69644
yan	-9.69658
▁pink	-9.69736
mass	-9.69754
tum	-9.6982
▁ver	-9.69925
be	-9.70093
son	-9.70263
▁reply	-9.70266
▁paithiyam	-9.70374
bi	-9.70512
ven	-9.70526
60	-9.70534
yaa	-9.70609
ol	-9.70616
▁Adhu	-9.70762
▁sh	-9.70885
▁Evan	-9.70932
▁asuran	-9.70951
▁adutha	-9.71003
▁superb	-9.71003
▁mada	-9.71011
▁ngk	-9.71037
ய	-9.71163
gam	-9.71317
▁sweet	-9.71318
▁app	-9.71323
▁kai	-9.71333
luku	-9.71409
mma	-9.71421
▁ippa	-9.71427
ot	-9.71439
▁anga	-9.71448
eh	-9.71456
▁kevalama	-9.71478
▁பட	-9.71483
▁avana	-9.71483
24	-9.71661
▁boss	-9.71686
ini	-9.71735
▁epo	-9.7187
▁J	-9.71962
▁mani	-9.72055
▁problem	-9.72065
▁babu	-9.72075
day	-9.72077
ik	-9.72098
Thala	-9.72262
▁விஜய்	-9.72282
▁kala	-9.72435
▁mad	-9.72614
▁dis	-9.72652
▁iruke	-9.72728
▁kekka	-9.72793
anunga	-9.72935
ாவது	-9.72982
▁aprm	-9.7299
▁night	-9.73028
▁getup	-9.73104
bu	-9.73155
nn	-9.73157
fe	-9.73194
▁bad	-9.73233
▁pudicha	-9.73242
▁Po	-9.73278
▁India	-9.73307
▁வந்து	-9.73335
;	-9.73377
dum	-9.73434
▁waste	-9.73559
▁phone	-9.73575
layum	-9.73577
▁வீட்டு	-9.73636
Y	-9.73654
uga	-9.73655
▁ட்ரைலர்	-9.73664
cr	-9.73776
thukku	-9.7391
▁power	-9.7392
ut	-9.73974
▁aga	-9.74021
like	-9.74024
▁Karthi	-9.74083
▁வந்த	-9.74189
▁உள்ளது	-9.74211
த்தில்	-9.74296
▁news	-9.74316
▁'	-9.7439
▁Iruku	-9.74391
25	-9.7445
டி	-9.74544
▁vechu	-9.74573
▁button	-9.74584
▁varathu	-9.74619
▁vitu	-9.74653
▁pic	-9.74716
▁யார	-9.7475
ho	-9.74756
▁il	-9.74806
▁yo	-9.7481
kuthu	-9.74819
▁eppa	-9.74836
▁edit	-9.7485
▁)	-9.7486
▁also	-9.74958
19	-9.74963
▁Ippo	-9.75011
llam	-9.75093
▁record	-9.75112
▁athuku	-9.75139
▁selvan	-9.75172
▁superstar	-9.75257
▁kandippa	-9.75292
kalam	-9.75401
▁ever	-9.75482
▁Pink	-9.755
▁panitu	-9.75509
nalum	-9.75561
▁una	-9.7569
▁pes	-9.75731
▁die	-9.75755
▁may	-9.75768
nka	-9.76058
▁concept	-9.76085
ness	-9.76132
▁thanda	-9.76139
ei	-9.76158
▁பெற்ற	-9.76159
▁??	-9.7621
we	-9.76289
▁massss	-9.76357
ina	-9.76403
▁இருக்க	-9.766
▁bi	-9.76632
▁bhi	-9.76682
▁watch	-9.76694
▁Kangana	-9.76728
ruku	-9.76736
▁pannanum	-9.76737
▁ipadi	-9.76863
▁what	-9.76898
▁Apo	-9.76926
intha	-9.76949
▁mudiyum	-9.77022
▁inum	-9.77118
▁kuthi	-9.7717
targeted	-9.7728
▁Vida	-9.7746
▁chellam	-9.77555
dh	-9.77661
▁neram	-9.77772
▁ultimate	-9.77779
▁irukaru	-9.77788
▁உண்மை	-9.77792
▁padathuku	-9.7789
▁ரஜினி	-9.7801
▁Mr	-9.78018
▁end	-9.78023
▁ஏன்	-9.78091
களை	-9.78154
▁oombi	-9.78188
▁looking	-9.78243
▁யார்	-9.78341
▁ஒரே	-9.78343
▁old	-9.78363
thana	-9.78514
▁saya	-9.78568
▁sollitu	-9.78601
▁enakku	-9.78663
▁Makkal	-9.78666
kaga	-9.78713
▁thevudiya	-9.78759
▁🤔	-9.78827
▁இப்ப	-9.79067
▁உறுதி	-9.79216
▁elam	-9.79303
▁mersal	-9.79413
▁mental	-9.79441
▁hop	-9.79512
▁Kaithi	-9.79536
▁vaai	-9.79545
ுடன்	-9.79632
▁mind	-9.79648
▁flim	-9.79917
▁plz	-9.79957
▁படத்துக்கு	-9.7997
avan	-9.80106
▁our	-9.80124
ngal	-9.80178
▁cut	-9.80275
▁people	-9.80338
▁karthi	-9.80371
▁start	-9.80383
▁mam	-9.80408
▁Ra	-9.80462
▁kud	-9.80488
யா	-9.8057
▁Konjam	-9.80608
ter	-9.80633
▁avaru	-9.80664
▁உங்களுக்கு	-9.80667
▁etha	-9.80754
▁ஒன்று	-9.80813
aka	-9.80854
ஸ்	-9.80862
▁கதை	-9.81038
▁Me	-9.81092
▁paduthuringa	-9.81252
▁yellam	-9.81255
▁mi	-9.81299
▁kid	-9.81307
▁luv	-9.81391
▁dance	-9.81406
ent	-9.81408
aan	-9.81434
திரௌபதி	-9.81437
▁je	-9.81519
▁miss	-9.81726
▁pesi	-9.81738
mari	-9.81739
▁வ	-9.81841
▁politics	-9.81938
▁Best	-9.8198
ile	-9.82002
▁side	-9.82052
▁laam	-9.82053
▁seen	-9.82068
▁அதை	-9.82089
▁thevdiya	-9.82127
▁illatha	-9.82204
▁mudila	-9.82247
tham	-9.82283
▁13	-9.82295
hala	-9.82304
▁poitu	-9.8235
▁laye	-9.82364
க்	-9.82367
▁14	-9.82459
▁aagum	-9.82542
▁theva	-9.82589
னும்	-9.82666
hh	-9.82674
ia	-9.82741
ntha	-9.82756
▁நாம்	-9.8279
▁🤣🤣🤣	-9.82872
ela	-9.82885
29	-9.82961
▁எப்படி	-9.83043
▁அண்ணன்	-9.83264
▁SUPER	-9.83272
▁ca	-9.83349
▁மிக	-9.83359
▁kavin	-9.83371
▁முத்தரையர்	-9.83382
▁koo	-9.83394
▁எத்தனை	-9.83428
▁matha	-9.83428
▁SK	-9.83462
radhu	-9.83463
▁sathi	-9.83614
▁game	-9.83668
▁try	-9.83722
▁vangi	-9.83745
▁ungalukku	-9.83766
aram	-9.83876
▁out	-9.84226
▁வன்னிய	-9.84318
▁india	-9.84322
▁ag	-9.84356
athinga	-9.8438
▁change	-9.84399
▁ser	-9.84634
▁face	-9.84661
▁Dialogue	-9.84716
▁போய்	-9.84888
26	-9.84924
▁ilama	-9.84924
▁tharamana	-9.84928
▁payan	-9.85026
▁pr	-9.8504
▁In	-9.85266
▁And	-9.853
they	-9.85319
nala	-9.85333
▁இனி	-9.85414
▁podhu	-9.85516
▁pesu	-9.85576
odu	-9.85701
▁Hero	-9.8575
▁உன்	-9.85817
▁enda	-9.85825
▁thalaivaaa	-9.8583
▁athan	-9.85835
rai	-9.85849
▁1000	-9.85944
▁After	-9.8596
▁tunggu	-9.86023
▁sethu	-9.86029
▁apdiye	-9.86032
▁ak	-9.86051
▁Awesome	-9.86052
▁car	-9.86055
களின்	-9.86101
▁நாள்	-9.86128
kam	-9.86195
ca	-9.86258
years	-9.86333
16	-9.86704
▁ம	-9.86707
▁Aana	-9.86724
▁min	-9.8674
ikku	-9.86754
ena	-9.8683
che	-9.86834
▁pon	-9.8684
mani	-9.86865
kitta	-9.86905
RT	-9.87109
▁correct	-9.87271
▁arivu	-9.87347
▁action	-9.87353
▁வாழ்த்துகிறோம்	-9.87418
▁Peru	-9.87502
▁SURYA	-9.87538
nal	-9.87827
▁oo	-9.8789
யில்	-9.87897
▁Ana	-9.87973
17	-9.87984
▁neraiya	-9.87994
▁now	-9.88067
ism	-9.88069
kumar	-9.88082
▁simbu	-9.88266
▁sha	-9.88325
▁jo	-9.88399
▁🤣🤣	-9.88454
▁Ava	-9.88492
▁payale	-9.88502
▁odi	-9.88512
▁செம்ம	-9.88558
▁Music	-9.88571
▁அடுத்த	-9.88759
▁trend	-9.88787
▁different	-9.88787
▁Vaa	-9.88796
.........	-9.88876
ney	-9.88903
▁kadhal	-9.88908
▁Sethupathi	-9.88948
▁buster	-9.89034
▁VIJAY	-9.89057
▁kaasu	-9.89072
▁illai	-9.89259
▁Thi	-9.89384
▁agum	-9.89529
▁chance	-9.89603
▁செய்து	-9.89635
▁pothum	-9.89673
▁ஒவ்வொரு	-9.89739
▁Poi	-9.89829
all	-9.89854
▁class	-9.89913
▁kadavul	-9.90102
▁300	-9.90322
▁Pongal	-9.90391
யை	-9.90536
▁theriyama	-9.90584
athula	-9.90603
▁2.	-9.90662
▁vang	-9.90756
வன்	-9.90767
90	-9.90845
ave	-9.90848
▁16	-9.90934
sir	-9.9102
▁ther	-9.91046
▁சில	-9.91245
▁nadu	-9.91285
go	-9.91401
▁panu	-9.91438
sha	-9.91625
ju	-9.91626
▁lama	-9.91628
▁முதல்	-9.91747
▁Indian	-9.91784
▁வருவது	-9.91789
▁பேரவை	-9.9179
▁iam	-9.91842
yi	-9.91858
▁friends	-9.91868
▁Entha	-9.91907
▁sun	-9.9193
▁main	-9.91951
▁kalyanam	-9.92112
▁olunga	-9.92119
..........	-9.92133
▁god	-9.92171
▁fight	-9.92199
னா	-9.92211
▁mara	-9.92217
uk	-9.92307
▁kad	-9.92353
▁beka	-9.9237
▁படமாக	-9.92429
rd	-9.92479
mu	-9.92518
▁¡	-9.92633
▁sama	-9.92715
▁காதலை	-9.92723
▁Likes	-9.92746
fa	-9.92939
har	-9.92954
▁fulla	-9.93047
▁eduka	-9.93104
▁Ila	-9.93174
40	-9.93227
▁bha	-9.9323
▁jaadhi	-9.93253
▁YouTube	-9.93282
▁Hip	-9.93296
▁முடியாது	-9.933
G	-9.93307
ten	-9.93342
▁corona	-9.9339
▁வைத்து	-9.93481
athi	-9.93553
▁was	-9.93558
▁Asuran	-9.93568
ant	-9.93587
▁25	-9.93665
▁thar	-9.93687
▁thiru	-9.93703
▁Yaru	-9.9372
▁லெவல்	-9.93729
▁epadi	-9.93803
▁kya	-9.93965
▁want	-9.94032
▁years	-9.94038
▁படத்த	-9.94071
yy	-9.94077
ors	-9.94079
esh	-9.94227
▁bhai	-9.94257
▁edu	-9.94282
▁nanba	-9.94323
▁update	-9.94335
▁kutty	-9.9437
pi	-9.94404
▁age	-9.94405
▁any	-9.94405
▁nam	-9.9443
▁*	-9.94437
▁proof	-9.94492
▁yenda	-9.9482
▁Director	-9.94861
▁st	-9.94864
aaaaaa	-9.94971
▁nayagan	-9.94987
▁ab	-9.95
ok	-9.9501
▁poringa	-9.95043
iiii	-9.95085
▁பண்ண	-9.95107
▁birthday	-9.95226
▁yenga	-9.95267
▁அப்படி	-9.9532
▁செய்ய	-9.95331
varu	-9.9538
▁oruthan	-9.95454
E	-9.95515
▁Potta	-9.95536
▁puriyala	-9.95536
▁ala	-9.95547
udu	-9.95635
▁பண்ணி	-9.95677
▁vendam	-9.95774
▁padi	-9.95952
▁eru	-9.96042
▁ini	-9.9605
▁long	-9.96065
laya	-9.96095
▁வா	-9.96095
▁parthu	-9.96129
million	-9.96136
udhu	-9.96245
96	-9.96423
▁We	-9.96437
▁say	-9.96502
யின்	-9.96534
▁pundaya	-9.96564
▁Superb	-9.96568
▁முதலியார்	-9.96649
▁way	-9.96653
▁ketu	-9.96687
ate	-9.96812
▁படமா	-9.96932
iy	-9.97088
▁விட்டு	-9.97092
nee	-9.97132
U	-9.97132
▁tv	-9.97171
ooooooooooooooo	-9.97188
▁group	-9.97312
▁tweets	-9.97653
▁அடி	-9.97694
31	-9.97741
▁show	-9.97775
▁குருமா	-9.97787
▁Sk	-9.97884
▁cute	-9.97979
▁his	-9.97987
itha	-9.98007
▁vanniyar	-9.9801
▁Mohan	-9.98043
▁Harris	-9.98102
▁baby	-9.98109
▁unakku	-9.98117
anam	-9.98136
▁kaappaan	-9.98171
▁கைய	-9.98256
▁madiri	-9.98273
▁person	-9.98363
▁kandu	-9.98409
▁vazh	-9.98498
ella	-9.98723
▁maa	-9.98948
achi	-9.98957
▁selva	-9.98957
vara	-9.99008
aye	-9.99081
▁போட்டு	-9.9917
▁dhana	-9.99176
▁ket	-9.99246
▁ஆக	-9.99289
▁2020	-9.99426
▁echa	-9.99435
▁ennoda	-9.99474
▁மட்டுமே	-9.99487
▁வெட்டுவோம்	-9.99487
iruku	-9.99581
▁சினிமா	-9.99619
nya	-9.9964
▁vid	-9.99705
▁இத்திரைப்பட	-9.99788
▁gu	-9.99793
▁world	-9.99808
▁Raja	-9.99965
▁???	-10.0004
▁பேர்	-10.0018
🤣	-10.0025
▁soldravanga	-10.0028
▁sad	-10.0034
▁have	-10.004
▁போது	-10.0052
▁theriyatha	-10.0066
▁லைக்	-10.0077
ens	-10.0081
▁Arun	-10.0099
enna	-10.0101
▁சரியான	-10.0105
▁ஜி	-10.0105
athuku	-10.0109
king	-10.0112
▁Akshay	-10.0115
▁neega	-10.0122
▁vanitha	-10.0122
▁untuk	-10.0125
▁kuduthu	-10.0125
▁Yar	-10.0127
aana	-10.0128
▁venam	-10.013
▁tu	-10.0141
▁haters	-10.0142
▁thara	-10.0143
ions	-10.0149
yu	-10.0149
ukum	-10.0151
▁Hey	-10.0173
▁That	-10.0184
▁apa	-10.0193
▁வெள்ளாளர்	-10.0206
ichu	-10.0213
▁eruka	-10.0217
▁tr	-10.023
▁pesuna	-10.0248
ூர்	-10.0251
▁For	-10.0257
▁daw	-10.026
vo	-10.0262
▁ரசிகர்கள்	-10.0274
▁pakkam	-10.0274
▁இருந்தாலும்	-10.0275
▁LIKE	-10.0275
▁mudiyadhu	-10.0282
one	-10.0286
uuuu	-10.029
▁31	-10.0296
▁vivegam	-10.03
▁சம்பவம்	-10.0302
avathu	-10.0322
sam	-10.0324
▁mana	-10.0335
▁aamai	-10.0344
&	-10.0345
▁allu	-10.0345
era	-10.0352
so	-10.0355
▁vayasu	-10.0355
▁pass	-10.0358
▁maranam	-10.0359
▁:)	-10.0369
tam	-10.0371
▁theriyathu	-10.0375
▁pandringa	-10.0376
NOT	-10.0387
▁mas	-10.0394
▁தளபதி	-10.0396
ane	-10.0408
▁therium	-10.041
time	-10.0421
▁theme	-10.0421
▁ரஞ்சித்	-10.0428
▁paarvai	-10.0428
▁link	-10.0428
\	-10.0433
▁paar	-10.0435
▁pra	-10.0445
ap	-10.0445
ys	-10.0448
▁Ngk	-10.0454
▁saathi	-10.0458
puram	-10.0463
▁thalaivaaaa	-10.0468
▁wo	-10.0475
▁soldra	-10.0479
amp	-10.0487
21	-10.0493
▁she	-10.0494
▁padu	-10.0497
ira	-10.0504
▁adicha	-10.0507
▁irukom	-10.0509
▁sar	-10.0538
▁mutta	-10.0547
▁sona	-10.055
▁pas	-10.0552
▁pattu	-10.0557
27	-10.0562
thum	-10.0568
▁still	-10.0568
▁தப்பு	-10.0569
od	-10.0576
▁pavam	-10.0577
▁koodathu	-10.058
▁poduga	-10.0582
ud	-10.0587
▁neriya	-10.0588
🤣🤣	-10.0595
pur	-10.0607
α	-10.0613
gha	-10.0616
▁Mattum	-10.0616
▁நாயக்கர்	-10.0619
▁paathutu	-10.063
..!	-10.0631
▁பேச	-10.0634
▁Than	-10.0635
uma	-10.0644
reenga	-10.0646
by	-10.0655
▁சொன்ன	-10.0656
▁40	-10.066
▁illana	-10.0664
ள்	-10.0665
my	-10.0667
64	-10.0673
▁kudu	-10.0676
▁therikka	-10.0682
▁top	-10.0688
are	-10.0694
alu	-10.0695
▁kula	-10.07
▁vena	-10.0702
▁evanum	-10.0706
▁Unna	-10.071
▁ilaya	-10.0711
▁vit	-10.0712
▁Any	-10.0721
▁nad	-10.0721
▁character	-10.0725
▁bu	-10.0733
NGK	-10.074
▁cast	-10.0754
▁Veri	-10.0756
▁ali	-10.0757
vai	-10.0761
▁என்பது	-10.0778
▁speed	-10.078
▁<3	-10.0783
▁Just	-10.0785
▁வேண்டிய	-10.0786
▁already	-10.079
▁Views	-10.0792
galuku	-10.0794
▁Happy	-10.0796
▁டேய்	-10.0798
tra	-10.0819
▁pesitu	-10.0822
▁oh	-10.0823
▁Ethana	-10.0823
rr	-10.0825
▁sri	-10.0826
▁kasu	-10.083
▁add	-10.0834
ler	-10.0841
▁2016	-10.0841
▁patta	-10.0849
▁raj	-10.085
ath	-10.0853
▁60	-10.0854
ாய்	-10.0855
...........	-10.086
▁help	-10.0864
▁தலைவர்	-10.0867
▁Ha	-10.0873
▁Rajinikanth	-10.0881
eeee	-10.0885
▁week	-10.0906
ர்கள்	-10.0907
▁vanthavanga	-10.0909
co	-10.0911
vel	-10.0917
▁poduvan	-10.0924
▁ge	-10.0925
▁mud	-10.0927
▁ea	-10.093
uv	-10.0932
▁sai	-10.0934
▁some	-10.0934
▁ethir	-10.0935
▁masssss	-10.0942
rukku	-10.0949
▁பற்றி	-10.0954
▁தன்	-10.0954
▁lebih	-10.0955
▁fire	-10.0956
▁கமெண்ட்	-10.0958
▁beat	-10.0959
▁தெரியும்	-10.096
▁என்னடா	-10.0962
▁bike	-10.0965
▁kudutha	-10.0967
▁Twitter	-10.0974
▁mavan	-10.0976
▁.......	-10.0977
▁pro	-10.0977
▁kangana	-10.0977
▁டிரைலர்	-10.0978
▁Vj	-10.0981
▁list	-10.0981
ppu	-10.0982
▁Manasu	-10.0983
▁war	-10.0984
ார்	-10.099
▁Yenna	-10.0992
▁Good	-10.0993
min	-10.0997
mmmmmmmmmmmmmmm	-10.0998
▁mun	-10.0998
▁its	-10.1001
▁maru	-10.1002
una	-10.1004
▁partha	-10.1005
."	-10.1006
▁thadava	-10.1011
▁share	-10.1014
nce	-10.1022
▁bairava	-10.1024
kula	-10.1029
gga	-10.1031
▁karan	-10.1035
▁Apdi	-10.1039
▁stunt	-10.1049
▁Itha	-10.1055
▁rocks	-10.1057
▁64	-10.1071
▁வாழ	-10.1074
ck	-10.1077
▁yaara	-10.1091
ichi	-10.1093
▁bangam	-10.1106
fi	-10.1114
▁ven	-10.1118
▁true	-10.1118
▁kol	-10.1127
padi	-10.1127
▁Atha	-10.1131
▁du	-10.1131
▁திருமணம்	-10.1135
▁sollala	-10.1135
▁விழா	-10.1137
▁treat	-10.114
▁varu	-10.1145
▁படங்கள்	-10.1147
▁ep	-10.1154
▁தமிழ்நாடு	-10.1154
▁kanna	-10.1157
▁tahu	-10.1168
▁number	-10.1172
▁அசுரன்	-10.118
▁act	-10.1182
▁worth	-10.1183
▁come	-10.1189
nthu	-10.119
▁naai	-10.1199
▁pur	-10.1205
ita	-10.1208
za	-10.1209
ble	-10.1209
▁vaanga	-10.1224
▁எடுத்த	-10.1229
amma	-10.123
▁ex	-10.1241
▁ithuku	-10.1243
par	-10.1245
▁open	-10.1255
out	-10.1257
lan	-10.1259
▁mukkiyam	-10.126
▁iva	-10.1266
▁அத	-10.1266
ks	-10.1267
▁epa	-10.1272
▁evalo	-10.1287
▁பெண்ணை	-10.1288
you	-10.1293
▁ச	-10.1293
▁trailor	-10.1298
tar	-10.1299
anda	-10.1307
▁\	-10.1308
ig	-10.1308
▁­	-10.1315
▁FOR	-10.1315
▁valthukkal	-10.1322
▁pal	-10.1325
kulla	-10.1327
vey	-10.133
▁Pola	-10.135
thin	-10.1354
▁What	-10.1355
11	-10.1356
ங்கள்	-10.1358
▁சரி	-10.1369
▁🤩	-10.1375
▁vote	-10.1376
▁podhum	-10.1377
▁us	-10.1384
diya	-10.1384
103	-10.1389
▁ti	-10.1394
▁etho	-10.1397
▁thooki	-10.1399
▁nhi	-10.1401
▁Theri	-10.1403
▁nandri	-10.1411
▁ipa	-10.1412
▁கை	-10.1413
▁Nala	-10.1426
▁vel	-10.1436
▁marriage	-10.1447
🤔	-10.1453
▁title	-10.1454
ikum	-10.1461
▁panringa	-10.1482
galai	-10.1483
▁yaa	-10.1487
antha	-10.1491
▁Simbu	-10.1495
▁vjs	-10.1498
▁ரிலீஸ்	-10.1501
▁என்றால்	-10.1503
▁perum	-10.1504
▁mathri	-10.1506
▁அருமையா	-10.1507
▁வேண்டாம்	-10.1511
▁many	-10.1513
▁kelvi	-10.1527
▁thal	-10.1532
▁daily	-10.154
▁மற்ற	-10.1544
▁parak	-10.1546
▁vala	-10.1549
nunga	-10.1558
ls	-10.1568
av	-10.157
▁முழு	-10.1571
nai	-10.1572
▁lusu	-10.1574
▁bh	-10.1578
▁Singam	-10.158
▁varadhu	-10.1583
▁heart	-10.1605
▁thir	-10.1607
▁அல்ல	-10.1611
pola	-10.1612
▁kaa	-10.1621
▁Appo	-10.1625
▁school	-10.1629
▁Yaaru	-10.1631
yil	-10.1632
▁san	-10.1645
ds	-10.165
▁words	-10.1651
▁pathavanga	-10.1654
32	-10.1661
ukkum	-10.1662
vin	-10.1664
▁ஒன்னு	-10.1672
▁pl	-10.1674
ata	-10.1677
..!!	-10.168
▁nahi	-10.1681
▁indian	-10.1682
’	-10.1689
ations	-10.1691
▁August	-10.1692
▁Yaar	-10.1695
▁ner	-10.1703
**	-10.1704
▁400	-10.1708
▁எ	-10.1709
▁baadu	-10.1712
▁irunthalum	-10.1719
▁vach	-10.172
▁innoruthara	-10.1722
▁அவர்கள்	-10.1726
ssssssssssssssss	-10.1727
war	-10.1727
▁how	-10.1733
rg	-10.1735
▁Adei	-10.1753
Arun	-10.1757
▁தேவேந்திர	-10.1759
▁bang	-10.1777
▁மனித	-10.1777
▁pol	-10.1783
▁oomba	-10.1799
sss	-10.1804
ெல்லாம்	-10.1806
▁naraya	-10.1806
▁ot	-10.1809
▁dh	-10.1809
▁sub	-10.181
karan	-10.1823
vijay	-10.1828
thinga	-10.1829
▁ol	-10.1841
▁parka	-10.1842
▁sc	-10.1843
த்	-10.1848
kita	-10.1853
▁thanks	-10.1868
▁Jai	-10.1874
▁job	-10.1884
▁date	-10.1885
▁Beethoven	-10.1885
▁எனது	-10.1889
▁dummy	-10.1894
▁சிறந்த	-10.1894
▁WAITING	-10.1895
▁goosebumps	-10.1896
▁pee	-10.1898
▁மண்ணும்	-10.19
102	-10.1901
L	-10.1914
▁600	-10.1916
yar	-10.1919
உண்மையான	-10.1919
▁has	-10.192
▁her	-10.1921
▁மண்ணு	-10.1933
▁Nama	-10.1949
▁Apr	-10.1951
▁Full	-10.1951
▁kod	-10.1952
▁aal	-10.1953
▁rock	-10.1956
▁orey	-10.1956
▁Karthik	-10.1958
surya	-10.1959
ப்பா	-10.1965
▁pannama	-10.1965
▁rocking	-10.1966
▁confirm	-10.1967
▁diwali	-10.1972
▁paravala	-10.1979
ze	-10.1984
▁dialog	-10.1988
▁70	-10.199
▁ille	-10.1991
ans	-10.1992
▁பாக்க	-10.1996
▁Sunni	-10.2003
ratha	-10.2008
28	-10.2011
▁mattu	-10.2021
dhe	-10.2025
▁ay	-10.2026
ேன்	-10.2027
▁inda	-10.2034
▁kettu	-10.204
▁jan	-10.2045
iv	-10.2051
▁yaarum	-10.2055
▁ev	-10.2059
▁kannu	-10.206
▁Ellarum	-10.2065
▁palaya	-10.2065
▁alavuku	-10.207
▁Yogi	-10.2078
hhh	-10.2079
▁thevidya	-10.2079
▁im	-10.2083
▁pondati	-10.2087
▁win	-10.2087
▁Ithula	-10.2093
▁எதிர்	-10.2094
kara	-10.2098
igala	-10.2098
▁avala	-10.2102
▁unmai	-10.2103
▁potutu	-10.2104
=	-10.2105
▁உங்கள்	-10.2106
▁theriyuma	-10.2113
▁Kaappaan	-10.2117
▁படத்துல	-10.2124
▁Star	-10.2129
▁irku	-10.2129
mathiri	-10.2131
▁🤘	-10.2138
O	-10.214
▁சாதியை	-10.2156
மா	-10.2159
ons	-10.2164
for	-10.2167
▁sei	-10.2169
▁த	-10.2178
angala	-10.2186
▁perusa	-10.2191
▁paavam	-10.2194
▁com	-10.2196
▁aprom	-10.2198
▁vali	-10.2202
▁case	-10.2204
▁vaangi	-10.2205
gum	-10.2206
▁ஆண்ட	-10.2211
▁daaa	-10.2213
athan	-10.2214
▁reach	-10.2222
athil	-10.2223
▁nall	-10.2226
▁வரை	-10.2233
▁unlike	-10.2239
ati	-10.2242
▁Seri	-10.2247
படம்	-10.2254
▁உலக	-10.2266
suriya	-10.2274
kai	-10.2277
▁உண்டு	-10.2278
▁படத்தில்	-10.2286
▁Karnataka	-10.229
▁Mersal	-10.2295
ulla	-10.2301
▁ninga	-10.2302
▁Ama	-10.2307
▁pei	-10.2312
▁vazhthukal	-10.2314
ill	-10.2316
▁language	-10.2317
▁vacha	-10.2317
▁then	-10.2318
▁sapda	-10.2318
▁Ippa	-10.2323
▁aur	-10.2325
▁Tweets	-10.2329
▁vitta	-10.233
▁odra	-10.2335
aaaaaaa	-10.2335
▁Time	-10.2337
▁Enada	-10.2338
▁put	-10.2342
▁irukkan	-10.2343
▁konda	-10.2352
▁matt	-10.2359
▁Ipdi	-10.2361
kalai	-10.2376
▁theater	-10.238
▁yogi	-10.239
▁fe	-10.2395
45	-10.2404
▁nanum	-10.2412
▁sap	-10.2417
▁poyi	-10.2423
▁fast	-10.2425
utu	-10.2427
▁aaa	-10.2428
▁Tweet	-10.2431
▁தலித்	-10.2436
▁line	-10.2454
▁ungomma	-10.2465
▁br	-10.2465
▁eth	-10.2465
vil	-10.2468
▁solu	-10.2471
▁படங்களை	-10.2473
▁ban	-10.2476
▁vanth	-10.2476
▁இவ்வளவு	-10.2482
▁pakkanum	-10.2483
▁Summa	-10.2491
▁amazing	-10.2494
▁மாவீரன்	-10.2496
aaaaaaaaaaaaaa	-10.25
▁பெருமாள்	-10.2504
oooo	-10.2509
▁நாங்க	-10.2512
tti	-10.2514
▁endru	-10.2515
▁நிறைய	-10.2519
▁மிகப்பெர	-10.2524
▁pre	-10.2525
sema	-10.2527
▁thirumba	-10.253
▁thalapathi	-10.2546
aiya	-10.2547
▁இருந்த	-10.2555
▁edhu	-10.2558
san	-10.2559
▁மிகவு	-10.2563
▁Comments	-10.2572
rt	-10.2572
▁irunga	-10.2572
daa	-10.2573
▁they	-10.2579
▁1:3	-10.258
▁pulla	-10.2585
▁மக்களின	-10.2608
▁jadhi	-10.261
▁80	-10.2614
kiren	-10.2615
mai	-10.2616
▁ac	-10.2623
▁oor	-10.2625
▁maran	-10.2627
▁upload	-10.263
▁erukum	-10.2632
▁solren	-10.2636
▁கூடாது	-10.2637
▁onna	-10.2639
▁kattu	-10.2641
▁friend	-10.2645
▁too	-10.2645
▁2017	-10.2649
ோம்	-10.2651
ver	-10.2656
▁appadi	-10.2658
க்க	-10.2663
▁peruma	-10.2669
▁vand	-10.2669
▁அடங்க	-10.2671
▁uyir	-10.2672
é	-10.2674
▁reason	-10.2688
▁Video	-10.269
ag	-10.2691
▁TRAILER	-10.2693
▁Nerkonda	-10.2694
enge	-10.2694
▁நாங்கள்	-10.2695
▁To	-10.2697
▁wi	-10.27
▁Ya	-10.2704
▁thaanda	-10.2708
▁sound	-10.271
▁unmaiya	-10.2713
ாமல்	-10.2718
aku	-10.2721
▁thalaivan	-10.2724
▁pannala	-10.2726
23	-10.273
களுக்கு	-10.2733
▁madri	-10.2734
▁Mokka	-10.2737
▁coming	-10.2747
▁700	-10.2755
aaru	-10.2757
▁illanu	-10.2759
▁adu	-10.2769
tinga	-10.278
▁math	-10.2783
▁ath	-10.2795
▁bloods	-10.2796
▁sey	-10.2797
▁katha	-10.2802
▁sec	-10.2806
▁கட்சி	-10.2808
▁Is	-10.2814
▁pak	-10.2823
▁மொத்த	-10.2827
naa	-10.2827
▁sariya	-10.2828
ிட்டு	-10.283
▁munda	-10.2831
▁blood	-10.2863
▁இப்பட	-10.2866
▁young	-10.2869
laa	-10.2871
...!	-10.2875
▁இனம்	-10.2876
▁veetu	-10.2885
▁munadi	-10.289
▁ter	-10.289
????	-10.2894
udan	-10.2903
▁வெள்ளி	-10.2906
▁தலைவா	-10.2907
▁twitter	-10.2908
▁Back	-10.2908
▁AJITH	-10.291
▁Nadippin	-10.291
▁DMK	-10.2914
▁athigama	-10.2916
▁kuduka	-10.2919
▁shankar	-10.2923
uda	-10.2923
▁Million	-10.2926
▁Vjs	-10.2926
▁kastam	-10.2928
▁மரண	-10.293
▁vanthalum	-10.2931
▁ram	-10.2933
▁con	-10.2934
▁katti	-10.2935
ாலும்	-10.2938
▁kath	-10.2939
pathi	-10.2944
uuuuu	-10.2953
▁சும்மா	-10.2963
▁karthik	-10.2966
▁irukunu	-10.2969
▁சமூகத்தின	-10.2972
▁panranga	-10.2973
aiyum	-10.2978
▁Real	-10.2993
▁panrathu	-10.2993
*	-10.3008
▁nadika	-10.3008
▁irruka	-10.3012
ine	-10.3016
nan	-10.3018
this	-10.3019
▁Ethu	-10.3019
▁mode	-10.302
101	-10.302
les	-10.3022
▁ip	-10.3025
▁tra	-10.3026
▁youtube	-10.3026
▁mention	-10.3027
▁control	-10.3029
▁தா	-10.3029
ling	-10.3033
▁போல்	-10.3046
thanda	-10.3049
▁Avar	-10.3054
ோடு	-10.3055
▁ee	-10.3057
▁podura	-10.3058
▁matter	-10.3065
▁செட்டியார்	-10.3065
▁sur	-10.3073
▁Iruka	-10.3076
மே	-10.3077
▁இத	-10.3085
▁வந்தா	-10.3089
▁Verithanam	-10.309
zz	-10.3094
then	-10.3094
icha	-10.31
▁Enda	-10.3101
kki	-10.3104
யாக	-10.3105
▁kam	-10.3118
▁comali	-10.3119
▁LEVEL	-10.3124
▁hollywood	-10.314
pp	-10.314
cy	-10.314
வர்கள்	-10.3144
▁type	-10.315
▁இப்போ	-10.3156
▁sup	-10.316
ndo	-10.3161
▁fi	-10.3162
▁never	-10.3167
▁said	-10.3169
ுக்கும்	-10.3171
ida	-10.3172
▁therinja	-10.3173
▁engaluku	-10.3173
▁kaala	-10.3174
▁uruthi	-10.3178
▁உண்மையை	-10.319
▁sarkar	-10.3202
dar	-10.3205
hit	-10.3208
▁mama	-10.3219
▁bairavaa	-10.3225
▁muttu	-10.3227
▁kodi	-10.3234
Chiyaan	-10.3236
▁kr	-10.3248
▁kasta	-10.3254
idu	-10.3256
▁யாதவர்	-10.326
▁Bairavaa	-10.3261
▁give	-10.3263
▁punch	-10.3265
▁yeh	-10.3267
▁nadakum	-10.3273
▁mel	-10.3278
▁know	-10.3281
▁adhi	-10.3284
▁ஜாதிய	-10.3287
▁பசங்க	-10.3295
▁Kekka	-10.3307
ther	-10.3307
▁நீங்கள	-10.3308
avanga	-10.3309
▁tamilnadu	-10.3313
bar	-10.3316
trailer	-10.3319
▁நாடு	-10.332
▁wish	-10.332
▁ranjith	-10.3321
guthu	-10.3322
🤣🤣🤣	-10.3323
▁ஆ	-10.3328
த்தான்	-10.3329
▁doubt	-10.3333
iyam	-10.3335
▁check	-10.3336
▁உங்கள	-10.3345
▁முக்குலத்தோர்	-10.3346
▁kolla	-10.335
▁Epdi	-10.335
▁vfx	-10.3351
▁எல்லாரும்	-10.3351
▁makeup	-10.3352
▁‚	-10.3353
▁FDFS	-10.3353
▁Arjun	-10.3354
▁ean	-10.3355
ega	-10.3357
▁varuven	-10.3358
▁Thalapathi	-10.3361
▁manushan	-10.3362
▁vendum	-10.3363
▁மக்கள	-10.3369
H	-10.3371
mmm	-10.3371
▁tik	-10.3372
▁Ranjith	-10.3374
▁morning	-10.3382
▁engal	-10.3382
illai	-10.3384
▁aparam	-10.3384
▁onu	-10.3389
▁fo	-10.3393
▁kab	-10.3401
▁poren	-10.3425
▁கும்பல்	-10.3425
▁ill	-10.3433
inu	-10.3435
▁varusam	-10.3437
▁அட	-10.3448
▁kollama	-10.3449
▁சிங்கம்	-10.3457
▁செய்யும்	-10.3457
▁break	-10.3458
iyo	-10.3461
▁She	-10.3462
▁niraya	-10.3462
▁tharu	-10.3465
indha	-10.3473
▁karo	-10.3474
iru	-10.3479
▁thoo	-10.3485
▁பத்தி	-10.3488
▁stop	-10.3494
▁sem	-10.3499
▁kora	-10.35
▁athula	-10.3507
▁media	-10.3509
lease	-10.3509
yai	-10.3509
▁loose	-10.351
▁cr	-10.3524
62	-10.3529
▁irrukum	-10.3535
▁pananum	-10.3538
98	-10.354
▁Ve	-10.3542
▁ann	-10.3561
▁who	-10.3564
▁திருநெல்வேலி	-10.357
▁Climax	-10.357
mal	-10.3571
▁Vere	-10.3577
▁வசனம்	-10.3579
▁arasiyaluku	-10.3584
▁Ni	-10.3585
iki	-10.3585
▁Nice	-10.3586
raru	-10.3591
ps	-10.3597
▁பண்ணுங்க	-10.3602
▁watching	-10.3603
▁rasigan	-10.3606
▁entry	-10.3608
▁Yenda	-10.361
▁sunniya	-10.3617
▁achu	-10.3619
ny	-10.3622
idhu	-10.3626
▁follow	-10.3633
▁moonji	-10.3638
▁minutes	-10.3642
▁அம்மா	-10.3643
bo	-10.3648
que	-10.3663
▁Am	-10.3668
▁dialogues	-10.3674
dhaan	-10.368
aran	-10.3681
▁vella	-10.3685
rukum	-10.3689
ச்சி	-10.369
▁pen	-10.3691
attum	-10.3692
▁நாம	-10.3698
ோட	-10.3703
▁hu	-10.3706
▁vetti	-10.3706
▁kaali	-10.3707
▁eva	-10.3717
▁22	-10.3717
kkanum	-10.3718
▁even	-10.3729
▁avara	-10.3733
▁நாயுடு	-10.3736
▁aagi	-10.3738
▁pott	-10.3744
movie	-10.3745
liya	-10.3752
▁agi	-10.3753
த்திற்கு	-10.3753
irukku	-10.3755
▁பொண்ண	-10.3756
▁naadu	-10.3757
▁poolu	-10.3762
▁Thalaivaaa	-10.3764
▁irukk	-10.3764
argal	-10.3766
▁pundaiya	-10.3778
ring	-10.3779
▁vettri	-10.3784
achu	-10.3784
▁இதுல	-10.3786
iiiii	-10.3796
▁Release	-10.3802
▁By	-10.3805
▁kada	-10.3805
▁மதுரை	-10.381
▁நிச்சயம்	-10.3811
▁magan	-10.3813
▁|	-10.3813
▁agala	-10.3815
▁nai	-10.3815
ner	-10.3816
▁theriyuthu	-10.3819
▁kamal	-10.3821
semma	-10.3827
ew	-10.3828
▁dekh	-10.3831
lm	-10.3832
▁கவுண்டர்கள்	-10.3832
▁Superstar	-10.3834
▁har	-10.3836
▁NKP	-10.3838
▁arun	-10.3843
▁மேல்	-10.3849
malayalam	-10.3855
▁போதும்	-10.3857
▁od	-10.3867
▁innoru	-10.3868
▁siripu	-10.3877
▁weight	-10.3877
▁ooru	-10.3879
▁anil	-10.3879
▁Yov	-10.3879
▁பேர	-10.3883
▁18	-10.3887
▁bar	-10.3887
ow	-10.3891
▁cu	-10.3895
neenga	-10.3898
▁kappan	-10.3899
oor	-10.3899
▁soru	-10.3906
ong	-10.3906
▁பாருங்க	-10.3912
வா	-10.3913
▁புரட்சி	-10.3916
alai	-10.392
▁nada	-10.3921
▁today	-10.3921
▁vidunga	-10.3921
▁காதல	-10.3922
▁idhula	-10.3922
▁panam	-10.3924
▁artham	-10.3925
▁going	-10.3926
▁பெருமை	-10.3938
80	-10.3946
▁english	-10.3952
▁gi	-10.3953
▁appan	-10.3954
▁vendiyathu	-10.3957
lah	-10.396
▁kudi	-10.3962
▁papom	-10.3964
▁scenes	-10.3979
▁kammi	-10.3982
its	-10.3984
22	-10.3987
▁thevai	-10.3994
▁Evl	-10.3999
▁irukke	-10.4004
sk	-10.401
tions	-10.4013
rgal	-10.4013
▁வேலை	-10.4017
waiting	-10.4031
iiiiiiiiiiiiiiii	-10.4042
▁irunthuchu	-10.4044
▁oombitu	-10.4049
patti	-10.4049
▁bhairava	-10.4052
▁seyal	-10.4056
▁songs	-10.4059
▁padikka	-10.4059
▁THALAPATHY	-10.4061
▁Ommala	-10.4068
▁sola	-10.4078
ndha	-10.4079
dra	-10.4082
▁delivery	-10.4084
▁Maari	-10.4087
kura	-10.4089
▁script	-10.4096
▁2000	-10.4097
▁kannada	-10.4103
iyaa	-10.4107
▁பிள்ளை	-10.4108
▁compare	-10.4109
[	-10.411
▁poran	-10.4113
▁அவர்	-10.4113
▁bat	-10.4117
▁kuch	-10.4117
star	-10.4118
ற	-10.4128
▁ai	-10.4132
sion	-10.4137
▁sootha	-10.4148
▁அப்ப	-10.4149
▁vet	-10.4152
ance	-10.4155
uka	-10.4156
▁aag	-10.416
times	-10.4161
▁Thu	-10.4167
uch	-10.4176
uchu	-10.4177
val	-10.418
▁nambi	-10.4181
▁kaaga	-10.4184
ang	-10.4186
▁need	-10.4188
▁serupadi	-10.4189
▁seiya	-10.419
▁mairu	-10.4199
ike	-10.42
ms	-10.4211
pla	-10.4214
▁pin	-10.4215
▁panren	-10.4217
▁katt	-10.4218
gg	-10.4231
▁nadicha	-10.4241
▁word	-10.4246
▁pay	-10.4251
▁producer	-10.4256
▁Malaysia	-10.4258
▁nin	-10.4262
▁vayasula	-10.427
rathuku	-10.427
▁pakanum	-10.4274
▁Varum	-10.4275
▁raha	-10.4283
▁OMG	-10.4288
hai	-10.4288
............	-10.4294
▁dubbed	-10.4294
▁விழிப்புணர்வு	-10.4296
▁mooditu	-10.4297
▁paakka	-10.43
▁THE	-10.4308
▁create	-10.4311
oli	-10.4311
poi	-10.4312
▁varuvathu	-10.4313
▁முடிவு	-10.4316
lar	-10.4316
▁boys	-10.4317
yana	-10.4326
▁poranga	-10.4339
▁series	-10.4352
🤩	-10.4358
▁edukka	-10.4363
▁hair	-10.4365
▁nadikka	-10.4367
igal	-10.4374
▁sat	-10.4382
▁பெயர்	-10.4383
V	-10.4387
▁porantha	-10.439
ந்து	-10.4391
▁21	-10.4394
ethu	-10.4395
▁kathal	-10.4395
▁Irukku	-10.4402
▁thaana	-10.4405
▁sutha	-10.4406
▁வச்சு	-10.4414
▁book	-10.4415
gar	-10.4418
yae	-10.4421
▁கருத்து	-10.4433
▁panuga	-10.4438
▁koda	-10.445
▁இன	-10.4452
▁olu	-10.4455
▁unnaku	-10.4458
yyy	-10.4458
▁massssss	-10.4465
tech	-10.4468
▁இங்கு	-10.447
▁Final	-10.447
adam	-10.4472
▁mata	-10.4475
▁paduthu	-10.4477
▁De	-10.4483
▁touch	-10.4487
69	-10.4495
▁avangala	-10.4495
▁porandha	-10.4499
eyy	-10.4501
▁velaiya	-10.4504
▁thaniya	-10.4506
eya	-10.4513
▁heroine	-10.4516
▁hand	-10.4516
▁orama	-10.4519
maa	-10.4522
▁thani	-10.4523
▁Omg	-10.4524
▁chiyaan	-10.4529
▁Kamal	-10.453
▁vettu	-10.4534
ார்ந்த	-10.4538
▁இருந்தால்	-10.454
kittu	-10.454
▁சத்ரியன்	-10.4544
▁vitrunga	-10.4544
▁வாழ்க	-10.4547
▁nakki	-10.4548
▁சார்பாகவும்	-10.4552
▁Kandipa	-10.4554
▁odu	-10.4554
▁solitu	-10.4557
▁fdfs	-10.4562
ish	-10.4562
▁Very	-10.4562
▁ivaru	-10.4565
▁laa	-10.4567
▁தமிழன்	-10.4569
▁okka	-10.4574
▁adh	-10.4575
இந்த	-10.458
▁matta	-10.4581
▁kelu	-10.4586
▁Pls	-10.4592
▁கு	-10.4593
ex	-10.4593
▁making	-10.46
yal	-10.4606
▁kara	-10.4611
▁thin	-10.4618
▁girl	-10.4619
▁pudichi	-10.4623
▁aan	-10.4627
▁nadaka	-10.4628
enda	-10.4638
vaga	-10.4643
▁rt	-10.4649
▁kur	-10.4649
▁pudichu	-10.4651
▁Don	-10.4652
aj	-10.4654
▁Hi	-10.4655
▁pakura	-10.4656
ings	-10.4656
mar	-10.4661
ww	-10.4666
▁ut	-10.4666
dunga	-10.4674
▁வச்சி	-10.468
▁க்கு	-10.4682
▁kudunga	-10.4682
▁keep	-10.4685
95	-10.4695
Surya	-10.4696
▁Vada	-10.4696
▁அஜித்	-10.4698
▁திரை	-10.4698
▁Appa	-10.4703
▁King	-10.4703
eeeeeeeeeeeeeeee	-10.4707
▁thanga	-10.4711
alla	-10.4717
uranga	-10.4717
▁aagala	-10.4722
ite	-10.4722
lt	-10.4723
▁black	-10.4728
▁oruthar	-10.4734
pothu	-10.4736
▁athe	-10.4739
▁keela	-10.4739
▁STAR	-10.4746
ction	-10.4747
▁Ayyo	-10.4748
ian	-10.4755
▁Oh	-10.4755
▁national	-10.4757
less	-10.4764
line	-10.477
ments	-10.477
▁lu	-10.4773
41	-10.4773
▁kami	-10.4773
lukku	-10.4776
▁edhuku	-10.478
▁hip	-10.4782
▁Remake	-10.4793
ery	-10.4796
▁namaku	-10.4799
▁vazhthukkal	-10.4799
▁டைரக்டர்	-10.4801
ct	-10.4801
full	-10.4801
▁kodutha	-10.4801
▁விழுப்புரம்	-10.4804
her	-10.4804
▁nkp	-10.4807
▁பார்த்த	-10.4807
▁sorry	-10.4811
▁des	-10.4812
▁pandey	-10.4812
▁kammiya	-10.4814
▁Sweet	-10.4822
ep	-10.4823
▁psycho	-10.4824
▁maathi	-10.4826
ணும்	-10.4827
▁பொள்ளாச்சி	-10.4828
▁second	-10.4828
▁aadhi	-10.4832
▁lalettan	-10.4834
▁மாறி	-10.4837
▁apadi	-10.484
▁shot	-10.484
▁vant	-10.4842
▁Thanks	-10.4844
ore	-10.4844
▁mams	-10.4845
42	-10.4848
india	-10.4851
gh	-10.4857
tanga	-10.4861
B	-10.4866
▁dear	-10.4866
▁about	-10.4879
apa	-10.4887
mba	-10.4891
▁ek	-10.4897
▁varatha	-10.49
▁Yow	-10.4901
▁aala	-10.4906
pen	-10.4908
▁sirippu	-10.491
▁velaya	-10.4917
▁,,	-10.4922
▁பேரு	-10.4928
▁சென்று	-10.4929
angal	-10.4936
▁Yara	-10.4941
Trailer	-10.4943
ary	-10.4945
▁thavara	-10.4952
ight	-10.4956
▁nat	-10.4959
nar	-10.4961
▁மா	-10.4972
▁adaiya	-10.4973
▁sonnathu	-10.4974
85	-10.4979
▁gommala	-10.498
▁சொன்னா	-10.498
▁fav	-10.4984
mah	-10.4989
▁sure	-10.4995
▁movi	-10.5
utha	-10.5002
▁kot	-10.5004
liye	-10.5004
ão	-10.5004
▁போட	-10.5005
▁collection	-10.5006
▁kovam	-10.5007
▁கொண்ட	-10.5023
▁Wait	-10.5028
்ந்த	-10.5034
▁bt	-10.5037
▁red	-10.5044
ikkum	-10.5047
▁VJS	-10.5048
▁irukkanga	-10.5049
▁adhan	-10.5053
ikka	-10.5053
▁Support	-10.5054
ர	-10.5061
▁Ultimate	-10.5062
▁yan	-10.5063
▁இப்படிக்கு	-10.5064
▁supper	-10.5065
▁dress	-10.5067
▁visvasam	-10.507
▁senja	-10.507
▁selvaragavan	-10.5072
▁தவறு	-10.5076
ated	-10.5076
ppo	-10.5078
▁உனக்கு	-10.5079
▁trailar	-10.5081
▁vis	-10.5082
▁saw	-10.5084
▁mark	-10.5084
▁படத்திற்கு	-10.509
▁double	-10.509
▁Chennai	-10.5091
▁vaika	-10.5091
▁TN	-10.5093
▁kand	-10.5094
▁Ayan	-10.5096
▁mudivu	-10.5099
▁mood	-10.51
▁படத்தின	-10.5101
nathu	-10.511
▁Nadu	-10.5111
Vijay	-10.5111
▁smart	-10.5111
▁kudukura	-10.5112
▁ommala	-10.5112
▁Avaru	-10.5119
▁Jaathi	-10.5119
▁veriya	-10.512
▁HIT	-10.512
ung	-10.5122
rk	-10.5126
ngada	-10.5128
▁parvai	-10.5128
▁avanuku	-10.5131
▁sollanum	-10.5133
▁papa	-10.5139
▁unmaya	-10.5142
▁பார்க்கும்	-10.5146
hum	-10.5147
nath	-10.515
op	-10.515
▁kaat	-10.5158
▁ul	-10.5159
▁yella	-10.5168
▁150	-10.5177
▁🤗	-10.5179
▁alu	-10.5179
▁puli	-10.5184
ட்டும்	-10.5185
▁puriya	-10.5186
▁ama	-10.5189
%	-10.5196
னை	-10.5208
▁Ungaluku	-10.5214
▁puriyum	-10.5216
▁nera	-10.5216
▁தவிர	-10.5218
▁Pundai	-10.5221
▁ANNA	-10.523
▁Ungala	-10.523
uva	-10.5232
▁him	-10.5233
appo	-10.5233
▁kodu	-10.5239
▁Keka	-10.524
▁1.	-10.5244
▁polaye	-10.5248
▁komali	-10.5249
▁aj	-10.5252
த்த	-10.526
▁free	-10.5262
ful	-10.5268
▁target	-10.5274
▁solrathu	-10.5275
▁ivalo	-10.5276
▁los	-10.5278
▁Periya	-10.528
▁luck	-10.5282
▁dr	-10.5283
▁enada	-10.5283
raga	-10.5288
vittu	-10.529
▁murugan	-10.5292
▁yena	-10.5293
▁equal	-10.5298
▁single	-10.5311
®	-10.5314
▁இந்தப்	-10.5322
▁Bollywood	-10.5325
▁performance	-10.5325
▁அப்புறம்	-10.5325
▁Today	-10.5325
▁இசை	-10.5328
▁because	-10.5328
▁vaalthukkal	-10.5329
▁samy	-10.5333
▁Be	-10.5335
▁verithanama	-10.5335
▁maat	-10.5337
▁Ah	-10.5338
!!!!!	-10.5343
▁thoda	-10.5343
je	-10.5347
▁buy	-10.5351
▁eppavum	-10.5358
▁dupe	-10.5363
▁kuthu	-10.5368
▁dub	-10.5371
vam	-10.5372
avar	-10.5377
maari	-10.5379
▁ith	-10.5383
▁thalaya	-10.539
▁0:4	-10.5413
▁800	-10.5413
▁idhuku	-10.5416
ooooo	-10.5419
***	-10.5421
▁ennamo	-10.5425
▁Yaara	-10.5434
▁pair	-10.5434
▁One	-10.5437
கடலூர்	-10.5437
▁ellaam	-10.544
shi	-10.5444
▁mohan	-10.5449
▁adhigama	-10.5451
kodi	-10.5452
ban	-10.5453
▁pombala	-10.5455
▁ungal	-10.5455
galum	-10.5455
aaaaaaaaaaaaa	-10.5459
74	-10.5463
ச்	-10.5463
vala	-10.5479
gen	-10.5481
vida	-10.5481
▁அப்போ	-10.5484
▁2:0	-10.5485
▁thanni	-10.5486
▁nalaiku	-10.5489
▁podi	-10.5491
▁really	-10.5499
▁நம	-10.5503
key	-10.5504
▁ஜாதியை	-10.5511
iyil	-10.5517
▁item	-10.5523
▁bana	-10.5531
▁Anga	-10.5533
marana	-10.5537
▁Jathi	-10.5543
thar	-10.5543
▁suit	-10.5556
dd	-10.5557
▁villain	-10.5557
▁irukkanum	-10.5558
gan	-10.5559
.............	-10.5559
▁girls	-10.556
ruchu	-10.556
▁Anand	-10.5561
runga	-10.5569
▁account	-10.5573
▁thaliva	-10.5576
dai	-10.5577
▁pesama	-10.5586
▁mala	-10.5587
34	-10.559
mins	-10.5591
▁well	-10.5593
▁இட	-10.5597
▁God	-10.5601
▁Ilayaraja	-10.5603
്	-10.5605
▁Yella	-10.5606
▁Nayagan	-10.5606
▁¤	-10.561
▁master	-10.5612
▁Blockbuster	-10.5616
▁late	-10.5617
▁pathuttu	-10.5619
▁adhula	-10.5622
▁Sri	-10.5624
▁thane	-10.5626
tes	-10.5627
duthu	-10.5628
▁உடையார்	-10.5633
▁Vetri	-10.5634
▁மதம்	-10.5635
▁Chinna	-10.5636
unaku	-10.564
▁sotta	-10.5641
▁padika	-10.5651
▁tak	-10.5657
▁maadhiri	-10.5664
▁box	-10.567
ky	-10.5675
▁aguthu	-10.5683
ruthu	-10.5683
▁motha	-10.5684
▁VA	-10.569
▁என்றும்	-10.5691
▁mis	-10.5694
ous	-10.5695
▁gang	-10.5701
▁Kuda	-10.5706
▁dec	-10.5711
AM	-10.5711
▁badu	-10.5711
vom	-10.5722
▁anils	-10.5722
▁kel	-10.5723
▁மனமார	-10.5724
▁pun	-10.5727
nte	-10.5731
ton	-10.5732
thaa	-10.5734
▁இல்லாத	-10.5734
▁did	-10.5735
▁oli	-10.5737
▁slow	-10.574
▁sen	-10.574
▁mr	-10.5743
வை	-10.5748
malai	-10.5751
▁anand	-10.5761
▁feeling	-10.5761
▁கொலை	-10.5763
▁innu	-10.5766
ized	-10.5768
athai	-10.5768
▁irupan	-10.5769
▁samma	-10.577
▁made	-10.5774
idam	-10.579
▁நம்ப	-10.579
▁Big	-10.5792
▁kadhai	-10.5793
ாத	-10.5796
thunu	-10.5802
lunga	-10.5802
▁irukkura	-10.5803
73	-10.5807
▁போ	-10.5808
tiya	-10.5816
வ	-10.5819
▁ennaku	-10.5821
▁climax	-10.5827
▁sami	-10.5828
aaaaaaaaaa	-10.583
kooda	-10.5832
▁19	-10.5836
▁pakalam	-10.5836
▁veera	-10.5839
▁naanum	-10.584
▁Kavi	-10.584
vali	-10.5842
▁eruntha	-10.5845
▁ind	-10.585
................	-10.5852
▁பாத்து	-10.5852
▁அவங்க	-10.5854
hy	-10.5857
▁tar	-10.5865
▁eng	-10.5878
▁Panni	-10.5884
▁kalai	-10.5886
▁English	-10.5888
▁sal	-10.5892
▁Daii	-10.5894
▁podanum	-10.5895
▁Sama	-10.5895
▁saarbaga	-10.5896
▁மிஷ்கின்	-10.5897
▁ஏன்டா	-10.5899
▁Day	-10.5899
▁vaaya	-10.5899
▁pannura	-10.59
▁maar	-10.5903
▁OF	-10.5908
தே	-10.591
▁பணம்	-10.5911
▁AND	-10.5911
▁daaaa	-10.5913
▁vishayam	-10.5915
▁vil	-10.5919
ice	-10.5924
▁irukalam	-10.5926
atti	-10.593
▁ellarukum	-10.5935
▁Masss	-10.5937
▁bayama	-10.5938
▁sab	-10.5938
kira	-10.5943
lle	-10.5945
sai	-10.5946
▁kali	-10.5947
▁thanama	-10.5949
▁sel	-10.5955
tom	-10.5957
▁padamum	-10.5958
if	-10.5961
▁yeduthu	-10.5961
▁bus	-10.5965
33	-10.5967
kirathu	-10.597
ravanga	-10.5976
▁final	-10.598
pad	-10.5981
pal	-10.5983
▁blue	-10.5997
▁pudikum	-10.6002
▁puri	-10.6003
▁Eppo	-10.6005
way	-10.6005
iyan	-10.6011
▁edho	-10.6011
▁money	-10.6015
200	-10.6017
Malayalam	-10.6018
gs	-10.6021
▁body	-10.6024
ING	-10.6041
▁ponnunga	-10.6042
▁pannalam	-10.6047
▁laga	-10.6049
▁solran	-10.605
லும்	-10.6053
app	-10.6055
tv	-10.6057
▁பாதிக்கப்பட்ட	-10.6057
ndhu	-10.6058
▁varusham	-10.6063
aaga	-10.6064
▁varen	-10.6067
gada	-10.6069
▁solunga	-10.6078
▁Chekk	-10.6082
▁எப்போ	-10.6084
uran	-10.6085
atu	-10.6086
kp	-10.6088
▁Jo	-10.6088
▁neeye	-10.609
andi	-10.6091
▁verum	-10.6092
▁mai	-10.6093
▁down	-10.6102
▁take	-10.6102
...............	-10.6107
▁Bhai	-10.612
▁Bigg	-10.6122
▁எவன்	-10.6124
▁Sam	-10.6127
Suriya	-10.6129
ac	-10.6131
ttum	-10.6132
▁பெண்களுக்கு	-10.6137
▁Nanba	-10.6141
lanu	-10.6143
▁naalu	-10.6152
rm	-10.6155
▁paath	-10.616
raja	-10.6167
▁பிறந்த	-10.6168
▁yr	-10.6169
▁sister	-10.6171
▁ae	-10.6173
▁இருந்தா	-10.6176
▁expect	-10.618
▁தெரியுது	-10.6181
▁தயவு	-10.6182
▁நண்பா	-10.6182
lways	-10.6182
▁Acting	-10.6185
▁vaal	-10.6185
▁வாழ்த்துகிறேன்	-10.6186
▁VERA	-10.6186
▁Kandippa	-10.6187
▁Tharamana	-10.619
▁100%	-10.619
▁Eppa	-10.619
▁maha	-10.6194
▁எவ்வளவு	-10.6196
▁nadaga	-10.6199
▁வருது	-10.6199
▁கூட்டம்	-10.6199
▁ell	-10.6201
▁NTK	-10.6201
▁சேலம்	-10.6201
▁vittutu	-10.6204
▁பிறகு	-10.6204
▁karnan	-10.6212
63	-10.6215
▁arasiyalukku	-10.6216
▁vandh	-10.6219
inka	-10.6223
▁vir	-10.6223
kalama	-10.6233
▁uda	-10.6236
▁pathalum	-10.6236
தா	-10.6237
▁government	-10.624
▁Cinema	-10.6241
▁வன்னியர்கள	-10.6244
▁irukken	-10.6244
yen	-10.6246
▁தம்பி	-10.6246
thy	-10.6246
▁mal	-10.6249
▁suma	-10.6251
▁PUNDA	-10.6252
01	-10.6255
▁subscribe	-10.6268
mb	-10.627
▁enjoy	-10.6274
▁thank	-10.6276
▁neeyum	-10.6278
ume	-10.6278
lakh	-10.6281
▁other	-10.6284
athukku	-10.6289
try	-10.6294
▁eduth	-10.6298
▁ayya	-10.6299
▁Rajani	-10.6302
▁poli	-10.6303
58	-10.6304
▁Thank	-10.6306
ைய	-10.6309
▁abuse	-10.6311
▁katchi	-10.6312
▁sta	-10.6316
▁IS	-10.6316
kama	-10.6321
▁thalaivaaaaa	-10.6321
asa	-10.6323
▁mega	-10.6325
ist	-10.6325
▁DA	-10.6325
aaaaaaaaaaaa	-10.6328
oooooooooooooo	-10.633
aaaaaaaaaaa	-10.6337
tr	-10.6338
▁அவர்கள	-10.6339
▁Idha	-10.634
▁ci	-10.634
▁patt	-10.6342
▁He	-10.6342
▁actors	-10.6343
▁right	-10.6344
yoda	-10.6349
▁ph	-10.6356
▁pud	-10.6365
uttu	-10.6366
▁seekiram	-10.6369
ngale	-10.6383
▁ஒ	-10.6387
్	-10.6388
▁காட்ட	-10.6389
gt	-10.639
▁saga	-10.639
▁parava	-10.6394
yyyy	-10.6403
▁Ithuku	-10.6404
▁serial	-10.6407
@	-10.6414
▁Pera	-10.6415
ruka	-10.6415
uringa	-10.6421
▁vecha	-10.6425
udi	-10.6428
▁Sari	-10.6435
year	-10.6435
▁Kulla	-10.6435
▁lik	-10.6445
,,,,	-10.6446
cu	-10.6451
▁adhuku	-10.6454
▁eppavume	-10.6456
▁Se	-10.6458
vlo	-10.6461
▁eruk	-10.6465
▁Avanga	-10.6468
▁FAN	-10.647
▁chennai	-10.6473
75	-10.6474
▁thavira	-10.6476
dr	-10.6479
ा	-10.6484
]	-10.6485
▁‘	-10.6485
▁Anyone	-10.6486
▁வந்தாலும்	-10.6486
▁under	-10.6488
▁sarpaga	-10.6489
▁month	-10.6489
eeeee	-10.6491
▁thookitu	-10.6495
aaaaaaaa	-10.6495
▁pallavi	-10.6496
▁padathoda	-10.6498
▁vay	-10.6499
▁irukeenga	-10.6503
▁THALAIVAR	-10.6505
▁madhri	-10.651
▁poora	-10.651
▁Vivegam	-10.6511
▁picha	-10.6514
kke	-10.6518
▁முடியும்	-10.6518
▁air	-10.6523
▁ayyo	-10.6523
ym	-10.6528
▁koduthu	-10.6531
rama	-10.6532
annu	-10.6534
▁திரு	-10.6538
▁Vanthu	-10.654
▁yepdi	-10.6541
▁Maranam	-10.6543
▁அதுல	-10.6544
tho	-10.6546
▁kor	-10.6547
▁கடைசி	-10.6552
llu	-10.6553
▁thonuthu	-10.6561
▁Anil	-10.6561
▁edha	-10.6565
▁கோமாளி	-10.6566
ல்ல	-10.6569
xxxxxxxxxxxxxxxx	-10.6574
▁em	-10.6575
▁lol	-10.6576
▁men	-10.6581
▁keda	-10.6583
▁aad	-10.6584
▁ara	-10.6585
bad	-10.6586
▁kathu	-10.6587
▁Dan	-10.6587
▁karnataka	-10.659
song	-10.6593
57	-10.6599
ure	-10.66
▁வழி	-10.6605
jo	-10.6605
▁/	-10.6606
▁irutha	-10.6608
▁range	-10.661
▁Koothi	-10.6614
arum	-10.6616
▁வாழ்த்து	-10.6617
vargal	-10.6617
▁thalaivaaaaaa	-10.6621
uru	-10.6623
▁mayiru	-10.6625
▁own	-10.6627
▁panne	-10.663
▁sattai	-10.6631
▁thalaivaaaaaaaa	-10.6632
oom	-10.6637
urathu	-10.6638
▁இருக்கான்	-10.6638
thiya	-10.6639
▁dmk	-10.6641
ள	-10.6643
▁வெள்ளாள	-10.6644
▁inime	-10.6645
▁naaye	-10.6647
▁uc	-10.6651
ci	-10.6652
▁நாய்	-10.6654
▁konja	-10.666
▁nariya	-10.6661
▁aaya	-10.6664
▁setha	-10.6669
▁umbu	-10.6669
vadhu	-10.6675
▁varama	-10.6676
mmmm	-10.6678
lin	-10.6679
▁head	-10.6684
▁உ	-10.6689
▁1:2	-10.6692
ities	-10.6693
▁cartoon	-10.6694
▁தர	-10.6696
▁namb	-10.6696
▁ju	-10.6697
▁madam	-10.6698
▁lg	-10.6705
▁Nu	-10.6707
46	-10.6708
nalla	-10.6715
▁muttal	-10.6717
umbothu	-10.6717
▁adei	-10.6718
thalaivar	-10.6719
▁vaaa	-10.6725
▁mon	-10.6727
77	-10.673
yin	-10.6733
anuga	-10.6734
▁End	-10.6739
▁Katta	-10.6741
▁வலி	-10.6746
▁kootam	-10.6748
▁Apdiye	-10.6753
▁sollura	-10.6756
▁முறை	-10.6757
▁cm	-10.6759
▁play	-10.6762
▁paraak	-10.6767
▁nen	-10.6769
▁vee	-10.677
rn	-10.6774
thanam	-10.6784
▁badhil	-10.6784
▁padathukku	-10.6785
▁அனைவர	-10.6785
▁omg	-10.6786
▁engala	-10.6788
▁mins	-10.6792
▁MOVIE	-10.6796
▁தமிழர்	-10.6797
▁Jayalalitha	-10.6798
▁Pandey	-10.6799
▁கல்யாணம	-10.6799
▁cool	-10.6799
▁Fake	-10.68
▁theriyadhu	-10.68
▁தடை	-10.6801
▁நாடகக்	-10.6802
▁என்பதை	-10.6802
▁IN	-10.6803
▁வச்சாலும்	-10.6803
▁இதில்	-10.6806
▁Tamilnadu	-10.6807
▁manam	-10.6812
mela	-10.6812
▁விஸ்வகர்ம	-10.6812
▁Mavane	-10.6813
▁perumai	-10.6814
▁pogudhu	-10.6815
▁varatum	-10.6816
▁Arya	-10.6816
▁பரியேறும்	-10.6818
▁gonna	-10.682
▁0:3	-10.6822
00	-10.6824
naga	-10.6824
ou	-10.6828
▁மீண்டு	-10.6831
▁op	-10.6832
▁kajal	-10.6836
▁pogum	-10.6842
ence	-10.6843
alama	-10.6844
▁tough	-10.6844
▁paathi	-10.6846
nta	-10.6847
▁🤣🤣🤣🤣	-10.6851
tic	-10.6853
▁சமுதாயத்தின	-10.6854
▁vaya	-10.6855
▁easy	-10.6855
▁Adha	-10.6856
▁!!!!	-10.6857
▁nega	-10.6858
avadhu	-10.6861
▁டிரெய்லர்	-10.6864
▁idu	-10.6869
▁திருமா	-10.6875
kiran	-10.6876
▁இரு	-10.6877
▁kaata	-10.6878
varum	-10.6879
ruken	-10.6881
▁unnoda	-10.6882
▁poor	-10.6883
▁kha	-10.6883
▁pidicha	-10.6887
▁Deii	-10.6888
▁வாழ்க்கை	-10.6888
▁பேசி	-10.6892
▁0:5	-10.6893
▁Film	-10.6897
▁Veet	-10.69
adhi	-10.6911
வது	-10.6912
▁dev	-10.6923
▁பிள்ளைகளை	-10.6924
▁Feel	-10.693
▁thirupi	-10.6933
▁idhe	-10.6935
70	-10.6936
lli	-10.694
▁vendiya	-10.6941
▁vaang	-10.6942
▁போடுங்க	-10.6944
▁gr	-10.6948
▁karumam	-10.695
rana	-10.6954
▁nadanthu	-10.6954
▁kelambu	-10.6959
ding	-10.6964
▁santhosam	-10.6967
▁பிள்ளைகள	-10.6967
ame	-10.6973
radha	-10.6975
த்துல	-10.6976
res	-10.6984
fx	-10.6985
ree	-10.6986
avu	-10.699
▁oombura	-10.6992
▁lanka	-10.6994
lakhs	-10.6995
▁,,,	-10.6996
▁high	-10.6999
78	-10.7004
▁matan	-10.7004
▁sin	-10.7013
▁call	-10.7018
ர்ந்த	-10.7019
▁[	-10.702
ster	-10.7029
▁matri	-10.7031
kiringa	-10.7032
▁padutha	-10.7033
▁msg	-10.7035
▁rahi	-10.7039
▁vandu	-10.7046
▁alla	-10.7052
▁வாங்கி	-10.7055
▁bas	-10.7062
▁1:	-10.7067
▁log	-10.7074
▁udane	-10.7075
▁therla	-10.7081
▁az	-10.7084
edu	-10.7086
▁pudikkum	-10.7088
▁yeppa	-10.7093
▁ஆண்	-10.7094
▁epudi	-10.7097
mente	-10.7098
ov	-10.7099
ayam	-10.7099
ungal	-10.7105
▁SIR	-10.7105
men	-10.7105
▁karuthu	-10.7108
der	-10.7108
elam	-10.711
▁ஓ	-10.7113
ber	-10.7116
▁qu	-10.7118
▁பார்ப்போம்	-10.712
ide	-10.712
▁திரையில்	-10.7121
▁இருக்கிறது	-10.7121
▁losliya	-10.7122
▁பைத்தியம்	-10.7122
sin	-10.7126
▁paat	-10.7135
▁வம்சம்	-10.7137
▁before	-10.7139
▁delete	-10.7147
▁சா	-10.7149
▁thalai	-10.7149
▁jay	-10.715
▁Prakash	-10.7152
▁பொண்ணும்	-10.7155
ayi	-10.7161
pom	-10.7162
▁Do	-10.7163
▁tamilan	-10.7166
ீங்க	-10.717
akku	-10.717
▁உயர்	-10.7172
romba	-10.7179
taru	-10.7183
▁theru	-10.7184
▁vo	-10.7185
▁கொள்ள	-10.7185
86	-10.7191
▁சொல்ற	-10.7192
▁gun	-10.7192
▁hari	-10.7198
▁Let	-10.7198
▁Aug	-10.72
▁உதயநிதி	-10.7203
gale	-10.7204
சாதி	-10.7208
▁worst	-10.7208
▁ooda	-10.7212
▁choose	-10.7214
▁ivar	-10.7214
▁hindu	-10.7214
66	-10.7214
▁appuram	-10.7215
▁Mohanlal	-10.7243
▁0:	-10.7246
▁Thalaivaaaaa	-10.7248
▁Kya	-10.7252
▁pannum	-10.7257
py	-10.7257
▁ivanga	-10.7267
lae	-10.7269
▁kaatu	-10.7272
▁tube	-10.728
art	-10.7281
▁bal	-10.7281
▁Su	-10.7283
▁home	-10.7294
▁Idhula	-10.7295
▁maaru	-10.7296
adhinga	-10.7298
▁ulagam	-10.7309
▁பெறும்	-10.7313
▁arjun	-10.7316
paru	-10.7316
kitu	-10.7318
▁soo	-10.7322
▁""	-10.7324
▁yea	-10.7327
life	-10.7329
▁Str	-10.7332
▁vakku	-10.7336
▁Ini	-10.7336
ிங்க	-10.7338
▁கல	-10.7341
▁ayan	-10.7343
▁Plz	-10.7346
ipo	-10.7348
68	-10.735
▁Chi	-10.7351
61	-10.7361
▁ennanu	-10.7368
▁panradhu	-10.7368
▁shit	-10.7373
கிட்டு	-10.7375
ந்த	-10.7378
▁chan	-10.7385
rathukku	-10.7388
▁kaila	-10.7391
▁manusan	-10.7391
avey	-10.7397
▁pochu	-10.7403
▁Enn	-10.7404
ht	-10.7404
▁........	-10.7406
▁picture	-10.7408
▁liye	-10.7413
▁Go	-10.7415
▁adika	-10.7417
ன்னா	-10.7417
▁section	-10.7418
ttam	-10.7421
38	-10.7426
மாக	-10.7427
▁kathai	-10.7429
bg	-10.7432
▁akshay	-10.744
▁theriya	-10.744
▁original	-10.7444
▁nadakka	-10.745
vaa	-10.7452
pat	-10.7456
Birthday	-10.7457
▁Get	-10.7457
▁Vetrimaran	-10.7458
▁BEST	-10.7458
▁jayalalitha	-10.7458
▁nara	-10.746
mas	-10.7461
▁kekura	-10.7461
▁chiyan	-10.7464
▁oora	-10.7464
▁பாடம்	-10.7466
▁ID	-10.7467
aal	-10.7468
▁movane	-10.7468
▁Police	-10.7471
yellam	-10.7478
▁mandi	-10.7478
▁Caste	-10.7483
▁ட்ரெய்லர்	-10.7485
ையே	-10.7485
▁மாட்டான்	-10.7486
als	-10.7486
▁wishes	-10.749
▁cross	-10.7493
▁yean	-10.7497
KV	-10.7498
▁vazhi	-10.7498
▁else	-10.75
panga	-10.7505
ngaluku	-10.7505
▁vekka	-10.7506
47	-10.7517
▁haha	-10.7517
▁pottutu	-10.7518
ists	-10.7519
▁pannuva	-10.7519
▁kadha	-10.752
▁கொஞ்சம	-10.7522
mey	-10.7522
யான	-10.7523
▁moment	-10.7523
kurathu	-10.7523
▁hogi	-10.7525
▁pakala	-10.7533
▁their	-10.7536
▁YOU	-10.7538
▁erukkum	-10.7538
▁மனமா	-10.754
▁vaati	-10.7548
▁hey	-10.755
mala	-10.7553
ians	-10.7553
▁17	-10.7555
uvom	-10.7555
ete	-10.7558
▁vech	-10.7559
ties	-10.7562
vangala	-10.7562
104	-10.7566
▁pongada	-10.7567
▁kas	-10.757
vae	-10.7572
tte	-10.758
▁chey	-10.7585
▁fu	-10.7587
▁Man	-10.7589
▁saadhi	-10.7598
itta	-10.7601
தை	-10.7601
ach	-10.7608
▁yoda	-10.761
▁pog	-10.761
▁social	-10.7613
▁pand	-10.7617
▁ந	-10.7619
▁varinga	-10.762
▁Vi	-10.7622
▁madhu	-10.7622
48	-10.7631
▁sonnaru	-10.7632
lly	-10.7633
▁pool	-10.7633
▁normal	-10.7638
▁Wish	-10.764
▁vainga	-10.7643
▁Thalaivaaaa	-10.7644
ip	-10.7648
▁ru	-10.7651
▁aaguthu	-10.7655
▁othu	-10.766
▁pudi	-10.7662
▁kaaran	-10.7664
▁kolai	-10.7666
coin	-10.7666
▁form	-10.7672
▁bit	-10.7675
▁deepavali	-10.7676
▁oot	-10.7683
65	-10.7692
▁thedi	-10.7696
▁road	-10.77
▁tharkuri	-10.7701
▁kevalam	-10.7701
▁யா	-10.7702
cs	-10.7707
35	-10.7713
zu	-10.7714
▁es	-10.7716
▁ஊர்	-10.7717
▁mut	-10.7718
▁Dislikes	-10.7718
▁vatti	-10.7721
▁kudukka	-10.7724
▁elarum	-10.7731
ção	-10.7732
▁tok	-10.7735
▁varuva	-10.7745
▁paathavanga	-10.7747
▁pudunga	-10.7748
▁saa	-10.7749
may	-10.7755
▁kv	-10.7758
55	-10.7762
▁za	-10.7769
▁respect	-10.7777
▁naye	-10.7781
▁kadai	-10.7784
▁மக்களை	-10.7787
▁inter	-10.7795
tor	-10.7795
▁poidu	-10.7796
▁Update	-10.7798
▁kelatu	-10.78
▁Corona	-10.7801
▁VFX	-10.7803
▁ஒழிக்க	-10.7803
▁சரக்கு	-10.7803
▁Style	-10.7805
▁pannuvom	-10.7805
▁pul	-10.7806
▁LOVE	-10.7807
▁mudiyuma	-10.7807
Rangaraj	-10.7807
ws	-10.781
▁Here	-10.7815
▁pochi	-10.7815
punda	-10.7815
▁layum	-10.7815
mohan	-10.7816
▁yum	-10.7818
▁காலம்	-10.782
▁joke	-10.7821
▁Vai	-10.7822
▁வேறு	-10.7824
▁nerkonda	-10.7825
eagerly	-10.7827
▁Sarkar	-10.7828
▁pannen	-10.7831
ami	-10.7831
▁thalaivara	-10.7832
▁market	-10.7832
▁industry	-10.7834
▁pinnadi	-10.7834
▁kirukku	-10.7835
▁pannuna	-10.7835
ுடைய	-10.784
▁illada	-10.7844
▁chai	-10.7845
▁paakanum	-10.7849
▁கோடி	-10.7852
▁Ore	-10.7853
▁gud	-10.7854
▁GV	-10.7856
▁sports	-10.7857
C	-10.7858
▁podunge	-10.7858
▁அவர	-10.7859
wo	-10.7861
▁maas	-10.7863
▁walk	-10.7864
den	-10.787
▁interview	-10.7872
az	-10.7874
▁paththi	-10.7876
▁shi	-10.7881
plus	-10.7882
▁south	-10.7893
▁koi	-10.7896
▁Sa	-10.7896
ssss	-10.7902
▁ud	-10.7902
▁varumnu	-10.7905
▁mutti	-10.7906
▁படைப்பு	-10.7908
▁pannalum	-10.7912
▁நடக்கும்	-10.7918
▁Vantha	-10.7923
idi	-10.7924
enu	-10.7927
ab	-10.7928
▁முயற்சி	-10.7934
▁pannuvanga	-10.7937
sing	-10.794
🤗	-10.7942
▁deva	-10.7943
▁Oda	-10.7944
▁pir	-10.7944
nuga	-10.7946
▁mask	-10.7951
iva	-10.7955
76	-10.7956
▁varra	-10.7958
▁செய்த	-10.7958
▁adaya	-10.7964
▁mathiriye	-10.7965
gana	-10.7966
▁வைக்க	-10.7968
▁Ad	-10.7971
ude	-10.7977
▁kudhi	-10.7981
ue	-10.7982
99	-10.7986
▁ஓடி	-10.7986
▁pannatha	-10.799
▁mudiya	-10.7991
▁seth	-10.7991
ise	-10.7994
pada	-10.7995
iram	-10.7999
bgm	-10.8001
bol	-10.8005
▁sathiyama	-10.8006
37	-10.8009
▁mur	-10.801
▁thooku	-10.801
▁spam	-10.801
ாம	-10.8012
▁aama	-10.8012
னாலும்	-10.8013
▁காசு	-10.8014
▁பறையர்	-10.8017
▁Ippadi	-10.8019
லை	-10.802
▁seruppadi	-10.8027
▁irrukku	-10.8028
▁irukkom	-10.8038
..............	-10.8038
till	-10.8038
▁kondan	-10.804
ser	-10.8044
â	-10.8049
ries	-10.8053
▁aaganum	-10.8053
iri	-10.8054
▁tri	-10.8064
▁ஓட	-10.8064
வ்ளோ	-10.8068
▁nenachu	-10.8073
▁bore	-10.8075
▁mokkaya	-10.8076
aar	-10.8078
dance	-10.8078
▁must	-10.8079
ranunga	-10.808
▁Maas	-10.8083
▁prachana	-10.8085
▁achi	-10.8089
yathu	-10.8089
್	-10.809
▁hope	-10.8095
▁ethula	-10.8096
▁ய	-10.8099
▁1.3	-10.8099
▁let	-10.8103
▁aasa	-10.8105
▁apparam	-10.8106
ese	-10.8107
aaaaaaaaa	-10.8108
▁senju	-10.8109
uddin	-10.8109
▁nir	-10.811
▁saree	-10.811
sec	-10.8111
▁ரெண்டு	-10.8116
▁matu	-10.8116
▁iruppa	-10.8122
vj	-10.8124
▁பன்ன	-10.813
▁agree	-10.8134
▁Ar	-10.8135
▁#1	-10.8135
▁dubbing	-10.8141
▁nnu	-10.8146
93	-10.8147
▁ithana	-10.8149
tchi	-10.8154
▁Selvaraghavan	-10.8155
▁political	-10.8161
▁மணிரத்னம்	-10.8161
▁Unmaiya	-10.8164
▁ஒட்டுமொத்த	-10.8166
▁kullan	-10.8168
▁yaravathu	-10.8168
▁Gethu	-10.8168
▁pangaali	-10.8169
▁nayakan	-10.817
pathu	-10.817
▁Gommala	-10.8172
▁kann	-10.8174
▁nadippin	-10.8181
▁panravanga	-10.8181
▁handsome	-10.8181
▁Epo	-10.8182
▁irundhalum	-10.8183
▁vanguna	-10.8186
▁bathil	-10.8189
nnum	-10.8192
▁PETTA	-10.8193
▁kalla	-10.8194
▁proud	-10.8196
▁Make	-10.8196
▁guess	-10.8197
▁iruthu	-10.8198
▁aasai	-10.82
▁vita	-10.82
▁இவன்	-10.82
▁பரம்பரை	-10.8206
▁pesra	-10.8216
▁வாங்க	-10.8217
▁பொன்ன	-10.8221
▁naga	-10.8222
▁படத்தோட	-10.8223
▁base	-10.8232
▁Pana	-10.8232
▁match	-10.8234
▁1:0	-10.8235
eri	-10.8236
rrrrrrrrrrrrrrrr	-10.8239
dhey	-10.824
anka	-10.8243
▁nenacha	-10.8247
▁budget	-10.8255
name	-10.8258
▁vey	-10.8262
yer	-10.8265
▁anupu	-10.8273
▁onum	-10.8274
▁tune	-10.8277
▁Sethu	-10.8278
guru	-10.8279
▁தெரியல	-10.828
▁போட்ட	-10.828
▁congrats	-10.8282
▁bodhu	-10.8282
▁வேர	-10.8287
▁moo	-10.8288
led	-10.829
▁Oombu	-10.8292
nanga	-10.8294
ire	-10.8298
▁sombu	-10.8301
▁நாட்டு	-10.8303
▁mag	-10.8309
▁far	-10.8316
வு	-10.8318
▁move	-10.8319
music	-10.8321
▁Ch	-10.8321
▁hours	-10.8325
gram	-10.8325
▁vitutu	-10.8326
zi	-10.833
▁kutti	-10.8333
▁cmnt	-10.8333
▁ஓர	-10.8335
டம்	-10.8337
▁ivala	-10.8337
▁dia	-10.8338
ruvanga	-10.8338
▁Daily	-10.8344
▁velila	-10.8345
yya	-10.8354
▁kek	-10.8354
▁total	-10.8357
▁illadha	-10.8357
▁varai	-10.8359
amal	-10.8361
🤔🤔🤔	-10.8361
▁purila	-10.8362
ión	-10.8363
▁Sai	-10.8363
▁சொல்லுங்க	-10.8365
ele	-10.8367
▁Gotha	-10.8368
▁nadantha	-10.8371
வர்	-10.8372
▁செய்தால	-10.8373
▁alaga	-10.8374
dham	-10.8377
attu	-10.8378
athe	-10.8379
▁kul	-10.8381
▁machi	-10.8381
▁கிட்ட	-10.8384
▁sim	-10.8385
THIS	-10.84
▁kaati	-10.8403
▁kill	-10.8405
▁Yarella	-10.8407
rin	-10.8408
▁Namba	-10.8408
▁semmma	-10.8411
▁nd	-10.8416
▁pandran	-10.8416
▁thalaiya	-10.842
▁தனி	-10.8422
▁bol	-10.8423
▁thangachi	-10.8426
▁கீழ்	-10.8428
ndra	-10.8431
▁வே	-10.8432
▁kut	-10.8433
▁cho	-10.8435
▁speech	-10.8436
""	-10.8437
▁AR	-10.8437
▁அப்பா	-10.8442
▁potru	-10.8444
▁irru	-10.8445
▁gal	-10.8446
▁irupa	-10.8446
🤣🤣🤣🤣	-10.8452
▁punde	-10.8453
▁kaal	-10.846
not	-10.8462
▁tamizha	-10.8464
▁wh	-10.8471
▁masssssss	-10.8472
▁light	-10.8478
▁amai	-10.8484
lana	-10.8487
03	-10.8487
▁Thalaivaaaaaa	-10.8491
▁தேவை	-10.8491
▁kodumai	-10.8495
▁Kooda	-10.8503
dhum	-10.8507
▁kuduth	-10.8512
▁ari	-10.8514
kada	-10.8516
▁yu	-10.8517
▁காதலுக்கு	-10.852
▁Rendu	-10.8526
▁accept	-10.8526
▁இருக்கீங்க	-10.8526
▁நண்பர்களே	-10.8526
▁sav	-10.8527
▁எதிராக	-10.853
▁VIEWS	-10.8531
..?	-10.8532
▁modi	-10.8532
▁தமிழ்நாட்டில்	-10.8534
▁kh	-10.8535
ப்பு	-10.8536
▁step	-10.8537
▁Never	-10.8537
▁மூலம்	-10.8537
▁RAJINI	-10.8537
▁பக்கம்	-10.8537
▁poram	-10.8538
▁football	-10.8538
▁Goosebumps	-10.8538
inch	-10.8543
▁தேவிடியா	-10.8544
▁paapom	-10.8545
▁lockdown	-10.8545
▁kabali	-10.8546
▁ilayaraja	-10.8546
▁direct	-10.8548
▁mavaney	-10.8548
▁Kannada	-10.8552
▁போகுது	-10.8555
ede	-10.8556
▁வெளி	-10.8558
▁Thalaya	-10.8561
▁thapu	-10.8561
galukku	-10.8562
uh	-10.8565
▁இல்லையா	-10.8566
hat	-10.8566
▁நேரம்	-10.8566
36	-10.8567
▁ராஜா	-10.8567
ulu	-10.8569
▁poy	-10.8573
▁சொந்த	-10.8573
ிடம்	-10.8575
▁varadha	-10.8575
sri	-10.8578
▁payalae	-10.8579
patta	-10.8579
▁vac	-10.8582
▁thaanga	-10.8583
▁venalum	-10.8585
▁uru	-10.8587
▁nadakathu	-10.8592
▁:-	-10.8592
▁pesatha	-10.8593
nes	-10.8594
▁alavukku	-10.8596
pm	-10.8596
▁irupanga	-10.8597
▁குலம்	-10.8599
▁pain	-10.8604
▁Pannu	-10.8609
yea	-10.861
▁unn	-10.8615
▁பிடித்த	-10.8615
▁polam	-10.8619
▁pund	-10.8619
mam	-10.8624
▁pans	-10.8624
▁mod	-10.8629
▁Varla	-10.8629
ima	-10.863
▁Neega	-10.8634
▁Padathula	-10.8634
▁suttu	-10.8635
ek	-10.8638
▁MA	-10.8639
▁why	-10.8641
ning	-10.8643
▁seeing	-10.8649
▁naraiya	-10.8652
hrs	-10.8658
win	-10.8661
▁lot	-10.8662
52	-10.8667
▁enkita	-10.8667
kin	-10.8669
▁content	-10.867
▁pathil	-10.8671
▁pakkalam	-10.8672
▁250	-10.8673
▁poiru	-10.8675
▁kundi	-10.8676
▁ambala	-10.868
▁pet	-10.8683
▁diya	-10.8685
irukka	-10.8686
▁cl	-10.8686
▁illaye	-10.8691
▁tam	-10.8691
els	-10.8694
▁perumal	-10.8694
▁shiva	-10.8694
▁VJ	-10.8696
▁ஐ	-10.8698
kavum	-10.8698
▁thapa	-10.87
▁padich	-10.8701
▁rage	-10.8703
▁பார்த்தா	-10.8704
ROM	-10.8704
▁talent	-10.8714
▁adich	-10.8715
ளுக்கு	-10.8719
ಿ	-10.872
▁pinna	-10.8721
▁dont	-10.8721
54	-10.8721
ange	-10.8723
▁padicha	-10.8727
08	-10.873
▁pannathu	-10.8733
aium	-10.8733
▁vaila	-10.8738
▁asingam	-10.8739
og	-10.8745
▁சொல்லும்	-10.8746
▁seithu	-10.8747
▁இன்று	-10.875
ruven	-10.8752
▁ஆயிர	-10.8755
í	-10.8758
ungala	-10.8763
▁இரண்டு	-10.8764
month	-10.8781
▁ked	-10.8783
STR	-10.8784
▁இன்ன	-10.8786
▁engayo	-10.8786
▁paartha	-10.8786
▁kooti	-10.8793
▁mele	-10.8794
▁low	-10.8794
▁ithe	-10.8795
▁Kai	-10.8795
▁katra	-10.88
▁kata	-10.8801
▁chumma	-10.8802
ளை	-10.882
▁arr	-10.8822
▁ennum	-10.8826
▁court	-10.8829
▁hate	-10.8832
▁toh	-10.8837
▁thon	-10.8844
▁starting	-10.8849
▁nikka	-10.8851
official	-10.8857
▁food	-10.886
▁matanga	-10.886
hey	-10.886
▁எது	-10.8866
▁guru	-10.8869
kkal	-10.8872
ij	-10.8873
Varlam	-10.8877
▁மன	-10.8879
innum	-10.8887
wan	-10.8888
mana	-10.8889
▁pandranga	-10.8892
▁kathi	-10.8902
thalapathy	-10.8904
▁andhra	-10.8905
rukkum	-10.8905
▁Aravind	-10.8906
▁ajit	-10.8907
▁தெரிகிறது	-10.891
▁underwear	-10.8912
▁page	-10.8913
▁Kon	-10.8915
▁kindal	-10.8917
▁background	-10.8918
▁இளைஞர்கள்	-10.8919
▁vaalthukal	-10.8919
▁SEMA	-10.892
▁subburaj	-10.8922
alo	-10.8922
▁பாவம்	-10.8923
▁May	-10.8924
▁solranga	-10.8924
▁Unakku	-10.8925
▁certificate	-10.8926
▁கட்ட	-10.8926
▁ரவி	-10.8927
தும்	-10.8935
gka	-10.8935
▁தானே	-10.8938
▁inoruthara	-10.8939
▁shoot	-10.8939
ode	-10.894
▁history	-10.894
▁மனிதன்	-10.8942
▁Rahman	-10.8943
▁More	-10.8943
▁maass	-10.8944
▁lv	-10.8945
▁panatha	-10.8949
▁Thalaivan	-10.8949
▁cheran	-10.8951
▁pengal	-10.8951
▁aduthavan	-10.8953
▁zero	-10.8956
▁rom	-10.8958
▁ethi	-10.8958
▁Naanga	-10.8959
▁meet	-10.896
▁kadavule	-10.8962
ithan	-10.8963
▁simple	-10.8965
iruchu	-10.8965
▁தி	-10.8967
▁Vs	-10.8969
▁mein	-10.8969
▁adimai	-10.8974
▁பாத்த	-10.8976
▁massu	-10.8978
▁bot	-10.8978
▁aap	-10.8981
hr	-10.8986
▁pannavanga	-10.8987
ix	-10.8992
▁edunga	-10.8995
achum	-10.9
▁bio	-10.9001
▁army	-10.9001
▁doi	-10.9002
▁மறு	-10.9003
▁Now	-10.9003
▁மிடுக்கு	-10.9009
▁paduth	-10.901
▁கடந்து	-10.901
▁matra	-10.9011
▁எடுத்தா	-10.9011
▁kitte	-10.9015
hana	-10.9017
▁கொடுத்து	-10.9024
▁paakura	-10.9025
raa	-10.9028
iruntha	-10.903
▁govt	-10.9033
▁pundaigala	-10.9033
duchu	-10.9039
ER	-10.9042
▁ஹீரோ	-10.9044
▁சாதனை	-10.9045
▁குரு	-10.9046
▁ethum	-10.9046
▁Adi	-10.9047
▁Why	-10.9049
uvanga	-10.9049
வேண்டும்	-10.9051
tai	-10.9056
ியா	-10.9056
▁pandravanga	-10.9056
▁As	-10.9058
▁sho	-10.9058
appu	-10.9059
▁ri	-10.9059
mon	-10.9063
▁Paa	-10.9064
▁ras	-10.9064
ukka	-10.9067
lee	-10.9067
vinga	-10.9067
▁gomma	-10.9069
▁சாமி	-10.9071
▁sollita	-10.9071
▁aduthu	-10.9076
▁solluvanga	-10.9078
ச்சு	-10.9079
andha	-10.9083
▁Ba	-10.9083
ral	-10.9086
▁design	-10.909
▁kanth	-10.9092
▁iv	-10.9096
▁koduma	-10.9096
ரஞ்சித்	-10.9098
pakkam	-10.9099
▁bag	-10.9104
▁enkitta	-10.9105
▁ஏ	-10.9107
▁குரூப்	-10.9108
▁பிரச்சனை	-10.9111
▁கேட்டு	-10.9115
lay	-10.9115
▁miga	-10.9116
க்காக	-10.9116
▁ahhh	-10.9118
▁wig	-10.912
▁kunji	-10.9124
▁கதற	-10.9126
▁pidi	-10.9126
▁pesara	-10.9135
▁vandhavanga	-10.9137
▁Sure	-10.9138
our	-10.9139
▁onnume	-10.9143
und	-10.9144
▁innaiku	-10.9144
cc	-10.9145
▁ல்	-10.9146
thalum	-10.9146
▁had	-10.9148
▁ninnu	-10.9149
yavathu	-10.9156
▁mah	-10.9157
ajith	-10.9159
▁lady	-10.9164
▁pakk	-10.9167
riye	-10.9168
▁கள்ளர்	-10.9169
▁frnd	-10.9171
▁crt	-10.9172
▁ce	-10.9175
▁சார்ந்த	-10.9175
box	-10.9176
▁How	-10.9185
க்கல்	-10.9186
duven	-10.9186
▁theriy	-10.9188
▁dog	-10.9188
renga	-10.9192
▁semaiya	-10.9198
▁ending	-10.92
▁shirt	-10.9202
ppan	-10.9203
நாட்டில்	-10.9204
▁vadai	-10.921
alimai	-10.9214
▁cop	-10.9214
runtha	-10.9216
▁Vela	-10.9223
▁press	-10.9223
▁paarthu	-10.9225
ith	-10.9229
▁padum	-10.9234
▁adik	-10.9236
▁puthusa	-10.9236
ean	-10.9238
▁marri	-10.9238
▁kana	-10.9239
▁logic	-10.9242
video	-10.9246
▁pundainga	-10.9246
▁வாழ்	-10.9247
▁padik	-10.9247
▁should	-10.9248
▁sentiment	-10.9252
▁ott	-10.9253
▁OK	-10.9255
▁paapa	-10.9257
▁aay	-10.9257
▁most	-10.9258
▁maariye	-10.9261
▁thee	-10.9264
▁camera	-10.9265
▁massssssss	-10.9266
iz	-10.9267
▁எதுக்கு	-10.9267
▁அவன	-10.927
▁வெ	-10.9281
hard	-10.9285
fan	-10.9285
▁யாதவ	-10.9285
▁gv	-10.9287
▁Song	-10.9289
▁sollra	-10.9289
ph	-10.9292
டன்	-10.9295
▁vendi	-10.9297
room	-10.9297
49	-10.9299
▁vas	-10.9303
▁understand	-10.9309
▁செங்குந்த	-10.931
▁¤£	-10.931
▁Thayoli	-10.9311
▁திருமாவளவன்	-10.9311
▁Kongu	-10.9315
▁audience	-10.9315
▁குறிப்பிட்ட	-10.9316
...!!	-10.9319
▁Haters	-10.9319
▁community	-10.932
▁thiri	-10.932
▁LIKES	-10.9321
▁kollywood	-10.9323
unda	-10.9323
▁malay	-10.9323
▁ஒருவன்	-10.9325
▁Chiyan	-10.9326
▁suthadi	-10.9329
▁Mathiri	-10.9329
▁DHANUSH	-10.933
▁vaazh	-10.9331
▁CD	-10.9336
▁krishna	-10.9339
rat	-10.9339
▁sollittu	-10.934
ona	-10.9348
▁varuvan	-10.9352
▁யூ	-10.9353
▁them	-10.9354
▁irr	-10.9357
ron	-10.9359
ான்	-10.9359
▁1.5	-10.936
▁Podu	-10.9363
▁தலை	-10.9364
ess	-10.9368
▁jaya	-10.937
▁ethavathu	-10.9375
▁இதுக்கு	-10.9383
▁idea	-10.9388
ase	-10.9389
▁samuga	-10.939
▁Aama	-10.9392
pet	-10.9405
▁Ko	-10.9407
▁rasigargal	-10.9407
bs	-10.9409
▁valar	-10.941
▁vad	-10.9412
▁smile	-10.9412
▁fuck	-10.9413
▁vitt	-10.9414
▁odane	-10.9417
paa	-10.9422
kkam	-10.9423
▁there	-10.9425
▁AK	-10.9426
▁raa	-10.9427
yala	-10.9427
▁thit	-10.9431
▁muditu	-10.9436
▁alagu	-10.9437
▁மகிழ்ச்சி	-10.9441
▁Veera	-10.9444
agam	-10.9444
nts	-10.9444
▁rajani	-10.9447
ிற்கு	-10.945
▁மீது	-10.9454
▁இவனுங்க	-10.9459
▁Are	-10.9461
uven	-10.9461
வில்லை	-10.9466
thiram	-10.9466
▁pundaiku	-10.9469
▁thaaan	-10.947
▁films	-10.9471
▁oothu	-10.9471
▁sariyana	-10.9473
▁bala	-10.9473
▁நடிகர்	-10.9473
▁27	-10.9474
nly	-10.9476
▁gen	-10.9476
▁tala	-10.9477
▁pappa	-10.9483
land	-10.9487
▁mannan	-10.9492
▁Semaya	-10.9503
▁pudhu	-10.9522
▁nila	-10.9522
▁int	-10.9524
▁energy	-10.9525
pathy	-10.9528
▁suthi	-10.9532
▁madurai	-10.9535
▁Arasiyal	-10.9538
▁irkum	-10.954
xx	-10.9547
▁anbu	-10.9548
kuren	-10.9554
▁bayam	-10.9555
89	-10.9556
▁Tag	-10.9556
pr	-10.956
▁irunthen	-10.9565
nk	-10.9569
▁irunth	-10.957
05	-10.9574
jan	-10.9575
nji	-10.9578
▁sankar	-10.9578
▁af	-10.9578
chan	-10.9583
▁3.	-10.9585
▁tel	-10.9587
▁mukki	-10.9592
▁issue	-10.9593
chiya	-10.9593
▁kastama	-10.9594
▁இந்திய	-10.9595
tc	-10.9596
▁mak	-10.96
▁pakra	-10.9607
07	-10.9615
▁mudium	-10.9619
get	-10.962
iruken	-10.962
...!!!	-10.9624
யோ	-10.9624
dal	-10.9636
▁fir	-10.9637
▁saami	-10.9641
த்தையும்	-10.9641
ndhi	-10.965
iruka	-10.9654
▁Saathi	-10.9658
kuran	-10.9661
ses	-10.9661
mg	-10.9662
▁nay	-10.9663
ora	-10.9664
▁tir	-10.9665
swamy	-10.9667
▁leg	-10.9667
▁athuvum	-10.9671
▁jeeva	-10.9677
▁aadu	-10.9677
▁sapt	-10.9679
▁mannu	-10.9679
▁ARR	-10.9682
▁safe	-10.9683
▁web	-10.9684
xt	-10.969
tz	-10.9692
▁ticket	-10.9693
W	-10.9693
▁தமிழக	-10.9693
▁vellalar	-10.9702
▁Mu	-10.9705
kudhu	-10.9706
▁அமைய	-10.9709
▁kit	-10.9715
▁every	-10.9717
▁ula	-10.9723
▁வருகிறாள்	-10.9727
▁லவ்	-10.9727
▁ஒதுக்கீடு	-10.9727
gl	-10.9728
▁ரெண்டுமே	-10.9728
▁pandrathu	-10.9728
▁kalichu	-10.9729
▁message	-10.9729
▁colour	-10.973
▁naduvula	-10.9731
▁தர்மபுரி	-10.9732
▁frame	-10.9733
▁தீ	-10.9734
▁Congrats	-10.9734
▁nadikira	-10.9735
▁meme	-10.9736
▁இல்லாமல்	-10.9736
▁Bangam	-10.9737
ld	-10.9738
▁vettai	-10.9739
▁Sankar	-10.974
▁two	-10.9741
▁Sivakarthikeyan	-10.9741
▁jayaraj	-10.9741
▁அதிகம்	-10.9741
▁venna	-10.9742
▁பெண்களின்	-10.9745
▁Ready	-10.9747
▁சின்ன	-10.9751
io	-10.9752
▁pri	-10.9753
iyae	-10.9754
▁நாய்களுக்கு	-10.9754
wi	-10.9756
ganu	-10.9757
▁Daa	-10.976
.,	-10.9762
▁sw	-10.9766
▁daww	-10.9771
rani	-10.9771
▁vanthathu	-10.9772
▁panala	-10.9774
▁kathir	-10.9774
▁sl	-10.9776
yama	-10.9777
▁pakum	-10.9778
ado	-10.9781
▁sp	-10.9781
▁tre	-10.9785
▁varlaam	-10.9786
▁varaikkum	-10.9786
▁இதுவரை	-10.9792
▁avalo	-10.9794
▁kida	-10.9795
▁காட்டி	-10.9796
▁;	-10.9805
▁கெட்ட	-10.9807
▁Guys	-10.9807
▁sut	-10.9809
▁plan	-10.9812
▁bra	-10.9813
athey	-10.9814
uc	-10.9816
▁vedha	-10.9817
nnnn	-10.982
▁didn	-10.9822
sy	-10.9824
▁sura	-10.9829
▁TV	-10.9832
▁kond	-10.9834
▁Ivana	-10.9837
▁இந்து	-10.9839
uth	-10.984
▁amaithiya	-10.9842
▁panran	-10.9843
naal	-10.9844
▁பெயரை	-10.9844
▁place	-10.9847
▁நமக்கு	-10.9847
ரை	-10.9849
▁odum	-10.9849
▁won	-10.9857
▁Una	-10.9863
sar	-10.9864
book	-10.9866
े	-10.9867
▁aagudhu	-10.9868
▁தேவ	-10.9868
hari	-10.9872
▁sex	-10.9873
▁போக	-10.9874
▁ishta	-10.9874
uvan	-10.9875
னால்	-10.9877
riga	-10.9879
▁Vani	-10.9881
▁mariye	-10.9882
▁erukan	-10.9883
oooooo	-10.9888
bb	-10.989
67	-10.9891
▁epavum	-10.9893
kulam	-10.9894
▁panr	-10.9896
▁MG	-10.9897
▁kotta	-10.9901
amum	-10.9904
▁aathi	-10.9908
thoda	-10.9915
hours	-10.9916
▁அதனால	-10.9916
▁athi	-10.9921
▁Pani	-10.9921
▁naatu	-10.9924
eda	-10.9928
▁solura	-10.9932
ux	-10.9932
44	-10.9933
▁nakku	-10.9934
▁sath	-10.9935
▁unmaiyana	-10.9943
▁Modi	-10.9945
▁veriyans	-10.9949
▁nadipu	-10.995
rika	-10.995
nm	-10.9953
thika	-10.9955
இது	-10.9958
▁north	-10.9959
▁ved	-10.9959
▁saavu	-10.9961
▁aw	-10.9965
▁vu	-10.9973
irunthu	-10.998
▁adikanum	-10.9982
▁panravan	-10.9984
tri	-10.9984
▁இளையராஜா	-10.9986
▁Paarunga	-10.9988
aw	-10.9988
▁போன	-10.9991
▁Edit	-10.9991
thane	-10.9993
▁send	-10.9993
▁padichu	-10.9993
2024	-10.9997
▁keel	-10.9997
avi	-10.9998
▁vila	-10.9999
▁kovil	-11.0002
▁pira	-11.0008
▁பாய்ஸ்	-11.0009
▁Inum	-11.0012
▁🤔🤔	-11.0013
samy	-11.0014
ating	-11.0016
▁brain	-11.0017
▁sonn	-11.002
tten	-11.0021
laiyum	-11.0023
dhuku	-11.0025
.1	-11.0026
▁oruvan	-11.003
▁An	-11.0032
▁vin	-11.0033
gy	-11.0039
▁hy	-11.0041
▁thumbnail	-11.0043
▁சமூகத்தில	-11.0045
▁visayam	-11.0047
▁irukara	-11.005
▁Raj	-11.005
▁nattu	-11.005
vanunga	-11.0055
▁self	-11.0057
ger	-11.0058
▁erunthu	-11.0061
aluku	-11.0065
▁mattanga	-11.0066
▁adhe	-11.0067
onu	-11.0067
sari	-11.007
▁மறவர்	-11.0074
є	-11.0078
▁join	-11.0083
▁yappa	-11.0084
with	-11.0087
▁kalyan	-11.0087
▁oka	-11.0089
end	-11.009
▁eri	-11.009
▁muk	-11.0091
ுங்கள்	-11.0092
▁paak	-11.0095
▁Unlike	-11.0096
▁எப்ப	-11.0098
ade	-11.0103
ood	-11.0106
uke	-11.0107
▁auto	-11.0109
▁கா	-11.0111
▁overa	-11.0115
MY	-11.0119
▁aayi	-11.0122
▁tun	-11.0123
▁Nanga	-11.0125
▁evala	-11.0126
82	-11.0128
▁maasss	-11.0129
please	-11.013
▁patu	-11.013
▁erukk	-11.0131
▁und	-11.0133
yuvan	-11.0134
94	-11.0142
▁எவன	-11.0144
aiku	-11.0146
▁theriyudhu	-11.0146
▁Tik	-11.0152
ille	-11.0153
▁interesting	-11.0153
▁26	-11.0153
ox	-11.0154
▁திமுக	-11.0155
petta	-11.0156
88	-11.0156
▁half	-11.0159
▁pakkura	-11.0159
▁Watch	-11.0161
▁தருமபுரி	-11.0161
▁Title	-11.0162
▁yedu	-11.0162
▁Chumma	-11.0162
▁publicity	-11.0162
atta	-11.0163
ங்கடா	-11.0163
▁reservation	-11.0164
nni	-11.0164
▁இப்படத்தை	-11.0165
▁பெண்ணும்	-11.0166
▁hour	-11.0166
ikanum	-11.0166
ple	-11.0167
▁ஏண்டா	-11.0167
▁அடேய்	-11.0168
▁MARANA	-11.0168
▁Kajal	-11.0168
▁nadipin	-11.0168
rthu	-11.0169
?????	-11.017
▁epd	-11.017
▁aunty	-11.0171
▁பிள்ளைமார்	-11.0172
▁kudukanum	-11.0172
▁tea	-11.0172
▁தவறான	-11.0173
▁Manju	-11.0174
▁வரலாறு	-11.0175
▁entertainment	-11.0176
▁திரைப்படத்தை	-11.0177
over	-11.0185
thara	-11.0185
▁அமையும்	-11.0186
▁thaguthi	-11.0186
▁vetrimaran	-11.0187
வங்க	-11.0189
▁gand	-11.0189
▁makkala	-11.019
▁kaappan	-11.019
▁drama	-11.019
▁seiy	-11.0191
▁kila	-11.0192
▁urudhi	-11.0192
ாட்சி	-11.0193
▁0:1	-11.0193
ப்படம்	-11.0199
▁Life	-11.0206
▁means	-11.0209
▁reached	-11.021
his	-11.0211
▁1:5	-11.0213
▁வீடியோ	-11.0216
▁ilatha	-11.0216
▁Neram	-11.0217
▁danush	-11.0219
▁azhaga	-11.022
▁katu	-11.022
alaya	-11.0221
▁வெற	-11.0221
▁Watha	-11.0222
▁இருக்காங்க	-11.0223
▁kadan	-11.0224
▁அரசு	-11.0226
yn	-11.0227
▁Atlee	-11.0228
▁solringa	-11.0229
▁தான்டா	-11.023
fc	-11.0231
▁தைரியம	-11.0232
▁unma	-11.0232
▁sappi	-11.0235
▁answer	-11.0235
apuram	-11.0235
▁avangaluku	-11.0253
▁pannavan	-11.0254
84	-11.0268
idum	-11.0268
gla	-11.0277
ாம்	-11.0279
வின்	-11.0281
▁இத்தன	-11.0282
▁ung	-11.0282
▁thirumbi	-11.0285
▁varan	-11.0292
▁azh	-11.0294
don	-11.0297
▁rhi	-11.03
▁point	-11.03
▁vanthutu	-11.0301
▁yana	-11.0301
▁vedio	-11.0302
▁ALL	-11.0306
duchi	-11.0306
▁nar	-11.0307
▁sis	-11.0309
▁App	-11.031
▁shar	-11.0313
kalukku	-11.0315
wal	-11.0315
▁yet	-11.0318
▁anupi	-11.0319
▁ovvoru	-11.032
▁soldren	-11.0326
▁ey	-11.0327
▁pechu	-11.0331
▁mul	-11.0332
ake	-11.0332
namma	-11.0339
▁பார்	-11.0339
▁Echa	-11.0341
▁serupala	-11.0343
▁mix	-11.0343
▁magane	-11.0344
வாழ்த்துக்கள்	-11.0345
▁padh	-11.0348
▁neeya	-11.0349
▁அவனுக்கு	-11.035
▁key	-11.0351
oon	-11.0351
uuuuuu	-11.0351
▁குடும்பத்த	-11.0353
ddu	-11.0356
▁rls	-11.0357
▁thiruma	-11.0357
த்தனை	-11.0361
▁pesunga	-11.0366
▁irukaa	-11.0366
▁Periyar	-11.0366
Vera	-11.0368
▁vum	-11.037
▁ten	-11.0373
ics	-11.0375
51	-11.0376
fu	-11.0377
▁eduk	-11.0378
vukku	-11.0378
haa	-11.0379
▁சூழ்நிலைய	-11.0379
▁koodadhu	-11.0384
▁ரசிகன்	-11.0384
த்துக்கு	-11.0386
▁tharama	-11.0388
▁supar	-11.039
▁art	-11.0391
..,	-11.0392
▁poranthu	-11.0393
▁vanthinga	-11.0397
kellam	-11.0398
▁audio	-11.0399
▁orru	-11.0401
ுவோம்	-11.0406
sm	-11.0407
▁Come	-11.0407
▁45	-11.0408
sssssssssssssss	-11.0413
▁bl	-11.0416
asi	-11.0416
▁leave	-11.0425
ᗩ	-11.0426
▁suthu	-11.0429
▁room	-11.043
▁thr	-11.0431
ites	-11.0435
kha	-11.0436
▁apdinu	-11.0438
ய்	-11.0441
▁lov	-11.0443
rey	-11.0446
▁அகமுடையார்	-11.0449
▁kis	-11.0449
sed	-11.0454
vana	-11.0456
▁unda	-11.0467
▁wrong	-11.0469
eriya	-11.0474
mum	-11.0477
▁tn	-11.0477
▁akk	-11.0481
ngu	-11.0484
▁pappom	-11.0487
ikittu	-11.0488
ces	-11.0492
▁ratham	-11.0492
ema	-11.0493
▁Ennaku	-11.0493
и	-11.0496
THALA	-11.0496
nc	-11.0497
▁valiya	-11.0503
▁Adutha	-11.0503
een	-11.0506
▁பிற	-11.0507
▁Vandha	-11.0508
▁padichi	-11.0508
▁புடிச்ச	-11.051
▁ivana	-11.0512
▁thotta	-11.0519
good	-11.0519
...?	-11.0522
▁taan	-11.0526
▁vaik	-11.0527
▁விட்ட	-11.0527
▁payala	-11.0533
▁attack	-11.0533
▁pesanum	-11.0533
▁veli	-11.0535
▁res	-11.0537
▁teriyum	-11.054
▁alluthu	-11.0545
ippa	-11.0546
▁cam	-11.0547
▁paaa	-11.0548
▁2018	-11.0551
▁சேதுபதி	-11.0553
iyar	-11.0553
fy	-11.0556
▁உள்ளத	-11.0559
▁பதிவு	-11.056
▁favourite	-11.0563
▁mudinja	-11.0564
▁apro	-11.0568
lol	-11.0569
thiga	-11.0572
boy	-11.0573
▁soldran	-11.0574
▁cover	-11.0576
▁மனம	-11.058
▁kalam	-11.0581
▁pangu	-11.0585
▁yanna	-11.0586
▁pole	-11.0587
eve	-11.0591
ants	-11.0592
kutty	-11.0596
▁cor	-11.0603
dhellam	-11.0607
▁apadiye	-11.0608
▁இனத்தி	-11.061
ங்கை	-11.0612
▁pannuvan	-11.0615
▁“	-11.0616
back	-11.0618
▁வெறித்தனம்	-11.0619
jh	-11.062
▁vasool	-11.062
▁ellarayum	-11.0621
▁olaritu	-11.0622
▁possible	-11.0622
▁rate	-11.0623
▁overloaded	-11.0623
▁sangam	-11.0623
▁முன்னேற்ற	-11.0624
▁Babu	-11.0625
▁Amazing	-11.0626
▁kaatra	-11.0627
▁data	-11.0627
▁lokesh	-11.0629
gama	-11.063
▁stylish	-11.0635
▁இருக்குனு	-11.0636
▁Solla	-11.0636
kaapan	-11.064
▁ithellam	-11.064
▁vazthukal	-11.0641
▁kir	-11.0643
▁காவியம்	-11.0643
▁dil	-11.0644
▁dekha	-11.0645
ib	-11.0645
▁Mams	-11.0646
▁Lu	-11.0646
▁jolly	-11.0646
▁kanagaraj	-11.0647
▁vanthuchu	-11.0655
▁karanam	-11.0655
▁sonnalum	-11.0655
▁Class	-11.0656
▁thatha	-11.0657
mmmmmmmmmmmmmm	-11.0658
▁unka	-11.0662
▁election	-11.0662
▁Dec	-11.0662
▁gaya	-11.0664
▁success	-11.0665
rkal	-11.0668
luv	-11.0668
▁murai	-11.0668
▁munna	-11.0669
▁samugam	-11.067
▁rajinikanth	-11.067
▁தெறி	-11.067
▁kiss	-11.0672
kkaga	-11.0672
▁TO	-11.0674
▁ellame	-11.0675
ayan	-11.0678
▁sethupathy	-11.0679
▁bots	-11.0679
onlinejob	-11.068
▁Akka	-11.068
▁ungalku	-11.068
kids	-11.0683
‍	-11.0683
▁பன்னி	-11.0688
eye	-11.0689
▁podum	-11.0689
▁செருப்பால	-11.069
avae	-11.069
▁kiya	-11.0691
▁kaana	-11.0691
wu	-11.0692
▁kadharu	-11.0693
▁atlee	-11.0694
irukkum	-11.0698
▁கல்வி	-11.07
▁panrom	-11.0704
▁kili	-11.0706
▁yov	-11.0706
▁station	-11.0709
▁area	-11.0709
▁Dumm	-11.0711
த்தி	-11.0714
▁Ap	-11.0715
▁ker	-11.0716
▁polapu	-11.0716
ft	-11.0717
▁Mo	-11.0717
apo	-11.0718
▁editing	-11.0718
▁Can	-11.0721
sal	-11.0723
gq	-11.0723
iiiiii	-11.0724
aki	-11.0727
.."	-11.0727
▁பெயர	-11.0728
▁pathiya	-11.0729
▁iron	-11.0732
▁pannun	-11.0733
▁irukurathu	-11.0733
aji	-11.0738
▁ber	-11.0741
▁iruppan	-11.0741
▁pannittu	-11.0743
04	-11.0747
▁sonnan	-11.0757
J	-11.0762
▁நடிப்பு	-11.0764
▁ஜெயலலிதா	-11.0769
▁nadakuthu	-11.0772
yila	-11.0772
▁Pasanga	-11.0777
part	-11.0778
▁maten	-11.078
▁eppudi	-11.0781
▁anup	-11.0785
ying	-11.0786
lw	-11.0786
ம	-11.0787
▁ethukku	-11.0792
▁தொலைக்க	-11.0795
news	-11.0795
▁சோ	-11.0797
▁fat	-11.08
▁yer	-11.0807
▁ipd	-11.0808
khan	-11.0808
▁masala	-11.081
tube	-11.0813
▁poruki	-11.0813
avillai	-11.0819
▁nadathu	-11.082
indi	-11.0821
▁yel	-11.0826
uw	-11.0827
▁pudikala	-11.0827
▁nenachi	-11.0827
▁coma	-11.0828
▁படி	-11.0828
pw	-11.0829
class	-11.083
dalam	-11.0831
09	-11.0831
▁kural	-11.0832
iyala	-11.0832
▁மக்களுக்கு	-11.0835
▁therinji	-11.0836
▁pundaila	-11.0836
▁podama	-11.0837
AL	-11.0844
▁ஏத	-11.0845
▁got	-11.0848
▁annna	-11.0849
▁Lus	-11.0852
▁yeppo	-11.0854
▁online	-11.0855
iyathu	-11.0857
rukalam	-11.0858
▁koduka	-11.0859
pakka	-11.0862
dead	-11.0862
Thalapathy	-11.0863
▁urut	-11.0865
▁மனிதன	-11.0867
▁theriyadha	-11.0869
ங்களுக்கு	-11.0869
▁deii	-11.0871
▁click	-11.088
▁Sun	-11.0885
▁office	-11.0885
▁kaadhal	-11.0885
set	-11.0886
▁டயலாக்	-11.0895
Comali	-11.0897
▁பிரச்சினை	-11.0898
▁serious	-11.0899
▁Thalaivaaaaaaaa	-11.09
ப்போம்	-11.0901
kandi	-11.0903
▁sollava	-11.0905
lea	-11.0905
nice	-11.0908
▁pudu	-11.091
”	-11.0911
▁thola	-11.0913
▁patti	-11.0913
▁fit	-11.0916
▁kett	-11.0917
▁gan	-11.0918
▁frnds	-11.0918
naalum	-11.0919
▁paid	-11.0919
▁செய்	-11.092
mbu	-11.092
mini	-11.0921
ich	-11.0922
▁panathu	-11.0928
▁gar	-11.0931
more	-11.0936
atum	-11.0938
▁kodukka	-11.0938
▁Hop	-11.0938
▁gala	-11.0939
்கள்	-11.094
▁75	-11.0942
ised	-11.0945
▁maati	-11.0946
▁varthai	-11.0947
▁mus	-11.0955
▁dark	-11.0956
▁மணி	-11.0957
▁inn	-11.0961
▁saava	-11.0964
▁vanganum	-11.0967
kathinga	-11.0967
▁நினைக்க	-11.0967
▁malayalam	-11.0968
▁poten	-11.0969
▁poduran	-11.0971
▁crore	-11.0976
▁endra	-11.0978
pam	-11.0981
▁pati	-11.0982
▁leavel	-11.0985
▁om	-11.0988
▁Kar	-11.0989
ever	-11.0992
▁நம்மை	-11.0992
ப்ப	-11.0992
ally	-11.0993
▁repeat	-11.0993
board	-11.0994
▁senji	-11.0994
duku	-11.0996
▁irukathu	-11.0996
▁Over	-11.0997
ngla	-11.0998
agum	-11.0998
sssss	-11.1001
▁doing	-11.1002
mnu	-11.1004
thanga	-11.1009
பா	-11.101
▁இல்லையட	-11.1014
▁pesuran	-11.1015
▁clear	-11.1018
br	-11.1019
▁bjp	-11.1019
▁ennu	-11.1021
phone	-11.1022
▁கருத்த	-11.1024
▁uuu	-11.1024
▁yellarum	-11.1024
150	-11.1031
Ajith	-11.1034
jum	-11.1034
▁hospital	-11.1036
▁இவர்கள	-11.1039
kari	-11.1041
kuranga	-11.1044
bc	-11.1046
vingala	-11.1047
▁fraud	-11.1048
▁racer	-11.1049
▁irundh	-11.1052
▁report	-11.1053
uuuuuuuuuuuuuuuu	-11.1053
▁mor	-11.106
▁expression	-11.1063
▁husband	-11.1066
rundha	-11.1067
▁satta	-11.1071
▁paper	-11.1074
ikki	-11.1078
ash	-11.1082
▁orutha	-11.1084
ا	-11.1085
▁New	-11.1085
▁taste	-11.1088
▁Deiii	-11.1088
▁editor	-11.1088
▁pidikum	-11.1091
▁ஹிட்	-11.1091
▁Block	-11.1092
▁Engala	-11.1092
ാ	-11.1092
▁நாடோடி	-11.1092
][:	-11.1092
▁¤¦	-11.1092
▁செய்வோம்	-11.1092
▁famous	-11.1093
▁Mutta	-11.1093
radhuku	-11.1095
▁Story	-11.1095
▁பாருங்கள்	-11.1095
▁Sirappana	-11.1095
▁murder	-11.1095
▁pai	-11.1096
▁முன்னாடி	-11.1097
▁ilana	-11.1097
▁	-11.1098
▁படமும்	-11.1099
▁Visvasam	-11.1099
oc	-11.1099
▁advice	-11.11
aha	-11.11
▁Ungalukku	-11.1104
▁naayi	-11.1104
▁therikuthu	-11.1104
▁followers	-11.1104
▁யுவன்	-11.1105
▁ratnam	-11.1105
▁நாய்கள்	-11.1106
▁விவேகம்	-11.1107
▁காரணம்	-11.1111
▁against	-11.1113
▁kaapaan	-11.1114
▁Kaali	-11.1114
▁bothu	-11.1114
▁திரும்ப	-11.1115
▁ellathukum	-11.1116
▁Ranaut	-11.1116
▁endu	-11.112
▁St	-11.1122
▁magic	-11.1122
rb	-11.1124
▁KAAPPAAN	-11.1124
▁inna	-11.1125
omvinaykapottri	-11.1125
▁busy	-11.1126
▁engalukku	-11.1127
▁கோனார்	-11.1127
▁கலப்பு	-11.1129
▁காடுவெட்டியார	-11.1132
▁Lokesh	-11.1133
▁Pu	-11.1133
eg	-11.1135
lk	-11.1137
▁அன்பு	-11.1138
iest	-11.1143
din	-11.1144
▁save	-11.1144
▁petha	-11.1147
ents	-11.1148
▁vanda	-11.1151
▁kaadu	-11.1152
▁கோ	-11.1156
▁rompa	-11.1158
▁kama	-11.1159
▁favorite	-11.1159
▁கி	-11.116
▁அடையும்	-11.116
deep	-11.1168
irukum	-11.117
▁உரிமை	-11.1174
▁nadippu	-11.1176
iringa	-11.1177
fans	-11.1178
▁human	-11.118
▁mov	-11.1183
▁kurai	-11.1184
kaa	-11.1185
▁ஒருத்தன	-11.1186
▁wife	-11.1188
▁madham	-11.1188
▁mobile	-11.119
வோம்	-11.1193
▁பாதி	-11.1195
ravi	-11.1197
▁Naayaga	-11.1203
▁poganum	-11.1204
▁ant	-11.1207
125	-11.1207
▁🤩🤩	-11.1207
▁cs	-11.1208
▁Nadip	-11.121
▁அதற்கு	-11.1211
▁அதிக	-11.1211
▁chu	-11.1212
▁vegama	-11.1212
▁paiyana	-11.1213
▁vare	-11.1213
nne	-11.1214
▁கட்டாய	-11.1215
▁பாரு	-11.1216
▁tamizh	-11.1217
▁atta	-11.1218
▁பையன்	-11.122
▁when	-11.1225
▁situation	-11.1226
▁manusana	-11.1226
▁தாய்	-11.1232
▁mokkaiya	-11.1233
▁Sathiyam	-11.1237
▁trp	-11.1238
net	-11.1239
▁potavan	-11.1244
▁சிறப்பு	-11.1244
▁pid	-11.1247
▁yenn	-11.1253
▁herova	-11.1254
▁evalavu	-11.1256
▁thalaivaaaaaaa	-11.1258
▁tiru	-11.1259
▁vett	-11.1263
ere	-11.1266
▁koduk	-11.1269
▁hum	-11.127
nde	-11.1273
▁sarba	-11.1275
▁records	-11.1276
▁onga	-11.1278
▁mil	-11.1279
xo	-11.1282
▁prove	-11.1283
?"	-11.1283
▁Ethuku	-11.1284
▁viral	-11.1288
▁macha	-11.1293
▁Inime	-11.1293
▁public	-11.1293
▁appadiye	-11.1294
ass	-11.1298
▁அதிகமா	-11.1302
ப	-11.1302
play	-11.1303
▁hang	-11.1304
▁ov	-11.1305
▁manna	-11.1306
▁சேர்ந்து	-11.1307
59	-11.1308
hhhh	-11.1312
▁நடிப்ப	-11.1313
▁villan	-11.1317
▁azhagu	-11.1319
ub	-11.1321
yaaa	-11.1323
laks	-11.1326
▁அழிக்க	-11.1327
ippu	-11.1327
avier	-11.1329
▁similar	-11.1329
▁model	-11.133
▁kaka	-11.1332
▁Screen	-11.1333
▁பின்	-11.1334
dq	-11.1334
▁getha	-11.1336
kudi	-11.1339
rrr	-11.134
▁perfect	-11.134
▁era	-11.1344
▁vag	-11.1345
▁irundu	-11.1346
▁Ver	-11.1352
ES	-11.1353
ene	-11.1355
▁max	-11.1357
▁seruppala	-11.1357
▁பிர	-11.1358
kirom	-11.136
▁state	-11.1361
▁net	-11.1365
▁asai	-11.1367
▁apuram	-11.1368
▁teri	-11.1369
▁maja	-11.137
னர்	-11.137
▁kadaisi	-11.1372
▁manitha	-11.1372
▁அதிகமாக	-11.1375
rku	-11.1376
▁Ner	-11.1378
agi	-11.1381
▁edukura	-11.1383
▁வைத்த	-11.1385
▁ஆதி	-11.1385
▁aachi	-11.1386
▁aairuku	-11.1391
▁rea	-11.1392
▁rights	-11.1392
use	-11.1393
▁போற	-11.1394
▁guy	-11.1395
▁kati	-11.1396
months	-11.1398
▁Sila	-11.14
▁ennala	-11.1404
▁pesum	-11.1411
திரெளபதி	-11.1411
channel	-11.1411
run	-11.1412
onga	-11.1414
eru	-11.1418
ola	-11.1418
87	-11.1422
▁saar	-11.1423
ttan	-11.1424
kathu	-11.1427
▁naama	-11.1427
rajini	-11.1429
▁நடிக்க	-11.143
▁bab	-11.1434
etu	-11.1435
▁சண்டை	-11.1436
rc	-11.1436
ganum	-11.1437
▁billa	-11.1443
▁kanom	-11.1448
mp	-11.1449
▁pho	-11.1449
▁🤦‍	-11.1452
▁death	-11.1458
wat	-11.146
undu	-11.146
eyum	-11.1462
06	-11.1463
▁podringa	-11.1473
▁irukkunu	-11.1474
▁shiv	-11.1478
▁PA	-11.1479
▁poraru	-11.148
▁கேட்க	-11.148
ST	-11.1482
▁நடந்த	-11.1482
▁dream	-11.1484
ugu	-11.1484
▁sy	-11.1486
▁cancel	-11.149
ely	-11.1492
▁pannir	-11.1494
▁29	-11.1496
▁Aiyo	-11.1497
▁ooo	-11.1502
▁boy	-11.1503
kkalam	-11.151
▁edhir	-11.1511
▁bur	-11.1511
56	-11.1514
ves	-11.152
▁sor	-11.1522
▁board	-11.1528
ikal	-11.1537
bhi	-11.1543
inal	-11.1544
fo	-11.1546
▁adra	-11.1549
▁irunda	-11.1551
qq	-11.1552
ருக்கு	-11.1553
▁micro	-11.1553
story	-11.1554
▁important	-11.1557
wc	-11.156
▁vaada	-11.1563
▁44	-11.1565
▁erukka	-11.1568
▁negative	-11.1571
▁போராடுற	-11.1571
▁🥰	-11.1571
▁தியேட்டர்	-11.1575
53	-11.1576
▁card	-11.1577
ION	-11.1579
ukaga	-11.1582
ug	-11.1583
▁28	-11.1583
▁thanam	-11.1584
▁nena	-11.1584
▁gounder	-11.1592
▁ஆணவ	-11.1592
▁காணுங்கள்	-11.1593
▁download	-11.1594
▁வராது	-11.1594
▁katrathukaga	-11.1595
▁பய	-11.1596
▁Re	-11.1596
engala	-11.1596
▁care	-11.1598
▁society	-11.1598
▁biopic	-11.1599
▁Andhra	-11.16
▁Batman	-11.16
▁Mind	-11.16
ec	-11.16
▁rahe	-11.1601
▁இதே	-11.1601
OOD	-11.1602
▁அவர்களே	-11.1603
▁புரியும்	-11.1603
▁rasi	-11.1605
▁Pannunga	-11.1605
▁நன்றிகள்	-11.1606
▁jodi	-11.1607
aiye	-11.161
▁status	-11.161
▁Nenga	-11.1612
▁அண்ணனுக்கு	-11.1613
kuringa	-11.1613
▁tension	-11.1615
▁Combo	-11.1616
▁sapta	-11.1617
▁videos	-11.1617
▁எரிக்க	-11.1619
▁அரசியல	-11.1619
▁rha	-11.1621
▁interest	-11.1624
ாங்க	-11.1625
▁Team	-11.1625
▁கதறல்	-11.1626
▁image	-11.1627
qu	-11.1627
▁கொள்கிறேன்	-11.1628
▁அதே	-11.1628
▁தேவையான	-11.1629
▁neengale	-11.1629
▁pudikka	-11.1629
akki	-11.1631
▁ketka	-11.1632
nen	-11.1635
▁pakkama	-11.164
thathu	-11.164
▁சிவக	-11.164
▁mangatha	-11.164
▁Padatha	-11.1642
▁Pottu	-11.1643
▁kood	-11.1647
▁aam	-11.1648
athy	-11.1649
▁ungommala	-11.1649
▁Inda	-11.1659
▁Thalaiver	-11.1662
▁Actor	-11.1664
▁mid	-11.1666
▁etc	-11.1666
ியல்	-11.1667
ththa	-11.1668
kr	-11.167
▁Kang	-11.1671
▁inthe	-11.1671
▁Kena	-11.1671
▁Vanniyar	-11.1673
▁pula	-11.1675
▁positive	-11.1676
mudiyala	-11.1676
▁poster	-11.168
▁generation	-11.1685
ிலும்	-11.1685
ீ	-11.1686
gaa	-11.1687
▁பட்ட	-11.1687
▁தெரிய	-11.1689
▁pannit	-11.1689
▁ass	-11.169
▁Die	-11.1693
▁CM	-11.1695
▁bc	-11.1696
wood	-11.1699
▁started	-11.1701
▁உருவாக்க	-11.1701
laum	-11.1702
▁sanghi	-11.1702
▁திர	-11.1705
▁pannathinga	-11.1707
ுக்காக	-11.1707
▁kevalamana	-11.1709
▁nerya	-11.171
▁KU	-11.1711
▁tamilar	-11.1711
▁paiyale	-11.1712
ithi	-11.1712
▁pacha	-11.1715
dhai	-11.1715
▁bil	-11.1716
▁parkura	-11.1719
▁pure	-11.172
▁dhanda	-11.1721
▁pottavan	-11.1726
▁Kaasu	-11.173
▁paradesi	-11.1732
▁seeman	-11.1732
pd	-11.174
▁enka	-11.1741
▁vandhuchu	-11.1741
athum	-11.1741
▁eduthutu	-11.1741
vid	-11.1743
▁ippdi	-11.1743
▁irukumo	-11.1744
▁pesurathu	-11.1747
▁nethu	-11.1748
▁niga	-11.175
▁uyiroda	-11.1756
umbodhu	-11.1757
கு	-11.1759
▁vari	-11.1762
▁kongu	-11.1765
▁சேர	-11.1765
fb	-11.1769
▁Gv	-11.1772
▁muslim	-11.1782
▁ulaga	-11.1786
ilum	-11.1787
▁came	-11.1788
▁whatsapp	-11.1789
aam	-11.1798
bl	-11.1803
▁naya	-11.1803
▁stand	-11.1805
iu	-11.1807
▁hot	-11.1811
▁paatu	-11.1813
▁exam	-11.1813
katha	-11.1819
rukinga	-11.1823
▁karu	-11.1824
▁athigam	-11.1825
▁cat	-11.1827
▁Kala	-11.183
cb	-11.1832
▁explain	-11.1832
▁madi	-11.1837
▁irukra	-11.1841
▁matiri	-11.185
▁panir	-11.1852
▁sangi	-11.1854
▁umba	-11.1855
aq	-11.1855
▁test	-11.1861
ooooooooooooo	-11.1861
ind	-11.1862
thuna	-11.1863
▁Kaala	-11.1864
▁கேவலமா	-11.1866
athiga	-11.1872
▁kiruku	-11.1873
ற்கு	-11.1879
▁edhum	-11.188
▁lock	-11.1882
▁சின்னமலை	-11.1885
▁Thaan	-11.1887
▁pata	-11.1891
▁ear	-11.1892
▁koll	-11.1893
▁prakash	-11.1896
etha	-11.1898
▁oodi	-11.1899
▁peruku	-11.1901
▁manda	-11.1905
▁admin	-11.1907
லே	-11.1907
podhu	-11.1908
ain	-11.1908
ramari	-11.1909
▁tech	-11.1914
rupanga	-11.1916
▁summava	-11.1917
▁cal	-11.1918
▁serthu	-11.1919
pattu	-11.1923
நாடக	-11.1925
inge	-11.193
▁hain	-11.193
▁Im	-11.1934
▁பார்த்தால	-11.1934
▁special	-11.1935
...#	-11.1936
Bigil	-11.1937
nama	-11.1937
▁thamil	-11.1939
ngalukku	-11.1948
▁close	-11.1948
▁vaz	-11.1949
▁Jan	-11.1949
▁ax	-11.1953
▁pidikkum	-11.1958
39	-11.196
▁சட்டை	-11.1962
▁mukiyam	-11.1963
▁மாரி	-11.1964
▁avunga	-11.1967
▁கால	-11.1969
▁ww	-11.1969
eengala	-11.197
▁Kan	-11.197
pay	-11.1972
▁தே	-11.1972
gai	-11.1974
▁Ponga	-11.1976
▁கூறி	-11.1979
work	-11.1981
▁non	-11.1983
▁naaya	-11.1984
▁ட	-11.1988
iyai	-11.199
▁commercial	-11.1991
▁munnadiye	-11.1998
▁தீரன	-11.1999
red	-11.2001
pl	-11.2002
138	-11.2004
▁pura	-11.2005
ringala	-11.201
▁funny	-11.2015
▁pudika	-11.2016
ாகவே	-11.2016
gaming	-11.2018
sta	-11.202
▁tum	-11.2024
arkal	-11.2026
▁அடிச்சு	-11.2031
▁plant	-11.2033
▁nallathu	-11.2036
▁nadandhu	-11.204
pati	-11.204
▁maatu	-11.204
▁bigg	-11.204
anumnu	-11.2041
rupa	-11.2043
▁Record	-11.2044
▁pasa	-11.2047
side	-11.2049
odi	-11.2052
▁kaiya	-11.2053
கிறது	-11.2054
▁podala	-11.2055
▁agu	-11.2056
▁promotion	-11.2057
▁சோழ	-11.2058
▁nyabagam	-11.2059
▁Var	-11.2061
▁kudatha	-11.2061
▁naam	-11.2065
▁ham	-11.2065
▁ஆட்சி	-11.2066
▁onlinejob	-11.2077
▁Krish	-11.2078
▁mann	-11.208
▁koncham	-11.2082
X	-11.2082
▁மகன்	-11.2083
▁enoda	-11.2083
zy	-11.2084
kola	-11.2087
▁panreenga	-11.2088
▁reaction	-11.2089
▁Miss	-11.2092
▁ash	-11.2097
▁வெளிய	-11.2097
▁moonu	-11.2099
▁கும்பலை	-11.2099
▁Paaka	-11.2102
fr	-11.2102
▁example	-11.2103
ikiren	-11.2104
▁inu	-11.2104
▁nanban	-11.2109
▁aatchi	-11.2113
▁inta	-11.2115
▁irun	-11.2115
▁aanmai	-11.2117
jam	-11.2118
▁சமர்ப்பணம்	-11.2119
▁Joseph	-11.2119
▁Repeat	-11.2119
▁படையாச்சி	-11.2119
▁School	-11.2119
▁டியூப்	-11.2119
▁poreenga	-11.212
▁திரைபடம்	-11.212
▁National	-11.212
▁father	-11.212
▁இடம்	-11.2121
▁இருக்கனும்	-11.2121
▁Edhu	-11.2121
vlogs	-11.2124
hw	-11.2124
▁Oscar	-11.2125
▁முதலில	-11.2126
▁திருச்சி	-11.2126
▁Hello	-11.2126
▁Selvaragavan	-11.2126
▁இயக்குனருக்கு	-11.2127
▁sarpaka	-11.2127
▁ஸ்டார்	-11.2127
▁திருவ	-11.2128
▁telecast	-11.2128
▁palvadi	-11.2128
▁Rajnikanth	-11.2128
▁yarellam	-11.2129
▁aatatha	-11.2131
▁நண்பர்கள்	-11.2131
aanga	-11.2131
▁pandren	-11.2133
▁Draupathi	-11.2135
▁actress	-11.2135
▁padipa	-11.2137
▁ipp	-11.2138
▁:-)	-11.2142
▁BJP	-11.2144
▁தெரிவித்துக்	-11.2145
▁ஆன	-11.2146
▁தெரியாத	-11.2146
▁something	-11.2147
02	-11.2148
▁nenachen	-11.2151
▁kotha	-11.2152
▁அவர்களை	-11.2152
▁Ending	-11.2153
▁rasikan	-11.2153
▁mer	-11.2153
▁இதுபோன்ற	-11.2154
apla	-11.2155
▁kootitu	-11.2155
pidi	-11.2157
▁Yes	-11.2158
▁kangna	-11.2159
▁kudadhu	-11.2159
▁gur	-11.2161
best	-11.2162
dri	-11.2163
from	-11.2163
றி	-11.2164
▁சினிமாவில	-11.2166
▁bai	-11.2168
zo	-11.2169
kkuthu	-11.2174
▁mudiyatha	-11.2175
▁X	-11.2175
▁Co	-11.2176
▁sollave	-11.2176
▁avaroda	-11.2177
▁சி	-11.2184
▁இருக்கே	-11.2185
asan	-11.2187
thavan	-11.2188
nuku	-11.2194
▁எல்லோரும	-11.2199
ravan	-11.22
▁thalaivi	-11.22
▁gh	-11.2201
▁avaruku	-11.2203
god	-11.2204
▁Therika	-11.2207
kaaga	-11.2209
let	-11.2211
▁china	-11.2213
▁front	-11.2216
niya	-11.2218
▁ull	-11.2222
sp	-11.2222
▁kaaka	-11.2226
▁நெஞ்ச	-11.2229
▁yosi	-11.2229
eshwar	-11.223
▁Ohh	-11.2233
.!	-11.2234
லி	-11.2236
▁vide	-11.224
▁devar	-11.224
▁potruka	-11.224
▁mozhi	-11.2249
Will	-11.225
ters	-11.225
▁mee	-11.2253
▁eduku	-11.2253
▁pakama	-11.2254
pai	-11.2255
வரை	-11.2256
▁koduth	-11.2256
ுல	-11.2259
▁evanda	-11.226
adhuku	-11.226
▁adhukku	-11.2263
▁kil	-11.2266
▁கையை	-11.2266
ome	-11.2267
▁prime	-11.2267
ev	-11.2267
▁kk	-11.2268
UM	-11.2269
▁att	-11.2275
▁aru	-11.2275
▁amm	-11.2276
▁vell	-11.2284
▁2021	-11.2295
▁ani	-11.2295
▁sik	-11.2296
▁semme	-11.2298
▁ponn	-11.2301
chum	-11.2301
▁Ab	-11.2303
▁meaning	-11.2305
ngha	-11.2309
▁தவற	-11.2309
rukka	-11.2309
eeeeee	-11.231
kottai	-11.2313
▁Odra	-11.2313
▁sense	-11.2313
lak	-11.2318
▁poll	-11.2319
cent	-11.2319
🤔🤔	-11.2323
▁yosichu	-11.2328
▁koot	-11.2331
▁தடவை	-11.2332
▁gold	-11.2339
▁ste	-11.234
▁pakkum	-11.2341
▁karthick	-11.2343
▁2024	-11.2346
▁kevala	-11.2347
▁mathavangala	-11.2349
ugal	-11.2349
▁tax	-11.2351
▁official	-11.2354
▁sappu	-11.2355
▁kind	-11.2356
▁தெரிஞ்ச	-11.2357
▁43	-11.2359
▁Vanga	-11.236
▁paakalam	-11.2361
▁multi	-11.2367
த	-11.2368
yyyyy	-11.2368
rukanga	-11.237
▁ilanu	-11.2372
▁doctor	-11.2372
▁Paya	-11.2374
max	-11.2376
▁arya	-11.2377
▁1.4	-11.2377
▁pudungi	-11.2377
hara	-11.2379
▁35	-11.238
thiri	-11.2382
▁jaathiya	-11.2383
▁kutt	-11.2388
▁நாட	-11.2388
▁puratchi	-11.2389
▁vangura	-11.2395
▁loo	-11.2396
ையா	-11.24
▁char	-11.2406
▁varanu	-11.2407
▁வெட்டி	-11.241
AN	-11.241
▁அரியல	-11.2411
▁semmaiya	-11.2413
▁piragu	-11.2413
▁Ean	-11.2413
▁irund	-11.2414
tk	-11.2415
▁religion	-11.2418
▁visit	-11.2419
allam	-11.242
▁Ennod	-11.2421
▁vend	-11.2421
▁bayangarama	-11.2423
▁pallu	-11.2425
attam	-11.2429
▁mola	-11.243
▁?!	-11.243
▁brother	-11.2431
▁aaka	-11.2438
▁logo	-11.2438
ngi	-11.2443
▁vidiya	-11.2443
▁oolu	-11.2446
▁deepa	-11.2447
▁yethir	-11.2448
hul	-11.2451
▁viewers	-11.2454
▁slang	-11.2454
▁both	-11.2458
uthan	-11.2459
▁thalivaa	-11.2461
▁months	-11.2463
▁pudichavanga	-11.2463
▁thev	-11.2465
▁solradhu	-11.2465
ked	-11.2468
▁sernthu	-11.2469
▁vartha	-11.247
▁korai	-11.247
vuku	-11.247
▁Anne	-11.247
loosu	-11.2471
▁adikka	-11.2471
ahh	-11.2471
Rajini	-11.2473
▁ang	-11.2474
▁gya	-11.2481
ല	-11.2483
▁anu	-11.2484
0%	-11.2486
▁gandhi	-11.2486
▁.........	-11.249
▁yevlo	-11.2491
▁1:4	-11.2491
▁ON	-11.2497
அல்லது	-11.2501
pani	-11.2502
▁osm	-11.2502
AAAAAAAAAAAAAAAA	-11.2503
▁poduringa	-11.2503
▁Yeppa	-11.2504
▁nadi	-11.2505
▁ithukku	-11.2507
dos	-11.2508
2021	-11.2508
aley	-11.2513
▁sil	-11.2513
▁panre	-11.2514
▁veru	-11.2514
▁à	-11.2515
மும்	-11.2521
▁payama	-11.2525
kh	-11.2525
dhar	-11.2525
bh	-11.2528
▁கேட்ட	-11.2528
vs	-11.2528
galam	-11.253
▁mati	-11.2531
ota	-11.2533
▁Mara	-11.2535
▁paththu	-11.2536
ical	-11.2538
▁ethuvum	-11.2538
▁gift	-11.2542
ration	-11.2542
▁சத்திரியர்	-11.2546
▁eluthu	-11.2546
madhiri	-11.255
eep	-11.2551
ken	-11.2557
jj	-11.2558
▁porathu	-11.2558
pt	-11.2561
vv	-11.2563
laium	-11.2568
ه	-11.257
▁saptu	-11.257
▁adai	-11.2573
▁Post	-11.2576
zh	-11.2576
▁ellar	-11.2578
▁color	-11.2578
▁ec	-11.2579
▁டீ	-11.2579
மலை	-11.2582
▁thol	-11.2584
▁gotha	-11.2585
arun	-11.2586
புரம்	-11.2591
▁maaten	-11.2594
iiiiiiiiiiiiiii	-11.2598
pol	-11.2599
ó	-11.26
sham	-11.26
▁தப்பா	-11.2603
eva	-11.2604
▁fur	-11.2607
▁Seem	-11.2608
daaa	-11.2612
▁Onnum	-11.2613
oi	-11.2618
900	-11.2619
▁bomma	-11.2619
▁இளைஞர்	-11.2619
▁99	-11.262
▁துணை	-11.262
▁disaster	-11.2622
▁sonnen	-11.2626
▁Kadhal	-11.2627
▁sollum	-11.2628
rava	-11.2629
▁question	-11.2634
▁theliva	-11.2637
tation	-11.264
▁kelunga	-11.2642
▁tamizhan	-11.2646
▁kedaiyathu	-11.2647
▁search	-11.2648
kalaam	-11.2654
▁would	-11.2654
irukalam	-11.2654
jg	-11.2655
▁pack	-11.2657
▁sollatha	-11.2659
ED	-11.2659
panna	-11.2659
▁madan	-11.2661
▁dash	-11.2663
▁opening	-11.2663
▁சகோ	-11.2663
▁jack	-11.2665
▁Kis	-11.2667
ect	-11.2669
unka	-11.2673
▁ஸ்டாலின	-11.2674
▁Different	-11.2674
▁பார்ப்பேன்	-11.2674
▁WISH	-11.2674
▁வருவேன்	-11.2674
▁மத்தியில்	-11.2674
▁dialouge	-11.2674
தேவராட்டம்	-11.2675
▁potti	-11.2675
▁trans	-11.2676
▁profile	-11.2677
▁thagida	-11.2678
▁paathiya	-11.2678
▁count	-11.2679
▁maga	-11.2681
▁அக்னி	-11.2681
▁stalin	-11.2681
▁BLOCKBUSTER	-11.2681
▁தூத்துக்குடி	-11.2681
▁Anirudh	-11.2682
▁thonudhu	-11.2682
▁Nawaz	-11.2682
▁Santhanam	-11.2682
▁Sotta	-11.2682
▁Comedy	-11.2682
▁Chellam	-11.2682
▁எண்ணம்	-11.2683
otha	-11.2683
ivu	-11.2683
▁நாடகக்காதல்	-11.2684
▁sakshi	-11.2684
▁At	-11.2685
▁nadichi	-11.2685
▁திராவிட	-11.2688
▁பதில்	-11.2688
▁அழகு	-11.2688
▁காட்டும்	-11.2689
▁paathuttu	-11.269
▁white	-11.2691
▁pav	-11.2691
▁telangana	-11.2691
▁When	-11.2691
atheenga	-11.2697
▁dhn	-11.2697
wd	-11.2698
▁Pood	-11.2698
▁Verithanama	-11.2699
▁intro	-11.2699
nic	-11.2699
▁ippidi	-11.2701
▁note	-11.2703
▁speak	-11.2705
mer	-11.2705
▁asingama	-11.2706
▁மாற	-11.2706
▁தெரிவித்து	-11.2707
?!	-11.2708
▁அதன்	-11.2709
▁recent	-11.2711
▁இயக்குநர்	-11.2711
▁இதுவே	-11.2711
▁kani	-11.2713
▁din	-11.2715
▁potalum	-11.2715
▁padath	-11.2716
jai	-11.2716
▁varikum	-11.2716
uj	-11.2718
▁Yo	-11.2719
mat	-11.2721
வி	-11.2721
▁Pesa	-11.2729
numnu	-11.273
▁talk	-11.2733
F	-11.2735
ாகவும்	-11.2738
▁bharat	-11.2738
▁party	-11.274
iyal	-11.2741
▁personal	-11.2743
▁Award	-11.2744
▁Start	-11.2745
▁சமூகத்தை	-11.2747
noda	-11.2748
▁cap	-11.2751
▁வெட்ட	-11.2755
jy	-11.2756
தல	-11.2756
danum	-11.2757
▁balan	-11.2759
▁pongaluku	-11.276
▁ellaru	-11.276
▁amaithi	-11.2763
jm	-11.2764
▁irukkaru	-11.2765
baba	-11.2766
▁pathale	-11.2767
▁agama	-11.2772
duga	-11.2773
▁trip	-11.2773
▁epp	-11.2775
ooda	-11.2776
kondu	-11.2779
ainga	-11.2779
▁thai	-11.278
▁காட்சி	-11.2781
▁irukaaru	-11.2784
nadhu	-11.2784
zzz	-11.2785
ids	-11.2786
fg	-11.2786
▁pundaikku	-11.2786
▁UN	-11.279
▁Athan	-11.2791
▁ithan	-11.2801
ast	-11.2802
▁pantra	-11.2804
▁தென்	-11.2805
▁doesn	-11.2809
▁maraka	-11.2811
RA	-11.2811
▁tharan	-11.2811
▁kuduk	-11.2812
hc	-11.2812
ez	-11.2814
▁mudich	-11.2815
▁pundaingala	-11.2816
92	-11.2816
▁sonen	-11.2819
▁பொன்னு	-11.2819
▁THERI	-11.2821
▁பெயரில	-11.2822
▁vall	-11.2822
▁nilai	-11.2823
▁eppdi	-11.2825
yr	-11.2826
▁silar	-11.2829
▁தாண்டி	-11.2829
▁vathu	-11.283
்கு	-11.2832
▁தூக்கி	-11.2833
eyyy	-11.2833
▁pudich	-11.2833
▁mattan	-11.2839
latha	-11.284
▁less	-11.284
▁srilanka	-11.2846
🤘	-11.2847
▁opp	-11.285
▁live	-11.2851
▁fanz	-11.2851
▁swamy	-11.2851
▁shan	-11.2852
▁BC	-11.2853
iw	-11.2853
▁Kevalama	-11.2854
runthu	-11.2856
▁odathu	-11.2856
ute	-11.2856
tly	-11.2857
▁pannita	-11.286
▁mutha	-11.2861
thukum	-11.2861
▁nag	-11.2862
ching	-11.2863
daya	-11.2866
ker	-11.2867
▁திருத்த	-11.2867
▁pesrathu	-11.2867
▁mean	-11.2867
▁au	-11.2869
▁Hai	-11.287
▁illla	-11.2871
▁deep	-11.2872
▁wala	-11.2874
▁fl	-11.2878
can	-11.2889
▁vanniya	-11.2893
mil	-11.2895
log	-11.2896
▁umbura	-11.2897
83	-11.2898
!!!!!!	-11.2899
▁சிறுத்தை	-11.2904
▁build	-11.2905
▁பு	-11.2906
148	-11.2908
1019	-11.2909
galin	-11.291
▁del	-11.2914
▁kazhuvi	-11.2918
▁jio	-11.292
mark	-11.2921
▁hits	-11.2923
▁panalam	-11.2923
ட்டி	-11.2923
code	-11.2929
▁done	-11.293
▁unoda	-11.2934
vendum	-11.2942
▁finish	-11.2942
▁yes	-11.2943
▁mapla	-11.2943
Mass	-11.2944
▁yevan	-11.2944
▁enta	-11.2945
▁stage	-11.2946
▁Padipa	-11.2946
▁purinju	-11.2952
ruva	-11.2954
▁மனதில	-11.2955
▁irukumnu	-11.2955
▁SU	-11.2956
ththu	-11.2957
966	-11.2959
bathi	-11.2962
▁wor	-11.2962
▁தியேட்டரில	-11.2963
▁meala	-11.2964
aval	-11.2965
▁hrs	-11.2967
▁mulai	-11.2968
2020	-11.2973
irku	-11.2975
▁den	-11.2975
pura	-11.2975
▁thalaivaru	-11.2988
▁pannava	-11.2989
▁Sariya	-11.299
South	-11.2991
▁sonninga	-11.2992
eng	-11.2994
மான	-11.2995
▁irruk	-11.2996
▁bel	-11.2997
ious	-11.2997
halai	-11.3
hs	-11.3003
tal	-11.3004
▁nallave	-11.3005
mel	-11.3006
▁alavu	-11.3008
pana	-11.3008
▁venuma	-11.301
▁spr	-11.3011
ரும்	-11.3011
▁venu	-11.3014
▁mini	-11.3015
gatha	-11.3017
▁varom	-11.3018
rath	-11.3018
▁neengalam	-11.3021
▁unnala	-11.3021
▁therinju	-11.3023
்டு	-11.3024
▁Ther	-11.3025
▁company	-11.3028
▁panita	-11.3028
▁thing	-11.3028
car	-11.3031
▁daaaaa	-11.3035
▁Engaluk	-11.3035
▁Ipa	-11.3037
▁வன்னியன்	-11.3042
▁arumai	-11.3043
yl	-11.3044
bam	-11.3045
▁thamizh	-11.3045
▁samam	-11.3046
▁Thaliva	-11.3046
▁manushana	-11.3048
ob	-11.3049
▁gra	-11.3049
tics	-11.3054
400	-11.3058
▁varalaya	-11.3058
▁See	-11.3065
▁PM	-11.3065
▁kee	-11.3066
▁price	-11.3066
here	-11.3069
BGM	-11.3071
▁pakam	-11.3072
▁plus	-11.3072
cw	-11.3073
But	-11.3075
▁gap	-11.3075
uz	-11.3076
▁erukinga	-11.3078
▁paduthi	-11.3078
▁Part	-11.3078
[:	-11.308
969	-11.3086
▁பொண்ணுங்க	-11.3087
▁புரிந்த	-11.3088
rge	-11.3093
300	-11.3093
▁travel	-11.3095
▁namakku	-11.3096
fire	-11.3097
▁dho	-11.3098
▁ootha	-11.3098
▁Semmma	-11.3099
dia	-11.31
▁anda	-11.3101
▁stress	-11.3103
con	-11.3104
71	-11.3109
▁kedacha	-11.3116
▁vidama	-11.3118
xy	-11.312
▁sollit	-11.3122
ayya	-11.3122
▁காக்க	-11.3123
க்கி	-11.313
▁tq	-11.313
▁parth	-11.313
▁col	-11.3133
▁vairu	-11.3136
avendum	-11.3139
▁karupa	-11.314
tw	-11.3152
சா	-11.3159
▁supr	-11.3161
1043	-11.3161
▁pondatti	-11.3161
▁vasul	-11.3162
போது	-11.3166
kuma	-11.3166
▁moola	-11.3166
▁edut	-11.3168
▁AM	-11.3169
▁house	-11.317
▁Apa	-11.3172
▁nasama	-11.3174
ando	-11.3179
▁manasa	-11.3181
▁kavala	-11.3183
▁Adichi	-11.3183
▁gandu	-11.3184
itanga	-11.3184
▁sangu	-11.3186
▁irruntha	-11.3187
▁Power	-11.3189
nju	-11.3192
▁core	-11.3193
களில்	-11.3195
poo	-11.3197
▁kashtam	-11.3197
▁புரிய	-11.3199
▁kanda	-11.3201
▁acha	-11.3202
nukku	-11.3203
▁molai	-11.3204
▁10000	-11.3204
▁irukkinga	-11.3205
▁யை	-11.3205
▁coin	-11.3206
▁attitude	-11.3209
bha	-11.3209
▁Aa	-11.3211
▁pannrathu	-11.3211
▁Friend	-11.3212
▁rahman	-11.3213
▁os	-11.3214
91	-11.3217
▁piece	-11.3219
ட்	-11.3221
▁Aamai	-11.3225
▁ال	-11.3225
now	-11.3225
chitu	-11.3228
▁meera	-11.3228
▁pannuthu	-11.3236
▁continue	-11.3236
▁இந்தியா	-11.3238
▁yematha	-11.3239
▁pathen	-11.324
▁adhigam	-11.3243
cal	-11.3245
▁puthu	-11.3245
▁uth	-11.3247
▁thatti	-11.3248
▁soothu	-11.3248
gm	-11.3249
▁paakala	-11.325
teenga	-11.3251
▁thalli	-11.3254
▁lga	-11.3255
hen	-11.3256
▁function	-11.3256
▁Aiyoo	-11.3257
rrrr	-11.3258
▁anaithu	-11.326
iyada	-11.3261
▁panuva	-11.3261
ಾ	-11.3262
Boycot	-11.3262
▁வணக்கம்	-11.3263
▁Niraya	-11.3263
▁Copy	-11.3263
▁Thevdiya	-11.3264
▁பின்னால்	-11.3264
▁biggest	-11.3264
▁Sorry	-11.3265
▁புது	-11.3266
panam	-11.3266
ரு	-11.3266
SEMMA	-11.3266
hama	-11.3267
ef	-11.3268
▁யாரும	-11.3268
▁paduthiringa	-11.3268
rasi	-11.3268
▁கூ	-11.3269
▁நாட்டுல	-11.327
▁TEASER	-11.327
▁HERO	-11.327
▁PINK	-11.327
▁Theatre	-11.327
▁Flop	-11.327
▁Ratnam	-11.327
▁paithyam	-11.327
▁மண்	-11.327
▁சமுகம்	-11.327
▁செல்வராகவன்	-11.3271
▁Theriyum	-11.3273
giri	-11.3274
▁போதே	-11.3274
▁unique	-11.3274
▁குடும்பம்	-11.3275
▁aravani	-11.3275
▁umbitu	-11.3275
▁spelling	-11.3276
▁hahahaha	-11.3277
▁elumbu	-11.3278
aama	-11.328
▁பைரவா	-11.328
▁excellent	-11.3281
▁kadaram	-11.3281
▁Kabali	-11.3281
▁போங்கடா	-11.3282
▁வேண்டியது	-11.3284
▁paathalum	-11.3284
▁ரத்தம்	-11.3284
▁business	-11.3285
▁soldranga	-11.3286
▁darling	-11.3287
ppom	-11.3287
▁tham	-11.3288
▁நெல்லை	-11.3288
▁SC	-11.3288
▁Then	-11.3289
date	-11.3289
▁தியேட்டர்ல	-11.329
unna	-11.3293
▁mohanlal	-11.3293
▁bday	-11.3293
isa	-11.3294
dhal	-11.3294
ി	-11.3296
▁modhalla	-11.3297
▁bet	-11.33
▁Avlo	-11.3302
▁undu	-11.3302
▁edh	-11.3305
▁பொண்ணுங்கள	-11.3309
▁menon	-11.3309
▁lyrics	-11.3311
▁anirudh	-11.3311
thaaa	-11.3312
▁British	-11.3315
▁Ji	-11.3315
lakshmi	-11.3316
▁poidum	-11.3317
ija	-11.3317
▁Kali	-11.3319
▁எங்கே	-11.3321
▁sunny	-11.3321
▁Karnan	-11.3324
டு	-11.3325
▁Kaappan	-11.3325
▁yeri	-11.3325
▁கூட்டி	-11.3326
varai	-11.3326
▁santhanam	-11.3328
unnu	-11.3329
yrs	-11.3329
▁baga	-11.3333
▁🤙	-11.3333
▁ivara	-11.3334
▁Adichu	-11.3336
nada	-11.3336
▁Ke	-11.3337
▁sapd	-11.3339
▁உங்களை	-11.3339
▁வெட்டு	-11.3342
▁buildup	-11.3345
▁tier	-11.3345
▁Athuku	-11.3345
▁பட்டியல	-11.3346
á	-11.3349
▁தாழ்த்தப்பட்ட	-11.335
very	-11.3351
▁dir	-11.3352
▁mavanae	-11.3352
▁perusu	-11.3359
▁mosama	-11.3359
▁Etha	-11.3361
▁Rs	-11.3363
▁ou	-11.3365
▁ipudi	-11.3368
கிறேன்	-11.3369
▁poittu	-11.3372
▁tym	-11.3372
▁manasula	-11.3374
▁Again	-11.3375
▁potr	-11.3376
leye	-11.3376
▁sing	-11.3377
▁mavana	-11.338
shan	-11.3381
▁எதிர்க்க	-11.3382
▁uu	-11.3385
▁feelings	-11.3386
▁okay	-11.3386
padum	-11.3388
▁Main	-11.339
▁rasigar	-11.3393
▁twist	-11.3393
ates	-11.3394
லயே	-11.3394
▁jaa	-11.3394
▁react	-11.3395
ுற	-11.3395
▁sang	-11.3396
▁எதிர்ப்பு	-11.34
▁solluvan	-11.3408
▁laughing	-11.3409
▁paarka	-11.341
▁மத	-11.341
ketta	-11.3413
▁paaaa	-11.3413
pona	-11.3415
▁beautiful	-11.3415
pin	-11.3417
▁39	-11.3418
▁legend	-11.3424
▁kaththi	-11.3426
▁Yenga	-11.3428
▁mundai	-11.3428
tru	-11.3429
▁kulam	-11.3431
▁Mada	-11.3431
▁paad	-11.3434
▁pakkala	-11.3435
🤦‍	-11.3438
▁pakuravanga	-11.3439
▁ponnungala	-11.344
▁pore	-11.344
▁ivanuku	-11.3442
▁அங்க	-11.3443
▁Ram	-11.3444
▁THAN	-11.3444
uriya	-11.3446
▁odiru	-11.345
▁சேர்ந்த	-11.345
▁veda	-11.3453
▁kuruma	-11.3455
▁chitti	-11.3455
ruvan	-11.3456
▁heros	-11.3456
varam	-11.3456
▁samjh	-11.3456
TH	-11.346
▁தட்டி	-11.3461
லா	-11.3462
▁hats	-11.3464
னி	-11.3465
nad	-11.3465
dinga	-11.3466
▁கொடுக்கும்	-11.3467
jay	-11.3468
▁aval	-11.347
▁suth	-11.347
ranum	-11.3473
alaam	-11.3474
▁aya	-11.3474
▁naara	-11.3482
▁believe	-11.3483
▁Semmaya	-11.3483
konga	-11.3484
▁mudiy	-11.3485
▁Maran	-11.3485
▁kari	-11.3487
▁குடும்ப	-11.3488
▁aagathu	-11.349
▁cinima	-11.3492
▁khan	-11.3499
ify	-11.35
▁salute	-11.3502
▁malayali	-11.3502
uthi	-11.3506
▁pecha	-11.3506
▁தான	-11.3507
das	-11.3512
vq	-11.3512
uli	-11.3513
▁Ho	-11.3516
▁makal	-11.3516
oz	-11.352
▁pannom	-11.3522
▁seriya	-11.3528
ets	-11.3528
▁pilla	-11.3529
cg	-11.353
palayam	-11.3531
galoda	-11.3534
iran	-11.3536
▁nina	-11.3538
nja	-11.3539
▁maatan	-11.3539
79	-11.3543
▁jathiya	-11.3546
▁நம்பி	-11.3547
ా	-11.3552
down	-11.3554
▁Adhi	-11.3554
▁pottai	-11.3554
▁Ja	-11.3555
▁pakkava	-11.3556
▁Mel	-11.3557
▁muyarchi	-11.3558
▁porul	-11.3559
sl	-11.356
▁photos	-11.3563
ping	-11.3565
தற்கு	-11.3567
▁pesalama	-11.3574
▁num	-11.3574
kalum	-11.3575
▁dra	-11.3577
▁thavaru	-11.358
▁lok	-11.3581
▁ponnum	-11.3581
▁yedutha	-11.3581
▁nik	-11.3582
how	-11.3587
hin	-11.3588
▁machan	-11.3588
aman	-11.3589
▁ondru	-11.359
▁chit	-11.3591
nj	-11.3595
▁chin	-11.3595
anthu	-11.3595
base	-11.3596
iq	-11.3598
▁illayo	-11.3599
tin	-11.3601
nth	-11.3602
nder	-11.3602
rya	-11.3602
▁dikha	-11.3605
▁plzz	-11.3606
▁haa	-11.3607
▁தெரியாம	-11.3609
radu	-11.3611
தமிழ்	-11.3616
ket	-11.3619
kanth	-11.3623
▁vandhuta	-11.3625
kiya	-11.3626
yee	-11.3627
hg	-11.3627
mathi	-11.3629
▁ஒத்த	-11.363
▁manas	-11.3632
dhana	-11.3632
▁district	-11.3636
well	-11.3638
arathu	-11.3638
ninga	-11.3638
▁water	-11.364
▁parents	-11.364
ano	-11.364
▁kaha	-11.3641
▁kolantha	-11.3641
▁Chivanth	-11.3643
▁Id	-11.3643
130	-11.3645
▁mothama	-11.3645
1037	-11.3646
க்கான	-11.3646
▁kudumbatha	-11.3647
kitte	-11.3648
taan	-11.3649
▁வருட	-11.365
▁agathu	-11.365
raan	-11.3651
களையும்	-11.3652
▁nov	-11.3653
▁Every	-11.3654
▁avlothan	-11.3654
▁பாத்தா	-11.3655
▁aaki	-11.3657
▁pondra	-11.3657
▁thayavu	-11.3658
▁payana	-11.3662
oj	-11.3663
▁Thalaivi	-11.3664
▁thay	-11.3668
BC	-11.3668
avana	-11.3671
▁sirika	-11.3677
▁mg	-11.3679
▁இப்டி	-11.368
கிட்ட	-11.368
▁1:1	-11.3683
▁திருந்த	-11.3685
▁such	-11.3688
▁nadath	-11.3691
▁rec	-11.3693
▁Che	-11.3698
903	-11.3698
மோகன்	-11.37
llo	-11.3702
▁medi	-11.3704
▁panraru	-11.3704
72	-11.3705
arai	-11.3709
▁Photo	-11.371
▁soldringa	-11.371
▁அடிமை	-11.3712
▁Idhuku	-11.3713
eries	-11.3715
▁பாட்ட	-11.3717
rukanum	-11.372
▁தமிழ	-11.3722
▁vivo	-11.3723
▁நடத்த	-11.3724
thadi	-11.3724
967	-11.3725
▁munji	-11.3729
▁vandi	-11.373
▁pudik	-11.373
iten	-11.3731
▁Pan	-11.3731
▁உயர்ந்த	-11.3731
▁nak	-11.3732
laiye	-11.3738
▁cas	-11.3741
▁pillai	-11.3744
▁neengalum	-11.3744
▁vayiru	-11.3746
thellam	-11.3747
▁kott	-11.3747
ngana	-11.3747
▁sirichi	-11.3748
▁yrs	-11.3748
▁ஆசை	-11.3749
▁padura	-11.375
▁uyira	-11.3751
....?	-11.3753
▁Ulaga	-11.3756
▁Pe	-11.3757
ureenga	-11.3761
▁sep	-11.3762
▁fact	-11.3766
▁Moodit	-11.3766
▁இருக்குற	-11.3767
▁63	-11.3767
angi	-11.3771
▁vararu	-11.3773
▁dp	-11.3774
▁theriuma	-11.3777
▁asa	-11.3777
145	-11.3778
enaku	-11.378
thur	-11.3781
▁ONL	-11.3788
hiya	-11.3791
ிருந்து	-11.3792
kali	-11.3793
▁eduthuka	-11.3794
▁Veeram	-11.3795
▁print	-11.3795
▁payam	-11.3797
▁எங்கள	-11.3798
▁cp	-11.38
▁thandi	-11.3801
▁prachanai	-11.3801
city	-11.3802
bt	-11.3805
oy	-11.3813
ோர்	-11.3813
▁Yan	-11.3814
yes	-11.3816
body	-11.3816
▁niraiya	-11.3818
▁thalivar	-11.3819
▁vanna	-11.3826
▁peas	-11.3826
pls	-11.3827
▁celebration	-11.3828
▁ida	-11.3828
▁siripa	-11.3829
▁Prabhu	-11.3829
ரம்	-11.3832
▁abhi	-11.3834
ingka	-11.3836
▁தெரிந்து	-11.3836
nagar	-11.3837
▁து	-11.3838
▁abi	-11.384
▁Veriyan	-11.3841
▁eruke	-11.3842
thama	-11.3848
▁kandi	-11.385
▁97	-11.385
▁fail	-11.3851
ISHA	-11.3851
▁cheap	-11.3856
ej	-11.3857
▁damage	-11.3858
▁paakum	-11.3859
108	-11.386
▁padippu	-11.3861
▁aug	-11.3862
gw	-11.3866
▁Aiyooo	-11.3866
▁iz	-11.3868
ste	-11.3868
▁kidaikum	-11.3869
▁sollama	-11.3869
▁ask	-11.3869
▁nammala	-11.3871
▁அவர்களி	-11.3873
▁இருக்கிற	-11.3874
▁thn	-11.3875
▁bheem	-11.3875
▁club	-11.3875
murai	-11.3878
▁கூற	-11.3879
▁கும்பலுக்கு	-11.3879
▁siricha	-11.388
master	-11.388
▁gaandu	-11.388
▁thalaiku	-11.3881
▁broo	-11.3882
137	-11.3882
SP	-11.3884
▁acc	-11.3885
tuku	-11.3885
¦	-11.3887
▁̄	-11.3887
தென்காசி	-11.3887
▁KERALA	-11.3887
▁Phoenix	-11.3887
▁THEEPAN	-11.3887
▁VISWASAM	-11.3887
▁Singapore	-11.3887
▁காமெடி	-11.3887
▁mugamoodi	-11.3887
▁subbaraj	-11.3887
▁Jayaraj	-11.3888
▁பாராட்டுக்கள்	-11.3888
▁niyabagam	-11.3888
பிற்படுத்தப்பட்ட	-11.3888
▁maath	-11.3889
▁unfollow	-11.3889
▁Link	-11.389
र	-11.389
▁Rocking	-11.3892
▁thevadiya	-11.3892
▁Muslim	-11.3895
▁Perumal	-11.3895
▁vaazhthukkal	-11.3895
▁Christian	-11.3895
▁பெற்று	-11.3895
▁ஜீ	-11.3896
▁திருப்பி	-11.3896
▁ஜெயம்	-11.3896
▁சிறப்பான	-11.3896
asam	-11.3897
▁kelattu	-11.3898
▁international	-11.3898
▁Youtube	-11.3899
▁kall	-11.3899
▁HERE	-11.3901
▁போகும்	-11.3901
▁thookalama	-11.3901
▁தரும்	-11.3902
▁Nadaga	-11.3903
▁அதுவே	-11.3904
▁saavanum	-11.3905
▁வேல	-11.3906
▁கொள்கிறோம்	-11.3906
▁opposite	-11.3908
▁nailed	-11.3908
▁ஊர	-11.3909
▁MAN	-11.3909
wow	-11.391
▁shooting	-11.3911
▁promo	-11.3911
▁vandhalum	-11.3912
▁ஏற்படுத்த	-11.3913
tors	-11.3913
▁Pongada	-11.3913
▁நல்லது	-11.3913
▁sirappana	-11.3913
▁pull	-11.3914
▁தலைவன்	-11.3915
▁எதிரான	-11.3916
▁Haha	-11.3916
KGF	-11.3916
▁ASURAN	-11.3918
▁thuki	-11.392
▁skin	-11.392
▁poth	-11.3922
▁இருப்ப	-11.3925
▁Kappan	-11.3926
▁வந்தால்	-11.3926
▁porukki	-11.3926
▁KING	-11.3927
▁pil	-11.3928
▁panninga	-11.3928
▁bhag	-11.3928
▁kathara	-11.393
▁Thambi	-11.393
▁naalaiku	-11.393
▁Yennada	-11.393
thuthan	-11.3931
▁Sollu	-11.3935
▁bollywood	-11.3935
▁சைவ	-11.3944
ement	-11.3947
▁athana	-11.3949
▁தாண்டா	-11.3949
kanumnu	-11.3951
zhi	-11.3953
▁cricket	-11.3954
▁vangu	-11.3954
▁mudiyaathu	-11.3955
▁AH	-11.3958
▁vidura	-11.3958
▁mothalla	-11.3959
ORE	-11.3961
▁vidunka	-11.3962
▁pant	-11.3963
▁eppidi	-11.3964
▁Kathi	-11.3969
card	-11.3969
was	-11.397
▁space	-11.3972
▁mujhe	-11.3973
img	-11.3974
கவும்	-11.3976
▁sambavangala	-11.3977
▁payyan	-11.3977
▁perumaiya	-11.3978
▁vekkama	-11.3979
usa	-11.398
thaiyum	-11.3981
talin	-11.3984
adhula	-11.3986
▁pooga	-11.3987
jq	-11.3989
lll	-11.3991
▁Unmaya	-11.3993
▁padippa	-11.3995
▁agura	-11.3995
▁சம்பவங்கள	-11.3996
uchi	-11.3998
▁ஷ	-11.3999
▁..........	-11.4
▁lavel	-11.4
▁yaarunu	-11.4001
sum	-11.4002
▁சங்கத்த	-11.4003
▁ninai	-11.4006
▁தவறாக	-11.4006
▁வசூல	-11.4011
▁Kita	-11.4012
▁maker	-11.4017
▁perumaya	-11.4017
ayo	-11.4018
▁pocha	-11.4018
▁yethana	-11.4019
▁loss	-11.4023
elcome	-11.4025
field	-11.4025
▁போங்க	-11.4025
▁36	-11.4027
▁pathathu	-11.403
▁hahaha	-11.4033
▁topic	-11.4033
nganu	-11.4035
▁increase	-11.4042
லம்	-11.4042
llai	-11.4043
பதி	-11.4044
▁nim	-11.4044
inte	-11.4044
▁yed	-11.4045
1040	-11.4045
vy	-11.4047
ruvom	-11.4047
▁சிரிப்பு	-11.4047
▁450	-11.405
wala	-11.4053
rutha	-11.4054
▁வளர	-11.4054
THU	-11.4055
▁38	-11.4056
dc	-11.4056
▁aravind	-11.4057
▁ponum	-11.4057
▁panun	-11.406
▁THA	-11.4061
ாது	-11.4062
▁சாதிவெறி	-11.4062
hing	-11.4063
▁vekkam	-11.4066
lue	-11.4066
mudiyathu	-11.4067
last	-11.4069
▁ungaloda	-11.407
▁Nam	-11.4071
▁ettan	-11.4072
▁irukkumnu	-11.4072
dichu	-11.4072
1035	-11.4073
▁irukiga	-11.4078
▁college	-11.4079
light	-11.4079
▁prob	-11.4082
▁effect	-11.4084
▁varave	-11.4086
▁panuna	-11.4086
97	-11.4086
▁sapida	-11.4088
raya	-11.4091
▁Podunga	-11.4093
ivi	-11.4097
▁thamizhar	-11.4098
ier	-11.4099
▁தூ	-11.4101
char	-11.4102
lur	-11.4102
▁vidanum	-11.4104
ARE	-11.4104
▁aki	-11.4106
▁Hope	-11.4108
▁sapada	-11.4111
▁launch	-11.4112
ñ	-11.4112
cho	-11.4116
▁pannan	-11.4116
ship	-11.4117
▁padathukum	-11.4118
▁hoga	-11.412
▁bho	-11.412
▁mugam	-11.4121
cut	-11.4123
gk	-11.4124
▁சம	-11.4128
▁பள்ள	-11.4129
▁maata	-11.4132
naku	-11.4134
▁athanala	-11.4134
uren	-11.4136
▁ரசிகர்	-11.4136
▁மொழி	-11.4137
▁Vaaa	-11.4139
149	-11.4141
▁இல்லாம	-11.4145
thila	-11.4146
kat	-11.4148
ள்ள	-11.4149
aney	-11.4151
▁cin	-11.4152
▁mothala	-11.4154
களே	-11.4155
▁இன்னு	-11.4157
▁அவள	-11.4158
▁jana	-11.4163
▁yeppadi	-11.4163
ுங்க	-11.4175
▁alag	-11.4176
ங்களை	-11.4185
laiya	-11.4186
▁வெறிய	-11.4189
▁anne	-11.4191
▁Sonna	-11.4191
▁சிந்தி	-11.4191
▁kuppa	-11.4192
▁paakama	-11.4192
▁Tamilan	-11.4193
▁kay	-11.4193
▁solluravanga	-11.4194
▁bna	-11.42
▁Dey	-11.4201
▁cre	-11.4204
▁veetula	-11.4204
dey	-11.4204
ture	-11.4205
▁hr	-11.4206
▁ista	-11.4206
▁irukey	-11.4206
action	-11.4207
▁Oruthan	-11.4208
yaga	-11.4209
▁பெண்கள	-11.4209
▁rah	-11.4209
▁vazha	-11.4212
▁pok	-11.4212
shini	-11.4214
142	-11.4216
kadha	-11.4219
▁ina	-11.422
tiye	-11.4221
▁pandi	-11.4223
▁இப்போது	-11.4224
வோ	-11.4225
▁thalaiver	-11.4225
1034	-11.4226
dranga	-11.4226
▁Masssss	-11.4229
izing	-11.4229
▁kadu	-11.4232
▁irk	-11.4233
▁thann	-11.4239
▁parthen	-11.4243
pulla	-11.4247
▁aganum	-11.4247
▁kalaai	-11.4247
1044	-11.4248
iduchu	-11.4249
lame	-11.4249
ndru	-11.4252
▁enter	-11.4252
▁skip	-11.4252
▁erukanum	-11.4253
rv	-11.4253
▁kaalam	-11.4254
▁vaithu	-11.4254
250	-11.4256
▁Dr	-11.4256
gaza	-11.4256
▁சேர்த்து	-11.4259
ard	-11.4261
▁kodunga	-11.4261
▁fil	-11.4261
ins	-11.4262
jk	-11.4263
1018	-11.4264
மிக்க	-11.427
▁dist	-11.4272
▁பெரும்	-11.4272
fs	-11.4273
1039	-11.4273
param	-11.4275
▁Thaa	-11.4276
▁thalaaaaa	-11.4277
▁pannuvaanga	-11.428
▁minja	-11.4282
1028	-11.4282
▁அத்து	-11.4285
▁குடும்பங்கள	-11.4285
▁pichakara	-11.4289
karam	-11.4291
▁நடந்து	-11.4294
oma	-11.4294
kudu	-11.4296
▁kuru	-11.4297
155	-11.4297
▁Podra	-11.4298
thayum	-11.4303
▁இர	-11.4304
▁pandr	-11.4304
▁athukku	-11.4306
▁therithu	-11.4307
▁thuppu	-11.4314
tey	-11.4315
▁உற	-11.4317
▁olungu	-11.4317
▁poranthavan	-11.432
ooooooo	-11.4322
lg	-11.4322
power	-11.4324
147	-11.433
▁illaiya	-11.433
▁vati	-11.4331
▁ze	-11.4336
....!	-11.4337
eruku	-11.4337
▁2:2	-11.4337
▁roll	-11.434
▁jab	-11.4341
▁kotti	-11.4342
lik	-11.4342
nkal	-11.4346
iiiiiii	-11.4348
▁cant	-11.4349
▁wat	-11.435
▁Short	-11.4351
ible	-11.4351
ில்லை	-11.4355
thir	-11.4355
▁Al	-11.4358
ition	-11.4358
kq	-11.4362
Marana	-11.4364
▁kollu	-11.4365
dj	-11.4367
▁சமுதாயத்தை	-11.4369
ι	-11.4372
▁padathai	-11.4375
home	-11.4375
▁cup	-11.4375
▁kedu	-11.4375
1017	-11.4376
விழா	-11.4377
▁thirutha	-11.4379
rar	-11.4379
1027	-11.4382
ukke	-11.4382
▁dey	-11.4383
▁small	-11.4384
▁Naam	-11.4384
llum	-11.4386
▁Madan	-11.4386
▁athuthan	-11.4386
1038	-11.4387
▁படிக்க	-11.4389
model	-11.4389
wh	-11.439
▁senthu	-11.4391
des	-11.4393
nin	-11.4394
▁vilunthu	-11.4395
▁poirum	-11.4399
yt	-11.4399
▁ponu	-11.44
▁uruttu	-11.4401
qz	-11.4402
1023	-11.4403
1036	-11.4404
▁aar	-11.4405
157	-11.4405
▁பொ	-11.4406
▁apdiya	-11.4407
▁ammava	-11.441
▁size	-11.4412
மாதிரி	-11.4418
▁aara	-11.4421
-2	-11.4423
nz	-11.4428
▁Unmai	-11.4429
ணி	-11.4432
▁vaaila	-11.4435
▁vish	-11.4436
▁lan	-11.4439
▁கொஞ்ச	-11.4442
▁கேடு	-11.4445
▁ora	-11.4447
▁Endh	-11.4448
156	-11.4451
▁aaaa	-11.4452
▁powerful	-11.4453
▁drawing	-11.4453
▁makkale	-11.4456
▁bill	-11.4456
ukal	-11.446
▁வேணும்	-11.4464
▁eruma	-11.4465
▁நட	-11.4468
▁pannadhu	-11.4469
edi	-11.4469
▁kothi	-11.4473
ending	-11.4475
▁moodu	-11.4475
avin	-11.4476
akam	-11.4478
lq	-11.4481
▁eye	-11.4487
nw	-11.449
▁**	-11.449
▁wai	-11.4492
▁poodu	-11.4494
qb	-11.4494
▁sinna	-11.4495
▁padangal	-11.4495
▁Tr	-11.45
▁pesave	-11.45
▁kadaisila	-11.4501
.\	-11.4502
▁bes	-11.4502
1042	-11.4505
alvadi	-11.4507
ற்ற	-11.4509
▁stars	-11.451
▁போலி	-11.4511
eppadi	-11.4512
▁straight	-11.4516
▁dar	-11.4517
yuthu	-11.4518
▁kuli	-11.452
▁Kolla	-11.4522
▁poona	-11.4523
▁Hahaha	-11.4524
duvanga	-11.4528
▁manju	-11.4531
▁Kula	-11.4531
▁angle	-11.4531
▁pla	-11.4533
▁பொட்ட	-11.4535
thing	-11.4539
▁mol	-11.4539
▁ninacha	-11.4541
▁Badu	-11.4541
▁Jaadhi	-11.4542
▁dum	-11.4545
▁anyone	-11.4545
oid	-11.4549
▁senthil	-11.4549
▁கே	-11.455
505	-11.4551
▁track	-11.4552
▁ஈரோடு	-11.4554
▁BIGIL	-11.4554
▁நினைக்கிறேன்	-11.4554
▁yaruku	-11.4554
▁Mankatha	-11.4554
▁கிடையாது	-11.4555
▁செய்யுங்கள்	-11.4555
▁Voice	-11.4555
▁திரையரங்கில்	-11.4555
▁இருப்பான்	-11.4555
▁திருட்டு	-11.4556
▁பார்த்தேன்	-11.4556
▁VERI	-11.4556
▁Paraak	-11.4556
▁Getup	-11.4556
▁naadaga	-11.4556
▁Naal	-11.4557
▁ஐயா	-11.4557
▁military	-11.4557
▁தூண்டும்	-11.4557
▁behindwoods	-11.4558
▁Sambavam	-11.4558
kl	-11.456
▁தெய்வம்	-11.456
▁Sivaji	-11.4562
▁விரைவில்	-11.4562
▁தில்லு	-11.4563
▁Pallavi	-11.4563
▁Nadodigal	-11.4563
▁Adhe	-11.4564
▁mudiyaadhu	-11.4565
▁tharamaana	-11.4565
▁country	-11.4566
▁thalaaaa	-11.4567
▁லட்சம்	-11.4568
▁Boss	-11.4568
▁marupadiyum	-11.4568
▁valthugal	-11.4569
▁Suyama	-11.457
▁Sanda	-11.457
▁othutu	-11.457
▁mulusa	-11.457
▁paakuren	-11.4571
▁pesalam	-11.4571
▁redmi	-11.4571
▁வட்டம்	-11.4572
▁கும்பல	-11.4572
▁rangaraj	-11.4572
▁solliten	-11.4573
▁சொன்னது	-11.4574
▁எதிர்த்து	-11.4574
▁dawww	-11.4575
▁1:41	-11.4575
▁Murugan	-11.4576
lac	-11.4576
▁ozhunga	-11.4576
▁நாயகன்	-11.4577
▁yedhuku	-11.4578
▁edhukku	-11.4579
▁ஆகும்	-11.458
▁yevanum	-11.458
143	-11.4581
▁experience	-11.4582
▁Thappu	-11.4582
▁kgf	-11.4584
▁aarambam	-11.4584
ngo	-11.4584
▁thinnu	-11.4585
▁muthu	-11.4586
▁selvaraghavan	-11.4587
▁irukanunga	-11.4587
devi	-11.4587
▁idhellam	-11.4588
▁marry	-11.4588
▁ஜெய்	-11.4589
▁pottalum	-11.4589
EN	-11.459
க்கூடாது	-11.4592
▁Ur	-11.4592
▁pollachi	-11.4592
▁yeth	-11.4593
▁கிராமம்	-11.4593
▁Ela	-11.4593
500	-11.4594
▁மட்டும்தான்	-11.4596
▁veet	-11.4598
▁thaayoli	-11.4603
▁puriyathu	-11.4604
▁appram	-11.4605
mos	-11.4605
▁சார்பா	-11.4606
▁kidaiyathu	-11.4606
▁valikuthu	-11.4607
sw	-11.4607
▁gunda	-11.4608
ுவது	-11.461
▁pariyerum	-11.4611
sama	-11.4611
▁அறிவு	-11.4613
girl	-11.4614
iyadhu	-11.4616
▁இருக்குது	-11.4618
ool	-11.4618
▁irrukan	-11.4619
▁oorla	-11.462
▁Nalaiku	-11.462
movies	-11.4621
▁Vena	-11.4621
▁சங்க	-11.4623
▁முடியல	-11.4625
▁adhuvum	-11.4626
▁thunai	-11.4627
▁ராஜ	-11.4627
far	-11.4628
▁tharanum	-11.4628
▁arambam	-11.4629
thanks	-11.4631
▁kaaranam	-11.4632
▁Paiyan	-11.4633
▁pova	-11.4635
▁pannika	-11.4635
▁paathe	-11.4636
▁படைக்க	-11.4638
▁dekhne	-11.4639
▁News	-11.4639
▁sooru	-11.4642
▁pathuten	-11.4642
140	-11.4642
▁vaanganum	-11.4643
▁forever	-11.4644
▁aanalum	-11.4646
▁kolandha	-11.4647
▁moodi	-11.4648
size	-11.4649
▁bless	-11.4653
ann	-11.4653
▁Samma	-11.4655
▁Chin	-11.4657
▁46	-11.4662
▁செல்வா	-11.4662
▁Modhal	-11.4663
xd	-11.4664
dfs	-11.4665
▁lagta	-11.4666
▁sum	-11.4667
▁kakki	-11.4668
▁koottam	-11.4668
tty	-11.4669
hir	-11.4669
▁which	-11.4671
▁Vaai	-11.4672
▁aadi	-11.4674
▁iruparu	-11.4675
allah	-11.4675
▁Mega	-11.4676
niki	-11.4677
▁ottu	-11.4681
ollywood	-11.4681
▁kanni	-11.4685
▁mathu	-11.4687
▁ஏற்க	-11.469
▁lal	-11.4691
▁paithiyakara	-11.4692
▁cmt	-11.4692
▁thaaa	-11.4693
▁swa	-11.4693
▁swami	-11.4693
rudhu	-11.4694
▁epic	-11.4694
ي	-11.4698
▁vatchu	-11.4699
akudathu	-11.4699
hn	-11.4699
▁செல்ல	-11.47
▁sag	-11.4701
▁sali	-11.4701
▁mafia	-11.4702
▁Edhuku	-11.4703
eth	-11.4703
▁varushama	-11.4703
zing	-11.4703
wait	-11.4703
▁valthu	-11.4703
▁Ponnu	-11.4705
▁lovers	-11.4706
▁வெளியிட	-11.4706
▁meen	-11.4708
vg	-11.4712
▁nenaik	-11.4712
▁chechi	-11.4713
▁saf	-11.4715
▁mariya	-11.4717
▁thukki	-11.4717
vm	-11.4717
▁natu	-11.4719
▁vivek	-11.472
▁irukuthu	-11.4722
▁kudut	-11.4727
cz	-11.4727
▁bor	-11.4728
kaluku	-11.4729
ானுங்க	-11.473
▁parra	-11.4736
▁thalaivana	-11.4736
:-	-11.4737
shankar	-11.4737
▁ent	-11.4739
▁திண்ட	-11.474
▁வெறியை	-11.474
▁Hard	-11.474
▁prechana	-11.4741
vay	-11.4741
▁aat	-11.4746
▁thiruntha	-11.4746
▁comp	-11.4748
▁evolo	-11.4749
▁kudumbam	-11.475
▁pray	-11.4752
▁pogala	-11.4752
▁அகில	-11.4756
uta	-11.4757
ranuga	-11.4757
asu	-11.4758
▁shock	-11.4758
▁jail	-11.4759
தில்	-11.476
▁goo	-11.4761
▁sathyama	-11.4762
▁kadal	-11.4764
▁voda	-11.4764
▁green	-11.4765
kkura	-11.4766
asuran	-11.4767
▁நிலை	-11.4769
▁kollai	-11.477
▁poduva	-11.4773
▁கொண்டாட	-11.4774
▁seruppu	-11.4776
▁polla	-11.4779
ngalam	-11.4781
▁potruku	-11.4783
▁kav	-11.4783
▁potrukinga	-11.4787
▁Same	-11.4788
▁aalunga	-11.4788
▁lift	-11.4789
▁sek	-11.4789
ட	-11.4789
▁sollalam	-11.479
▁natural	-11.479
▁thayolinga	-11.4791
cham	-11.4792
▁நடக்க	-11.4792
▁epovum	-11.4792
uri	-11.4793
sr	-11.4794
appan	-11.4796
▁Pesu	-11.4796
▁purinj	-11.4797
▁saamy	-11.4802
▁Kid	-11.4803
е	-11.4804
▁kare	-11.4804
▁vedi	-11.4806
▁thaili	-11.4806
▁vani	-11.4809
▁IT	-11.4812
▁panura	-11.4813
▁naaigal	-11.4814
jr	-11.4814
iiiiiiiiiiiiii	-11.4815
ech	-11.4817
▁motion	-11.4817
ப்படும்	-11.4819
vl	-11.4819
ithula	-11.482
▁kunju	-11.4822
▁Late	-11.4826
▁kudupan	-11.4829
thutu	-11.4829
▁avanunga	-11.483
▁mosam	-11.4832
▁Eth	-11.4836
றது	-11.4836
வதும்	-11.4838
ப்பட்ட	-11.4842
▁swag	-11.4842
▁ஊரு	-11.4842
▁kaun	-11.4845
▁liya	-11.4848
com	-11.4848
▁sher	-11.4849
kave	-11.485
மை	-11.485
tak	-11.4853
eshwara	-11.4856
care	-11.4858
comment	-11.4859
▁bomb	-11.486
▁செ	-11.4862
peru	-11.4863
▁மு	-11.4864
agavum	-11.4867
▁vetu	-11.4867
old	-11.4869
rajan	-11.4872
uuuuuuu	-11.4874
▁kudik	-11.4875
▁aada	-11.4881
▁yetha	-11.4882
▁kudupa	-11.4884
▁wal	-11.4885
▁rev	-11.4887
▁lip	-11.4889
wn	-11.4889
▁Yean	-11.489
onlinejobs	-11.4891
ாளி	-11.4893
gf	-11.4893
▁வி	-11.4894
▁till	-11.4894
1029	-11.4897
▁rape	-11.4898
ador	-11.4899
bala	-11.4899
ettu	-11.4899
▁pokuthu	-11.4901
▁Avara	-11.4903
llah	-11.4906
▁oduthu	-11.4909
sc	-11.4909
▁pichai	-11.4909
▁hor	-11.4909
▁yanga	-11.4911
▁dhaana	-11.4913
▁paisa	-11.4913
chittu	-11.4913
வரும்	-11.4915
KKA	-11.4916
▁pari	-11.4916
▁நீல	-11.4918
▁thakku	-11.492
▁கூட்ட	-11.4924
▁irukaanga	-11.4926
vathi	-11.4926
cking	-11.4933
▁azha	-11.4939
▁thang	-11.4939
▁பெருமையா	-11.494
▁thaane	-11.4942
சி	-11.4943
▁pause	-11.4943
ingaluku	-11.4944
▁podran	-11.4945
▁into	-11.4946
villai	-11.4948
▁peyar	-11.4948
▁ran	-11.4949
▁Pool	-11.4949
▁lit	-11.4951
▁thuu	-11.4951
ஸ்ட்	-11.4951
▁குடி	-11.4952
▁santhosama	-11.4953
▁உயிர்	-11.4954
▁kaattu	-11.4954
ரா	-11.4956
▁velaiku	-11.4957
xq	-11.4958
▁analum	-11.4959
ifying	-11.4959
rah	-11.4959
▁inimel	-11.4959
▁sakthi	-11.4965
▁pori	-11.4966
▁park	-11.4966
▁sanga	-11.4968
▁அவனுங்க	-11.4968
bce	-11.4969
▁நான	-11.497
▁Pala	-11.4973
ua	-11.4975
vantha	-11.4979
▁apr	-11.4981
▁sree	-11.4982
ssssss	-11.4989
ā	-11.4989
▁puluthi	-11.4991
▁thundu	-11.4993
▁bac	-11.4993
▁periyar	-11.4993
nline	-11.4995
டைய	-11.4997
▁ss	-11.4999
▁***	-11.5001
▁vetta	-11.5001
ாரு	-11.5002
iting	-11.5002
▁Your	-11.5005
▁pich	-11.5007
▁தப்ப	-11.5008
▁pooi	-11.5011
hindi	-11.5012
▁read	-11.5014
rikinga	-11.5015
1016	-11.5016
▁pannuvinga	-11.5018
▁porunthum	-11.5019
kil	-11.502
▁movan	-11.502
loo	-11.5021
▁idh	-11.5024
▁vachiruka	-11.5024
numa	-11.5027
▁thuuu	-11.5027
tg	-11.5032
lavu	-11.5034
▁Comali	-11.5034
▁2:1	-11.5038
▁thri	-11.5039
▁பால	-11.5041
cl	-11.5041
avam	-11.5042
▁wil	-11.5045
hip	-11.5045
▁patam	-11.5046
keep	-11.5047
nnn	-11.5047
▁lub	-11.5048
▁nalu	-11.5049
▁1.2	-11.5051
▁apd	-11.5052
▁cher	-11.5055
▁moon	-11.5056
▁edi	-11.5058
▁mothi	-11.5059
para	-11.506
▁கூட்டணி	-11.5061
just	-11.5061
154	-11.5061
Varalam	-11.5064
ththi	-11.5067
▁சொல்	-11.5068
ded	-11.5068
vachu	-11.5077
qm	-11.5086
lal	-11.5087
▁thada	-11.5088
Share	-11.5088
▁போயி	-11.5088
▁gandul	-11.5092
varaikum	-11.5092
ippo	-11.5093
▁thook	-11.5094
▁poddu	-11.5095
ante	-11.51
▁Cha	-11.51
karu	-11.5102
hm	-11.5104
▁pottathu	-11.5105
970	-11.5105
▁kutta	-11.5106
▁ன்னு	-11.5107
manam	-11.5108
வுக்கு	-11.5109
▁எட	-11.5109
▁kelambi	-11.511
▁sollanuma	-11.5114
▁muj	-11.5116
▁வை	-11.5117
bal	-11.5117
minutes	-11.5117
▁yentha	-11.5122
1033	-11.5125
▁pesana	-11.5126
kaithi	-11.5126
▁aak	-11.5127
క	-11.5128
▁blast	-11.5129
▁panniten	-11.5129
▁oliya	-11.5131
inkala	-11.5131
189	-11.5133
▁rest	-11.5133
panni	-11.5134
▁மிகப்	-11.5134
▁ivanunga	-11.5135
acha	-11.5136
irukanga	-11.5137
▁pakuran	-11.5138
▁moth	-11.514
▁ball	-11.5142
▁thun	-11.5142
pot	-11.5143
▁mast	-11.5145
▁thandala	-11.5147
▁pathuka	-11.5149
▁nadak	-11.515
▁சமுக	-11.515
▁podung	-11.5154
த்தா	-11.5155
▁bhu	-11.5156
▁veedu	-11.5156
▁panur	-11.5159
kt	-11.5159
kanga	-11.516
▁56	-11.5164
▁puyal	-11.5166
▁produce	-11.5166
▁eruthu	-11.5168
▁olara	-11.5173
dichi	-11.5174
▁sadhi	-11.5175
▁koodi	-11.5176
alan	-11.5176
zq	-11.5177
▁kaanom	-11.5182
_8	-11.5183
jal	-11.5183
▁engada	-11.5191
▁shu	-11.5191
▁karna	-11.5194
▁maintain	-11.5195
▁silla	-11.5195
▁thalaiv	-11.5197
▁bri	-11.5198
▁ungotha	-11.5201
▁அடக்க	-11.5204
indhi	-11.5206
ிறது	-11.5207
▁kalu	-11.5208
thunga	-11.521
▁magana	-11.5211
ிலிருந்து	-11.5213
▁vanthutta	-11.5213
▁zi	-11.5214
len	-11.522
▁poitan	-11.5222
ongratulations	-11.5229
▁பண்ற	-11.5231
▁oorula	-11.5232
ார்கள்	-11.5232
▁duper	-11.5232
▁ஃப	-11.5233
▁Par	-11.5239
▁vaala	-11.524
rla	-11.5242
yadhu	-11.5243
frm	-11.5243
▁project	-11.5244
▁sava	-11.5247
▁டிக்கெட்	-11.5247
▁arm	-11.525
▁Lanka	-11.525
▁neee	-11.5255
▁dur	-11.5256
str	-11.5258
▁vij	-11.5259
js	-11.5259
pottu	-11.526
▁round	-11.5263
IS	-11.5263
▁வச்சா	-11.5263
▁Le	-11.5264
▁makka	-11.5266
1030	-11.5266
▁realise	-11.5266
▁dhaa	-11.5266
▁வேண்டுகோள்	-11.5268
▁அவ்வளவு	-11.5268
▁RIP	-11.5268
▁Deepavali	-11.5268
▁இன்னொரு	-11.5268
▁Valthukkal	-11.5269
▁Pollachi	-11.5269
1026	-11.5269
▁நீண்ட	-11.5269
▁vaazhthukal	-11.5269
▁உள்ளனர்	-11.527
▁Naraya	-11.527
▁neengala	-11.527
▁தலைவி	-11.527
▁kandaroli	-11.527
▁yemathuringa	-11.5271
▁கெத்து	-11.5271
▁visuvasam	-11.5271
egi	-11.5272
▁அணைத்து	-11.5272
▁animated	-11.5272
▁vetripera	-11.5272
▁mundaiyae	-11.5273
▁இருக்குமோ	-11.5273
▁ஒழிப்பு	-11.5273
▁அவசியம்	-11.5273
▁பார்த்துட்டு	-11.5273
▁nadakkum	-11.5273
▁Madurai	-11.5274
badi	-11.5275
▁போராட்டம்	-11.5275
▁entertainer	-11.5276
▁kaidhi	-11.5276
▁forward	-11.5276
▁Paavam	-11.5277
▁tiktok	-11.5277
▁Kodi	-11.5277
▁தேவேந்திரகுல	-11.5278
144	-11.5278
▁sivakarthikeyan	-11.5278
▁friendship	-11.5278
▁conform	-11.5278
▁pakuringa	-11.5279
hz	-11.5279
▁blowing	-11.528
▁Srilanka	-11.528
▁thakida	-11.528
▁tholla	-11.5281
▁maximum	-11.5281
▁baad	-11.5281
▁On	-11.5282
▁என்னோட	-11.5283
நீங்க	-11.5283
▁pottru	-11.5285
irundha	-11.5286
▁Scene	-11.5286
sun	-11.5287
▁rajesh	-11.5288
▁Sola	-11.5288
▁letter	-11.5288
▁appanuku	-11.5289
▁சிம்பு	-11.529
pink	-11.529
▁Great	-11.5291
▁pah	-11.5291
▁Simple	-11.5293
▁Bo	-11.5294
▁worry	-11.5296
▁ez	-11.5296
▁Aadhi	-11.5297
▁dhar	-11.5297
▁pantravanga	-11.5297
▁salary	-11.5297
▁podun	-11.5297
▁village	-11.5297
▁மாட்டோம்	-11.5297
▁soldr	-11.5298
huku	-11.5298
▁paal	-11.5299
▁pesittu	-11.5301
▁pawan	-11.5301
▁valla	-11.5302
▁ninachu	-11.5302
tel	-11.5303
▁MUSIC	-11.5303
▁nxt	-11.5304
▁டிஸ்	-11.5304
▁met	-11.5304
▁elumban	-11.5306
▁paathen	-11.5306
▁enak	-11.5307
thilum	-11.5307
▁pannuven	-11.5308
rean	-11.5308
▁Kee	-11.531
dad	-11.5311
▁elavu	-11.5311
▁Ethukku	-11.5313
▁Even	-11.5314
▁Semme	-11.5316
▁Pathi	-11.5316
▁mang	-11.5316
▁irunthaalum	-11.5317
▁Ketta	-11.5319
▁வாய்ப்பு	-11.5319
▁podranga	-11.5319
▁Vidunga	-11.532
erum	-11.532
▁comeback	-11.532
▁solle	-11.5321
▁maara	-11.5322
▁thimiru	-11.5322
▁agita	-11.5322
▁uncle	-11.5323
▁theriyalaye	-11.5323
jn	-11.5324
▁Ulla	-11.5324
▁counter	-11.5324
▁laugh	-11.5325
▁past	-11.5326
▁unmayana	-11.5326
▁2.5	-11.5328
▁yi	-11.5328
▁வாழ்த்துக்களை	-11.5328
▁பசங்களா	-11.5329
▁order	-11.533
▁karupu	-11.5333
world	-11.5333
▁🤩🤩🤩	-11.5338
kkaran	-11.5338
▁ob	-11.5339
new	-11.5339
▁harris	-11.5341
same	-11.5342
▁ragavan	-11.5343
▁Theriya	-11.5343
ick	-11.5344
especially	-11.5345
thunala	-11.5345
▁rendum	-11.5345
ars	-11.5348
naala	-11.5349
▁GO	-11.535
▁athey	-11.5351
ngaloda	-11.5352
Rakul	-11.5353
row	-11.5353
▁install	-11.5354
ax	-11.5359
▁solrathuku	-11.5361
▁nadar	-11.5362
pg	-11.5363
▁birth	-11.5364
▁paadam	-11.5364
▁உழைப்ப	-11.5365
hil	-11.5365
▁bittu	-11.5366
bba	-11.5366
▁june	-11.5367
chain	-11.5367
▁dailyum	-11.5369
▁wel	-11.5371
▁minute	-11.5371
▁jes	-11.5371
▁lakh	-11.5372
▁இதற்கு	-11.5373
wt	-11.5374
▁pesna	-11.5375
▁pattaya	-11.5376
▁Ivaru	-11.5377
▁sul	-11.5381
▁hater	-11.5381
▁solr	-11.5381
▁panniru	-11.5382
▁kilichi	-11.5384
▁viswasatha	-11.5385
▁graphics	-11.5386
▁matten	-11.5386
▁adikura	-11.5392
cap	-11.5393
▁nenaikuren	-11.5393
sey	-11.5395
▁poodunga	-11.5397
▁mokkai	-11.5397
▁thirutu	-11.5399
▁poita	-11.5399
▁behave	-11.54
mbo	-11.54
ளும்	-11.5405
njam	-11.5406
▁samuthayam	-11.5406
▁tau	-11.5406
yanam	-11.541
level	-11.5412
▁ms	-11.5413
▁appdi	-11.5414
▁polayae	-11.5414
1008	-11.5416
▁som	-11.5417
▁manus	-11.5417
▁ipidi	-11.5418
▁pannirukinga	-11.5419
▁padikura	-11.5421
▁இருந்தது	-11.5422
▁செய்வது	-11.5422
▁vilundhu	-11.5423
▁தொட்டவன	-11.5423
akkam	-11.5423
ures	-11.5424
▁அவ	-11.5424
▁Subscribe	-11.5432
158	-11.5433
▁mella	-11.5435
▁poravanga	-11.5436
▁agudhu	-11.5441
தி	-11.5441
▁strong	-11.5442
▁போச்சு	-11.5442
▁off	-11.5442
▁fin	-11.5442
kanu	-11.5443
▁gundu	-11.5443
▁apudi	-11.5443
▁joker	-11.5443
செய்து	-11.5444
hula	-11.5444
▁vangada	-11.5445
▁eila	-11.5446
▁durai	-11.5446
▁kura	-11.5446
▁தோழர்	-11.5448
mugam	-11.5449
cks	-11.5451
▁irundhuchu	-11.5451
▁thollai	-11.5452
▁Ivar	-11.5455
etta	-11.546
xe	-11.5462
▁ஒட்டு	-11.5465
▁Yaa	-11.5465
▁padathu	-11.5466
raanga	-11.5468
▁sontha	-11.5468
▁kedaik	-11.5469
udaiya	-11.5469
xk	-11.5471
▁HARR	-11.5473
ు	-11.5474
▁சமூகத்த	-11.5474
▁parungada	-11.5475
▁ellaa	-11.5475
▁pannadha	-11.5476
mq	-11.5477
rega	-11.5478
▁nika	-11.5479
ees	-11.5483
▁அறிய	-11.5485
▁ayi	-11.5487
▁கண்ட	-11.5488
umpothu	-11.5489
▁காலா	-11.5491
▁earn	-11.5493
▁kattanum	-11.5493
▁sollitan	-11.5494
padu	-11.5494
▁poitanga	-11.5497
▁sappa	-11.5498
pil	-11.5499
▁marakka	-11.5501
▁pesuva	-11.5501
uhh	-11.5502
alli	-11.5503
rru	-11.5504
▁land	-11.5506
▁tom	-11.5506
▁அண்ண	-11.5506
▁sara	-11.5508
▁aas	-11.5508
▁eluth	-11.5508
▁நடித்த	-11.5509
▁kottai	-11.5509
▁bachan	-11.5512
▁Vedha	-11.5517
STAR	-11.5517
ngappa	-11.5519
▁pey	-11.5519
▁varlan	-11.5521
▁சம்பாதிக்க	-11.5522
nb	-11.5523
▁paavingala	-11.5524
▁mudiala	-11.5525
house	-11.5525
▁mom	-11.5527
▁படு	-11.5529
duvan	-11.5531
ூ	-11.5533
▁adhaan	-11.5534
iiiiiiii	-11.5535
ngga	-11.5539
▁papan	-11.5543
▁tal	-11.5543
▁ped	-11.5545
▁utha	-11.5546
▁vaan	-11.5548
▁soldravan	-11.555
ungha	-11.5552
▁pannave	-11.5558
▁மாற்ற	-11.556
▁வார்த்தை	-11.5561
▁padipu	-11.5562
▁ilove	-11.5562
▁oth	-11.5565
களா	-11.5567
902	-11.5567
ன்ஸ்	-11.5575
ுட்டு	-11.5575
kiradhu	-11.5581
send	-11.5581
▁leve	-11.5588
kaka	-11.5594
குடி	-11.5595
க்கிட்டு	-11.5597
▁uyar	-11.5598
tiga	-11.5599
▁ஆவல	-11.5599
ssssssssssssss	-11.5601
▁சம்பவத்தை	-11.5604
▁boo	-11.5605
▁கோவ	-11.5605
▁admk	-11.5605
▁vedu	-11.5606
▁perukku	-11.5608
▁Ith	-11.561
▁nerama	-11.5611
▁ben	-11.5613
▁எல்லோர	-11.5613
mudi	-11.5613
▁code	-11.5613
▁bir	-11.5616
▁veka	-11.5619
▁Famil	-11.5623
▁ariya	-11.5624
▁ruba	-11.5624
ும்போது	-11.5626
▁jaye	-11.5629
▁mistake	-11.5629
rate	-11.5635
▁fill	-11.5636
bigil	-11.5637
▁vanthan	-11.5637
▁irrunthu	-11.5639
▁சிவ	-11.564
tleast	-11.5644
titu	-11.5646
▁ade	-11.5647
kon	-11.5649
Kaapan	-11.5649
▁seema	-11.565
ght	-11.565
▁nadakura	-11.565
plz	-11.5651
▁Vel	-11.5654
▁கள்ள	-11.5655
▁mattume	-11.5655
▁Avengers	-11.5656
▁thirumpa	-11.5658
▁Top	-11.5663
nathan	-11.5664
sana	-11.5664
▁Kathir	-11.5667
▁irukanu	-11.5667
▁semaa	-11.5669
▁naaga	-11.5671
▁pasi	-11.5671
mes	-11.5677
gel	-11.5677
௫	-11.5678
▁nikal	-11.5679
▁irukkey	-11.568
▁wonderful	-11.5681
▁cham	-11.5682
▁veeram	-11.5684
zg	-11.5689
alukku	-11.5691
▁nakka	-11.5694
▁tele	-11.5695
▁pesuringa	-11.5697
richu	-11.5697
▁heavy	-11.5701
▁laya	-11.5707
yaru	-11.5707
ory	-11.5707
▁pathinga	-11.5709
sollunga	-11.5709
Racer	-11.5714
▁பயன்படுத்தி	-11.5716
ease	-11.5719
itten	-11.5721
▁bata	-11.5723
enn	-11.5724
▁peasa	-11.5727
▁tell	-11.5727
angu	-11.5728
▁vaikka	-11.573
▁Dae	-11.5731
▁Some	-11.5733
🤩🤩	-11.5733
▁inimey	-11.5733
▁pidich	-11.5736
athunu	-11.5736
pq	-11.5737
▁குலத்தின	-11.5737
aalum	-11.5737
▁veara	-11.5738
km	-11.574
ுள்ள	-11.5741
▁ennaya	-11.5742
▁நமத	-11.5743
qy	-11.575
▁நண்பர்களுக்கு	-11.5752
Bairavaa	-11.5753
▁bach	-11.5753
▁தமிழர்கள	-11.5753
▁enge	-11.5755
▁Mar	-11.5758
hra	-11.5759
▁Vayasu	-11.5761
▁கொடுத்த	-11.5762
cm	-11.5765
ability	-11.5768
▁ponnuku	-11.577
▁kin	-11.5771
▁rakh	-11.5773
▁படத்தில	-11.5773
▁sand	-11.5774
▁pathe	-11.5775
ளா	-11.5776
af	-11.5776
▁hear	-11.5778
mobile	-11.5779
vangaluku	-11.5781
▁ves	-11.5783
1007	-11.5783
▁supp	-11.5784
450	-11.5786
▁இனிமேல	-11.5787
▁arul	-11.5788
▁koothingala	-11.5788
point	-11.5788
▁பொது	-11.5792
fully	-11.5794
▁rh	-11.5796
lamnu	-11.5798
lv	-11.5799
▁mot	-11.58
gun	-11.5801
▁எம்	-11.5802
fit	-11.5803
teaser	-11.5804
▁erunth	-11.5804
▁இனத்த	-11.5807
▁69	-11.5807
gr	-11.5808
▁gam	-11.5808
ulam	-11.5809
▁comm	-11.5809
▁thalaaaaaaa	-11.5811
▁சப்போர்ட்	-11.5811
▁vig	-11.5813
ages	-11.5817
ime	-11.5817
▁irukae	-11.5818
▁எடுங்க	-11.5818
▁கட்டி	-11.5819
▁masssssssssss	-11.5822
▁sud	-11.5822
lku	-11.5823
▁pesuradhu	-11.5823
படி	-11.5823
▁bay	-11.5826
vd	-11.5828
,,,,,	-11.5829
avala	-11.5829
▁chee	-11.583
▁yosichi	-11.583
▁enru	-11.583
▁eda	-11.583
▁health	-11.5832
▁பக	-11.5835
▁semmmma	-11.5835
▁pannitanga	-11.5836
eeeeeee	-11.5842
அந்த	-11.5844
▁insta	-11.5847
▁nadikura	-11.5847
nq	-11.5849
▁அடிச்ச	-11.5849
eme	-11.5851
▁adikira	-11.5851
தலைவர்	-11.5852
▁மூவி	-11.5853
▁tis	-11.5853
ஐ	-11.5854
▁cell	-11.5854
ஆனால்	-11.5856
▁sr	-11.5857
wk	-11.586
drawing	-11.5861
▁Old	-11.5862
rupees	-11.5864
யெல்லாம்	-11.5868
▁epidi	-11.5868
ultra	-11.5869
ரி	-11.587
ingga	-11.5871
moto	-11.5871
295	-11.5874
▁ஏமாற்ற	-11.5874
▁available	-11.5878
ways	-11.5879
ண்ணாம	-11.5879
▁bah	-11.5882
▁kaathu	-11.5885
▁mill	-11.5888
..."	-11.5888
haya	-11.5889
▁வாழ்க்கையை	-11.5892
▁eanna	-11.5893
ukiren	-11.5894
utta	-11.5896
▁phon	-11.5897
Dhanush	-11.5899
iyya	-11.5903
case	-11.5903
ikkiren	-11.5904
hd	-11.5904
▁rendume	-11.5904
▁kick	-11.5904
▁pakravanga	-11.5906
▁irukar	-11.5909
▁varanga	-11.591
irukken	-11.5913
▁jenmam	-11.5914
▁ennam	-11.5914
▁kro	-11.5918
▁Bat	-11.5918
nx	-11.592
paya	-11.5921
▁yae	-11.5922
▁sugam	-11.5922
ikuthu	-11.5924
▁lev	-11.5924
▁tap	-11.5925
▁field	-11.5926
▁Sol	-11.5926
▁command	-11.5928
▁ans	-11.593
▁enaya	-11.593
▁கேள்வி	-11.5934
▁veg	-11.5935
ilaya	-11.5936
▁frd	-11.5936
▁manithan	-11.5936
SU	-11.5936
ili	-11.5938
angale	-11.5938
▁nadigar	-11.5942
னின்	-11.5945
▁பிடித்து	-11.5947
ily	-11.5948
▁kadi	-11.5952
ஒரு	-11.5952
▁muth	-11.5958
▁soori	-11.596
▁4.	-11.596
▁koothinga	-11.5965
1020	-11.5965
▁kalaicha	-11.5969
▁edukanum	-11.5971
▁irukenga	-11.5973
▁Ivanunga	-11.5974
▁Kuruma	-11.5975
▁vidalama	-11.5978
▁combination	-11.5978
▁உடன	-11.5979
dhanush	-11.598
▁length	-11.5983
▁mudiyama	-11.5987
▁rmba	-11.5987
▁preet	-11.599
▁kaluvi	-11.5991
rage	-11.5991
ரின்	-11.5992
▁sapadu	-11.5993
▁abishek	-11.5995
▁vanthen	-11.5997
noor	-11.6
▁oc	-11.6001
▁yethi	-11.6004
▁nadatha	-11.6004
▁vilayad	-11.6006
645	-11.6007
▁vaga	-11.6007
▁maathu	-11.6008
▁solid	-11.601
▁idam	-11.601
▁course	-11.6011
▁seiyum	-11.6011
▁enth	-11.6012
▁irupinga	-11.6013
ches	-11.6013
▁mrg	-11.6014
▁AN	-11.6016
▁rowdy	-11.602
▁மண்ண	-11.6021
ils	-11.6021
▁adic	-11.6022
▁slu	-11.6023
▁onn	-11.6024
▁gana	-11.6025
▁akki	-11.6027
▁vidum	-11.6031
▁kekala	-11.6031
▁muruga	-11.6031
apdi	-11.6033
्	-11.6036
NerKondaPaarvai	-11.6038
▁Mysskin	-11.6038
▁SONG	-11.6038
▁நிகழ்ச்சிக	-11.6038
▁Sasikumar	-11.6038
▁திரையரங்குகளில்	-11.6038
▁Ovvoru	-11.6038
▁புதிய	-11.6038
▁வெயிட்டிங்	-11.6038
▁anguttu	-11.6038
▁பாப்போம்	-11.6039
▁Trailor	-11.6039
▁அய்யா	-11.6039
▁rajinified	-11.6039
ண்டல்	-11.6039
▁டீஸர்	-11.6039
▁June	-11.6039
▁விஷயம்	-11.604
▁தப்புனா	-11.604
▁owner	-11.6041
▁Padippa	-11.6041
▁இருப்போம்	-11.6041
▁aayegi	-11.6041
▁attempt	-11.6041
▁album	-11.6042
;#	-11.6043
lpa	-11.6043
▁cringe	-11.6043
▁muthal	-11.6044
▁vidra	-11.6044
▁சக	-11.6044
▁ஆரம்பம்	-11.6045
▁ellarkum	-11.6045
▁kidayathu	-11.6046
▁இராமநாதபுர	-11.6047
▁teejay	-11.6047
▁payya	-11.6048
▁BAIRAVAA	-11.6048
▁varuvadh	-11.6048
▁மன்றம்	-11.6048
▁irupom	-11.6048
▁தப்புதான்	-11.605
▁Brother	-11.605
▁இருக்கிறார்கள்	-11.605
▁இன்றை	-11.605
▁கடமை	-11.6051
▁rathnam	-11.6051
▁joseph	-11.6052
xu	-11.6053
▁kallu	-11.6053
▁மோகன்ஜி	-11.6054
week	-11.6054
▁thav	-11.6054
tula	-11.6054
▁perla	-11.6055
▁kutitu	-11.6056
▁thiruppi	-11.6056
fd	-11.6057
▁Ali	-11.6057
▁bank	-11.6057
▁someone	-11.6057
▁thriller	-11.6057
▁angutu	-11.6059
▁ivalavu	-11.6059
podu	-11.6059
▁ellaarum	-11.606
நல்வாழ்த்துக்கள்	-11.606
▁dharisanam	-11.606
sions	-11.6062
▁supera	-11.6062
anai	-11.6063
▁ADMK	-11.6063
ngaa	-11.6064
▁pulli	-11.6064
▁ஆனாலும்	-11.6065
aai	-11.6065
▁saganum	-11.6066
▁True	-11.6066
▁another	-11.6067
▁இதுதான்	-11.6067
▁RAJA	-11.6068
▁டீசர்	-11.6068
▁varattum	-11.6069
▁adikadi	-11.6069
▁gol	-11.6069
▁sirapana	-11.607
tn	-11.6071
▁average	-11.6071
▁Anyway	-11.6072
ுது	-11.6073
▁bhojan	-11.6073
▁urimai	-11.6074
▁dhe	-11.6074
▁krish	-11.6074
▁YUVAN	-11.6075
ã	-11.6076
▁vat	-11.6077
aah	-11.6077
▁அதுக்கு	-11.6078
oney	-11.6078
▁அசுரன	-11.6079
▁37	-11.6079
▁இல்லையே	-11.6079
▁paduthureenga	-11.6081
aatha	-11.6081
▁request	-11.6081
cj	-11.6081
▁eduthalum	-11.6083
▁pannaru	-11.6083
THA	-11.6084
▁visuals	-11.6084
▁purinji	-11.6085
▁மச்சான்	-11.6085
▁pongalukku	-11.6086
▁pannugga	-11.6086
0000000000000000	-11.6086
▁Trailar	-11.6088
▁thamizhan	-11.6089
kana	-11.609
▁பெற்றோர்கள	-11.609
▁varam	-11.6093
mbi	-11.6093
▁sollanumna	-11.6093
vt	-11.6094
▁genius	-11.6095
▁suya	-11.6095
periya	-11.6096
ball	-11.6096
kalil	-11.6097
968	-11.6097
▁response	-11.6097
▁things	-11.6098
▁ezhuthu	-11.6098
▁Mat	-11.6098
ury	-11.6099
▁thamb	-11.6099
kudathu	-11.61
▁maatom	-11.6101
▁dislikers	-11.6102
▁dm	-11.6103
▁nijama	-11.6103
▁seems	-11.6103
▁current	-11.6104
▁innaikku	-11.6105
▁Friends	-11.6106
▁rani	-11.6106
tayum	-11.6107
▁minister	-11.6108
▁puth	-11.6109
▁vedalam	-11.6109
▁kanji	-11.611
▁கவுண்டன்	-11.6111
▁kathari	-11.6112
▁NO	-11.6113
▁சமம்	-11.6113
▁sothu	-11.6113
▁winner	-11.6115
▁Enakk	-11.6116
▁vasi	-11.6116
▁View	-11.6118
▁pooda	-11.6118
qe	-11.6119
▁yendha	-11.612
▁fever	-11.6121
wg	-11.6122
▁theriuthu	-11.6127
▁potinga	-11.6128
▁🤣🤣🤣🤣🤣	-11.6128
ilai	-11.6128
▁vak	-11.6129
naan	-11.6129
uki	-11.6131
BY	-11.6134
▁காப்பி	-11.6135
▁எடுக்கப்பட்ட	-11.6138
▁nah	-11.6139
▁peri	-11.6139
▁சிறப்பா	-11.6139
308	-11.6141
▁maathri	-11.6142
▁kidu	-11.6142
▁Dis	-11.6144
▁sugar	-11.6144
▁Thalivar	-11.6144
kv	-11.6144
▁sak	-11.6144
dt	-11.6144
eswarar	-11.6146
▁adanga	-11.6151
▁pesuriya	-11.6151
▁jei	-11.6154
▁apdiyae	-11.6154
▁quality	-11.6156
▁Ok	-11.6156
▁seira	-11.6158
▁jeya	-11.6159
▁பன்னுங்க	-11.6159
▁thor	-11.616
▁lover	-11.616
mk	-11.616
▁~	-11.616
nadu	-11.616
▁memes	-11.616
▁senj	-11.6161
▁sign	-11.6161
▁pullingo	-11.6163
taa	-11.6164
▁wanted	-11.6164
gara	-11.6164
▁Nadika	-11.6165
MAN	-11.6167
▁ezh	-11.6168
dringa	-11.6169
க்காரன்	-11.6169
▁lyk	-11.6169
irupanga	-11.6169
▁stor	-11.6171
ell	-11.6173
ingale	-11.6175
▁Rasiga	-11.618
ngk	-11.6181
▁nanri	-11.6184
1014	-11.6184
ady	-11.6185
▁என்னை	-11.6186
▁velli	-11.6189
▁uday	-11.6191
▁finally	-11.6192
▁cold	-11.6192
▁therinj	-11.6193
▁watched	-11.6196
vat	-11.6198
ikura	-11.62
kunu	-11.6202
▁malaysia	-11.6202
▁katharu	-11.6203
▁sapdu	-11.6203
▁Namakku	-11.6206
yyyyyy	-11.6207
▁podungo	-11.621
▁med	-11.621
▁CS	-11.6211
eeeeeeeeeeeeee	-11.6212
▁Kandu	-11.6214
▁poro	-11.6218
▁fri	-11.6221
1041	-11.6224
eer	-11.6224
▁vayasa	-11.6225
▁kekum	-11.6226
▁oluga	-11.6228
▁hurt	-11.6229
▁Kv	-11.6232
▁பயம்	-11.6232
▁kanavu	-11.6232
ikitu	-11.6233
ದ	-11.6233
▁devi	-11.6233
▁inoru	-11.6234
other	-11.6234
uvinga	-11.6237
▁crcta	-11.6237
dhunu	-11.6237
vr	-11.6239
▁pit	-11.6241
▁tim	-11.6243
▁NA	-11.6245
own	-11.6246
▁paaruda	-11.6247
▁Mood	-11.6248
▁நாள	-11.6248
▁gir	-11.625
▁gay	-11.6251
▁Dhaan	-11.6253
▁Wat	-11.6255
▁podatha	-11.6255
kul	-11.6255
pula	-11.6256
▁கண்டு	-11.6257
▁huge	-11.6257
▁sonnanga	-11.6258
▁polichu	-11.6258
▁enamo	-11.626
▁kedaika	-11.6262
▁aache	-11.6264
▁shivan	-11.6266
▁venumna	-11.6267
team	-11.6268
..!!!	-11.6268
▁avolo	-11.6268
▁loved	-11.6271
▁jal	-11.6273
▁பாதுகாப்பு	-11.6274
adheenga	-11.6274
▁vah	-11.6276
likes	-11.6276
lada	-11.6278
▁வட	-11.6278
maiya	-11.6279
▁pesina	-11.628
▁sandai	-11.6281
களுக்கும்	-11.6281
▁solluda	-11.6281
▁padut	-11.6282
▁parkka	-11.6282
▁athaan	-11.6283
▁yaruda	-11.6283
tharam	-11.6285
▁aka	-11.6285
▁கொடுமை	-11.6286
ppi	-11.6287
▁parkalam	-11.6287
▁sm	-11.6288
▁lets	-11.6289
itt	-11.6289
▁harsh	-11.6289
1005	-11.6292
▁ponunga	-11.6292
isha	-11.6292
о	-11.6293
▁raid	-11.6293
vada	-11.6294
▁seat	-11.63
▁tharam	-11.6301
▁Allu	-11.6302
▁Dhan	-11.6303
valam	-11.6304
ía	-11.6304
▁panama	-11.6305
lets	-11.6306
▁Kadaisi	-11.6308
▁pathuko	-11.6309
▁Reach	-11.6309
▁மதிக்க	-11.6309
atham	-11.631
▁visual	-11.6311
▁bhar	-11.6311
▁thairiyama	-11.6312
▁iphone	-11.6314
lc	-11.6315
▁eppovum	-11.6316
▁madu	-11.6319
▁chutiya	-11.632
▁avane	-11.6322
▁vanthuchi	-11.6323
▁sry	-11.6323
ace	-11.6324
▁Wa	-11.6326
▁inf	-11.6327
▁ayit	-11.6328
▁bye	-11.633
▁000	-11.6332
▁groups	-11.6332
ukkaga	-11.6333
▁pett	-11.6334
analum	-11.6337
▁Give	-11.6337
▁mudichu	-11.6338
come	-11.6339
mattum	-11.6341
▁moh	-11.6341
food	-11.6343
▁ishtam	-11.6344
▁valathu	-11.6346
▁irupen	-11.6347
▁payalugala	-11.6348
▁குறை	-11.6348
▁maadu	-11.6349
vathai	-11.635
▁server	-11.6351
pv	-11.6351
▁silent	-11.6351
▁ema	-11.6351
thalai	-11.6353
katta	-11.6353
▁women	-11.6353
▁poriki	-11.6354
▁idi	-11.6355
mr	-11.6355
ب	-11.6356
▁Av	-11.6358
duvom	-11.6362
ungaluku	-11.6363
ndum	-11.6363
bothu	-11.6366
yachum	-11.6366
dhinga	-11.6366
tingala	-11.6369
▁நம்பிக்கை	-11.637
pic	-11.6371
voda	-11.6371
loda	-11.6372
YY	-11.6372
▁தந்தை	-11.6373
US	-11.6373
ங்கள	-11.6382
▁வின்	-11.6383
▁vachuruka	-11.6383
▁அசிங்க	-11.6384
atchi	-11.6385
▁rak	-11.6387
theri	-11.6388
vela	-11.6389
▁THEVUDIYA	-11.6392
175	-11.6392
▁connect	-11.6392
▁avasiyam	-11.6394
▁வாயில	-11.6395
▁panradu	-11.6396
▁fac	-11.6398
மேல	-11.6399
▁stupid	-11.6399
ial	-11.64
▁aguma	-11.64
▁patri	-11.6401
▁rama	-11.6401
bm	-11.6405
▁dude	-11.6409
▁ENNA	-11.641
▁namm	-11.6415
▁இன்	-11.6416
▁pag	-11.6417
▁sago	-11.6418
க்கே	-11.642
lock	-11.6425
▁potha	-11.6425
▁bass	-11.6428
▁kalava	-11.6431
▁మ	-11.6431
DA	-11.6433
▁pali	-11.6434
▁idhukku	-11.6435
ikkanum	-11.644
▁பார்வையாளர்களை	-11.644
▁சமூகம	-11.6442
▁puch	-11.6443
sol	-11.6444
kes	-11.6449
▁காதலால	-11.645
▁little	-11.645
▁Jack	-11.6454
▁irukkalam	-11.6454
▁vith	-11.6455
tips	-11.6455
ockdown	-11.6456
▁uhh	-11.6456
▁sivan	-11.6457
▁hotel	-11.6459
▁vazhkai	-11.6459
kumpothu	-11.6462
▁coll	-11.6464
▁tat	-11.6467
alaa	-11.6467
vula	-11.647
▁poranthavane	-11.647
▁visay	-11.6472
nakku	-11.6472
▁muthala	-11.6472
LY	-11.6472
▁thot	-11.6474
▁nambu	-11.6477
▁Hindu	-11.6477
▁chal	-11.6478
lil	-11.648
edhu	-11.6481
haram	-11.6481
▁veinga	-11.6483
chari	-11.6483
dukku	-11.6484
ண்டு	-11.6484
▁ful	-11.6484
rappa	-11.6486
▁active	-11.649
▁thoongu	-11.6493
▁TH	-11.6494
▁aaj	-11.6495
▁appava	-11.6496
ule	-11.6496
▁hh	-11.6498
▁selavu	-11.6501
▁பார்க்கவ	-11.6502
lity	-11.6504
▁pootu	-11.6505
▁Ambala	-11.6506
▁aiyo	-11.6512
▁vitha	-11.6512
▁kisi	-11.6516
kurom	-11.6517
▁terila	-11.6519
▁Ellame	-11.6523
cq	-11.6524
ienne	-11.6524
▁உண்மையா	-11.6525
tutu	-11.6525
thaium	-11.6527
▁athuk	-11.6527
▁kanum	-11.6529
ொரு	-11.6531
iyin	-11.6533
▁thoondi	-11.6534
▁kadhaya	-11.6534
▁vanthurum	-11.6536
▁yenakku	-11.6537
amana	-11.6537
bangam	-11.6538
▁உணர	-11.6538
த்தால்	-11.6539
list	-11.654
▁allah	-11.654
hour	-11.6542
au	-11.6544
▁வள	-11.6544
▁Thal	-11.6546
▁venda	-11.6549
nom	-11.6549
▁enne	-11.6549
▁veetuku	-11.6549
▁முன்னேற	-11.6557
aranga	-11.6561
ttt	-11.6563
▁gl	-11.6563
▁விட்டது	-11.6566
▁siruthai	-11.6571
▁kekkura	-11.6572
mmmmm	-11.6574
igi	-11.6575
galil	-11.6576
▁shop	-11.6577
▁terla	-11.6578
▁வெறித்தனமா	-11.6579
▁thoonga	-11.658
▁koil	-11.6581
▁thirai	-11.6583
▁thup	-11.6584
▁robot	-11.6586
range	-11.6586
int	-11.6586
▁fro	-11.6586
▁hands	-11.6587
▁payaluga	-11.659
▁பின்னாடி	-11.6593
்னு	-11.6594
eega	-11.6595
▁vitru	-11.6596
pala	-11.6596
▁காட்டு	-11.6596
▁thangama	-11.6597
rra	-11.6597
▁mudhal	-11.6597
னே	-11.6598
kettu	-11.6599
▁kaan	-11.6599
rasam	-11.6601
▁Ninga	-11.6603
1022	-11.6603
▁sant	-11.6606
▁poduvanga	-11.6608
▁பெரு	-11.6609
▁Thalaaaaaaaa	-11.6609
cv	-11.661
▁alli	-11.6611
iiiiiiiiii	-11.6611
▁singh	-11.6611
▁vennum	-11.6614
ality	-11.6616
oni	-11.6617
▁vennai	-11.6617
▁நிலைய	-11.6618
itinga	-11.6623
▁உன்னை	-11.6624
▁nand	-11.6624
0:42	-11.6626
▁என்னா	-11.6626
thavanga	-11.6627
▁emathuringa	-11.6627
▁pos	-11.6628
▁Most	-11.6631
▁gopi	-11.6631
▁Athula	-11.6631
124	-11.6637
eq	-11.6638
words	-11.6639
gil	-11.6639
▁சூரியா	-11.6639
ண்ணா	-11.6639
▁law	-11.664
usd	-11.6641
▁தோல்வி	-11.6642
Unaku	-11.6644
▁charge	-11.6644
potta	-11.6645
184	-11.6645
giren	-11.6646
tb	-11.6647
▁quote	-11.6649
▁pran	-11.6649
▁seir	-11.6652
rj	-11.6652
▁peria	-11.6655
▁kela	-11.6656
Nee	-11.6656
▁brahmin	-11.6657
▁daan	-11.6658
னம்	-11.6659
வன்னியர்	-11.6663
▁jeevan	-11.6663
▁lawyer	-11.6666
▁avu	-11.6666
▁உன்ன	-11.6669
▁motham	-11.6669
▁Ithukku	-11.6673
▁yethuku	-11.6673
▁otti	-11.6674
▁thiruttu	-11.6675
▁highlight	-11.6675
டும்	-11.6675
▁kaap	-11.6676
▁0.3	-11.6676
viswasam	-11.6676
1015	-11.6678
▁மாமா	-11.6678
nces	-11.6678
konjam	-11.668
▁eat	-11.668
mali	-11.668
▁மொக்க	-11.668
adai	-11.6683
percent	-11.6685
blockbuster	-11.6685
police	-11.6685
▁கமென்ட்	-11.6685
▁பயன்	-11.6686
▁sapp	-11.6686
▁dekho	-11.6687
▁eduthuk	-11.6687
ஆனா	-11.6688
▁pannirukan	-11.6688
mutta	-11.6688
▁யாருக்கு	-11.6693
தேவர்	-11.6693
▁sathiya	-11.6697
▁வரவேற்க	-11.6697
▁ray	-11.6698
▁சிந்தனை	-11.6699
craft	-11.6699
▁நூற	-11.67
▁kodukura	-11.6701
▁sev	-11.6703
▁pidika	-11.6703
▁kalak	-11.6705
▁போடு	-11.6706
thuttu	-11.6707
▁nil	-11.6707
504	-11.6708
zar	-11.6708
▁yaro	-11.6708
screen	-11.6709
eswaran	-11.671
dev	-11.671
▁வம்சத்தின	-11.6711
rrrrr	-11.6712
▁dead	-11.6714
▁kumaran	-11.6714
veetla	-11.6715
▁loos	-11.6716
▁காப்பா	-11.6716
today	-11.6717
▁udambu	-11.6718
▁collect	-11.6718
▁aanava	-11.6721
thavida	-11.6723
ologist	-11.673
cx	-11.6731
▁except	-11.6733
▁matti	-11.6733
eb	-11.6733
▁வந்தது	-11.6734
▁vayasuku	-11.6734
▁இரண்ட	-11.6735
▁santhosh	-11.6735
▁vaipu	-11.6737
▁nic	-11.6738
▁maranthu	-11.6738
ாதீர்கள்	-11.674
▁அணி	-11.6741
▁decent	-11.6745
ipdi	-11.6746
▁bayangaram	-11.6748
▁varsham	-11.6748
309	-11.6749
▁மனுசன	-11.675
volo	-11.675
uture	-11.6753
logy	-11.6755
family	-11.6756
vw	-11.6758
608	-11.6759
shree	-11.6761
▁yarukum	-11.6762
▁paasam	-11.6762
▁meena	-11.6763
▁அனைவரு	-11.6765
▁paste	-11.6767
▁appu	-11.6768
▁thandanai	-11.677
▁Ayo	-11.6771
ipa	-11.6773
▁Asinga	-11.6777
lp	-11.6779
▁clg	-11.678
▁namam	-11.678
1009	-11.6782
▁pannanu	-11.6783
▁ஜ	-11.6783
▁puriy	-11.6784
▁சட்ட	-11.6785
▁pasu	-11.6785
eram	-11.6785
pk	-11.6788
xs	-11.6788
▁சாதியில்	-11.6788
▁vaaaa	-11.6789
▁ach	-11.679
thatha	-11.6792
▁ellarukkum	-11.6792
▁சொல்றது	-11.6795
▁pong	-11.6796
▁nerunga	-11.6796
▁மாத	-11.6797
▁pakistan	-11.6799
▁pandravan	-11.6799
275	-11.6801
▁poven	-11.6802
▁marvel	-11.6804
crs	-11.6804
ppen	-11.6805
▁namala	-11.6805
▁vanthur	-11.6807
baby	-11.6807
▁islam	-11.6808
avuthu	-11.6809
▁ola	-11.6811
123	-11.6812
▁frds	-11.6812
ruk	-11.6813
▁perula	-11.6814
▁students	-11.6814
▁vandhavan	-11.6814
▁chod	-11.6815
athin	-11.6815
▁sonnatha	-11.6815
▁mont	-11.6816
▁Up	-11.6824
297	-11.6825
169	-11.6827
athaan	-11.6827
▁Val	-11.6829
▁def	-11.6832
kaaran	-11.6833
▁annaku	-11.6834
▁thoon	-11.6835
yk	-11.6836
▁உணர்வு	-11.6837
களும்	-11.6837
▁killing	-11.6838
▁devan	-11.6839
mbothu	-11.6839
205	-11.6841
ooooooooo	-11.6841
657	-11.6843
ikala	-11.6845
▁irukuda	-11.6846
acting	-11.6846
▁amitab	-11.6847
901	-11.6848
▁jey	-11.6848
▁pannada	-11.685
bq	-11.685
sanam	-11.6853
▁kozhi	-11.6853
▁கீழ	-11.6855
▁kant	-11.6856
▁Rajnikant	-11.6856
▁censor	-11.6856
chai	-11.6858
▁Ajit	-11.6861
▁sit	-11.6862
▁kannadiga	-11.6862
▁மூலமா	-11.6862
▁addict	-11.6862
▁Follow	-11.6863
▁sea	-11.6864
▁இருக்கா	-11.6865
▁போர்	-11.6868
Fan	-11.6869
▁Tirunelveli	-11.6871
▁பரதேசி	-11.6871
▁விருதுநகர்	-11.6871
▁jaylalita	-11.6871
▁சேனைத்	-11.6871
▁வரவேற்கிறோம்	-11.6871
▁கரூர்	-11.6871
▁சிரித்தால்	-11.6871
▁WILL	-11.6871
▁அழைத்து	-11.6871
▁Myskin	-11.6871
▁அடையாளம்	-11.6871
▁ஏய்	-11.6871
▁ranaut	-11.6871
▁tralier	-11.6872
▁Marvel	-11.6872
▁வருகிறது	-11.6872
▁jeyaraj	-11.6873
xf	-11.6873
▁vadi	-11.6873
▁கிடைக்கும்	-11.6874
▁paavigala	-11.6874
▁evvalavu	-11.6874
▁Leval	-11.6874
▁கமெண்ட்ஸ்	-11.6874
▁இருக்கோம்	-11.6875
▁rel	-11.6875
133	-11.6876
yel	-11.6876
▁பக்கா	-11.6876
▁Ungoppan	-11.6876
▁everyone	-11.6876
▁thakkali	-11.6876
▁katharitu	-11.6876
▁teasar	-11.6877
▁cheyandi	-11.6878
▁குடும்பத்தோட	-11.6878
▁எடுத்தால்	-11.688
▁போலயே	-11.688
▁avaluku	-11.688
▁disappointed	-11.688
▁saarbaaga	-11.6881
▁லூசு	-11.6881
▁comedian	-11.6881
▁தேனி	-11.6881
▁சிலர்	-11.6881
▁giving	-11.6881
▁Pradesh	-11.6881
▁Simran	-11.6882
▁umma	-11.6882
▁மக்களே	-11.6882
▁irukira	-11.6882
▁rangers	-11.6882
▁முத்தரையர்கள்	-11.6883
▁Swamy	-11.6883
▁Danush	-11.6883
▁above	-11.6883
▁Rajinified	-11.6883
▁sirikira	-11.6883
▁Kollywood	-11.6885
▁பறையன்	-11.6886
▁vijaysethupathi	-11.6886
▁maniratnam	-11.6887
▁ketukonga	-11.6887
▁Kalyanam	-11.6887
▁சீமான்	-11.6887
▁Adimai	-11.6887
▁oomala	-11.6889
▁நாயே	-11.6889
▁வினை	-11.6889
▁குழுவினருக்கு	-11.6889
viya	-11.689
▁mir	-11.689
▁Right	-11.6891
▁jen	-11.6891
▁முதல்ல	-11.6892
▁gaandla	-11.6893
▁eriyuthu	-11.6893
▁vilu	-11.6894
amba	-11.6895
▁சென்னை	-11.6896
▁கபாலி	-11.6896
▁அர்த்தம்	-11.6897
▁தற்போது	-11.6899
▁Kadaisila	-11.6899
▁meedhi	-11.6899
▁Villain	-11.6899
▁Paarvai	-11.6899
▁thalabathi	-11.6899
964	-11.69
▁anan	-11.6901
chen	-11.6901
▁இதுவும்	-11.6902
▁ippudi	-11.6903
▁tone	-11.6903
▁மானம்	-11.6903
▁நீங்களும்	-11.6903
▁yarume	-11.6904
▁rakul	-11.6904
▁kidai	-11.6905
▁pubg	-11.6907
▁vedhalam	-11.6908
▁காஞ்சி	-11.6908
▁கொள்ளுங்கள்	-11.691
▁madh	-11.691
▁congratulations	-11.6911
xp	-11.6912
▁vetrimaaran	-11.6912
▁kalichi	-11.6914
▁ing	-11.6914
▁ஆட்டம்	-11.6914
▁iruppanga	-11.6917
ணம்	-11.6917
▁Deva	-11.6918
▁Seeman	-11.6919
kirarkal	-11.692
▁Nandri	-11.692
▁edhachum	-11.692
கும்	-11.6921
▁pakkathula	-11.6922
tre	-11.6923
▁kitt	-11.6923
qi	-11.6923
nation	-11.6923
▁paithiya	-11.6923
▁பெற்றவர்கள	-11.6924
▁pantringa	-11.6924
▁ஜாதியும்	-11.6924
▁kadasila	-11.6924
▁aniruth	-11.6926
▁latest	-11.6928
▁lying	-11.6928
▁solravan	-11.6928
▁teacher	-11.6928
lirunthu	-11.6928
▁dhool	-11.6929
▁ongaluku	-11.6929
▁yosinga	-11.693
▁Varala	-11.6931
▁maasu	-11.6931
▁NER	-11.6931
rathinga	-11.6932
▁Yaarella	-11.6934
▁Anupu	-11.6935
▁pear	-11.6935
▁neengal	-11.6937
▁pathila	-11.6938
லூர்	-11.6939
▁future	-11.6939
▁vachurukinga	-11.6939
▁ஒற்றுமை	-11.6941
▁rajnikanth	-11.6941
▁oil	-11.6942
▁kaatunga	-11.6944
▁handle	-11.6944
▁Tun	-11.6945
sg	-11.6945
ع	-11.6946
▁kojam	-11.6948
లు	-11.6949
urathuku	-11.6951
▁thap	-11.6952
▁complete	-11.6953
▁Namak	-11.6954
watt	-11.6954
▁eve	-11.6954
▁pagal	-11.6955
▁shortfilm	-11.6955
ú	-11.6956
▁potunga	-11.6957
▁chat	-11.6959
fj	-11.696
▁istam	-11.6961
zer	-11.6962
▁poya	-11.6963
ging	-11.6964
▁Thedi	-11.6966
▁seekram	-11.6967
adh	-11.6968
▁relese	-11.6968
▁SING	-11.6968
ikira	-11.697
▁வேண்டி	-11.697
▁avanoda	-11.6971
▁pakurathu	-11.6971
▁matr	-11.6971
▁rashmika	-11.6971
▁அப்பறம	-11.6978
▁iqoo	-11.6978
rri	-11.6979
▁maniku	-11.698
துக்கு	-11.698
▁Payale	-11.6982
▁pazhaya	-11.6982
▁seiva	-11.6983
▁5.	-11.6983
▁வயசு	-11.6984
▁Mam	-11.6984
▁ஆதரவ	-11.6984
▁irundhen	-11.6985
▁aha	-11.6986
▁Arasiyaluk	-11.6987
▁karta	-11.6988
jet	-11.6988
stion	-11.6988
▁maaran	-11.6988
▁Mental	-11.6988
ult	-11.699
views	-11.6991
▁wt	-11.6992
▁cur	-11.6993
▁alagum	-11.6994
▁wrk	-11.6995
▁Z	-11.6995
▁முட்டாள்	-11.6997
▁ipdiye	-11.6999
▁nanu	-11.7
குமார்	-11.7001
mangalam	-11.7003
▁grand	-11.7003
▁vanthuruchu	-11.7003
▁tirunelveli	-11.7005
▁erukom	-11.7006
▁teriyala	-11.7007
131	-11.7007
▁ஆசிய	-11.7007
▁alika	-11.7007
▁velu	-11.7008
athunala	-11.7008
▁Gomma	-11.7008
▁Innaiku	-11.7008
rukeenga	-11.701
▁கிடைத்த	-11.701
▁paiy	-11.7011
▁vesam	-11.7011
songs	-11.7015
▁சத்திரிய	-11.7015
▁petrol	-11.7015
eran	-11.7016
idha	-11.7016
▁dek	-11.7017
uti	-11.7017
▁pottan	-11.7017
▁naanu	-11.702
vaanga	-11.702
▁maadiri	-11.702
ுகிறது	-11.7021
▁vaangu	-11.7025
விட்டு	-11.7026
▁paruga	-11.7027
rundhu	-11.7029
eka	-11.703
▁Vachu	-11.703
▁rip	-11.703
▁kizhi	-11.7031
yude	-11.7032
▁pp	-11.7032
▁ilaye	-11.7033
hay	-11.7034
▁ullathu	-11.7035
▁yaaruku	-11.7037
129	-11.7038
▁potte	-11.7038
▁Ennaya	-11.7038
Na	-11.7039
▁oruthanum	-11.7039
▁தன	-11.704
▁பர	-11.7042
▁ins	-11.7042
▁thupu	-11.7043
bsnl	-11.7043
▁அளவு	-11.7045
▁Ipadi	-11.7045
▁crime	-11.7046
udiya	-11.7046
▁ovoru	-11.7049
▁America	-11.705
▁hyper	-11.7052
▁உடன்	-11.7053
▁panrava	-11.7054
▁kuttam	-11.7056
ggu	-11.7056
▁where	-11.706
▁Athe	-11.7062
▁bond	-11.7064
▁garu	-11.7068
விட	-11.7068
▁mathire	-11.7068
iti	-11.7068
▁Chance	-11.7068
т	-11.7068
▁divorce	-11.7068
gavum	-11.707
▁Koo	-11.7071
▁virgin	-11.7073
▁paakuravanga	-11.7074
▁#2	-11.7075
▁mulu	-11.7078
▁120	-11.7079
▁தோலுரித்து	-11.7082
type	-11.7085
▁irukanuga	-11.7085
▁rem	-11.7085
▁Appadi	-11.7088
vanka	-11.7089
▁panit	-11.7089
▁annaaaa	-11.7089
▁maira	-11.7091
▁aava	-11.7094
arm	-11.7094
▁solluren	-11.7096
▁thalaaaaaa	-11.7097
▁nadich	-11.7097
326	-11.7099
▁corana	-11.71
veli	-11.71
▁sarpa	-11.71
▁korachal	-11.7102
னவே	-11.7102
▁uruva	-11.7102
▁ஆட	-11.7104
rupan	-11.7105
▁##	-11.7108
vatha	-11.7109
▁கும்ப	-11.711
▁doc	-11.711
▁காம	-11.7111
▁Vandhu	-11.7111
▁பள்ளி	-11.7112
▁Therikka	-11.7114
▁surviv	-11.7114
மணி	-11.7114
uper	-11.7115
▁azhikka	-11.7115
பட்ட	-11.7116
1000	-11.712
▁indi	-11.712
▁avaga	-11.7123
▁cost	-11.7124
▁செஞ்சி	-11.7125
▁uyire	-11.7126
ththai	-11.7127
jith	-11.7129
▁kutu	-11.7132
▁mere	-11.7133
ன்று	-11.7133
▁pall	-11.7134
▁katharal	-11.7136
▁koothiya	-11.7137
▁iyer	-11.7137
vadi	-11.7138
▁otta	-11.7139
▁kollam	-11.7141
▁dep	-11.7142
▁saying	-11.7145
▁படங்களில	-11.7145
sic	-11.7145
mt	-11.7146
▁தமிழகத்தில	-11.7148
▁seththa	-11.715
▁mera	-11.7151
bel	-11.7152
▁Court	-11.7155
▁dubb	-11.7155
stick	-11.7156
vitha	-11.7157
128	-11.7157
kkavillai	-11.7158
▁sollur	-11.7159
fz	-11.7162
206	-11.7162
▁ஊ	-11.7162
▁nenach	-11.7163
▁bed	-11.7164
Z	-11.7168
தாக	-11.7169
273	-11.7171
▁pothe	-11.7172
iyaaa	-11.7172
▁listen	-11.7173
▁patthi	-11.7174
▁பேசு	-11.7175
▁address	-11.7177
د	-11.7177
658	-11.7177
ெ	-11.7177
ours	-11.7179
▁watha	-11.718
▁panen	-11.7181
ppam	-11.7181
▁peak	-11.7183
▁manusha	-11.7184
dei	-11.7187
ngaley	-11.7187
rz	-11.7187
Kaappaan	-11.7188
▁இலவசம	-11.7189
▁movana	-11.7189
ungada	-11.719
rry	-11.7193
▁Iron	-11.7193
tical	-11.7195
▁pus	-11.7195
▁சத்திரியன்	-11.7196
▁paruda	-11.7197
▁என்னுடை	-11.7198
▁With	-11.72
▁neeng	-11.72
▁Pathu	-11.7202
▁waaa	-11.7202
▁பண்ணா	-11.7203
▁makkaluku	-11.7204
▁season	-11.7204
▁devidiya	-11.7206
▁தோலுரிக்க	-11.7206
kand	-11.7207
▁theriyutha	-11.7208
▁padai	-11.7208
▁kumbal	-11.721
659	-11.721
▁matheri	-11.7211
▁dj	-11.7212
▁annaa	-11.7212
▁nammal	-11.7213
▁nor	-11.7213
▁thari	-11.7214
ned	-11.7218
▁சீன்	-11.7218
▁common	-11.7218
▁kettavan	-11.7219
▁sonathu	-11.722
▁எண்ண	-11.7222
▁cer	-11.7222
bd	-11.7222
▁வாழ்த்துக்கள	-11.7224
▁படங்கள	-11.723
▁pazha	-11.723
yc	-11.7231
sis	-11.7231
kol	-11.7232
185	-11.7233
▁lose	-11.7235
▁yarunu	-11.7237
▁john	-11.724
▁kekutha	-11.7241
▁paata	-11.7241
▁சொ	-11.7241
▁Yeah	-11.7242
▁sonan	-11.7245
▁தலைவர	-11.7247
ui	-11.7248
vari	-11.7249
china	-11.7251
▁அர	-11.7252
▁nagar	-11.7254
▁eyes	-11.7254
avaga	-11.7254
▁வளர்க்க	-11.7255
▁aachum	-11.7256
▁ஹா	-11.7257
▁heroin	-11.7259
▁involve	-11.7261
▁exc	-11.7261
▁pannurathu	-11.7262
inum	-11.7266
iler	-11.7269
tos	-11.7276
ikiringa	-11.7277
▁Kadavul	-11.7278
▁adikkanum	-11.7279
▁attam	-11.728
▁makk	-11.7283
tter	-11.7283
▁பசங்கள	-11.7287
▁poradra	-11.7287
▁தரப்ப	-11.7289
▁ethanai	-11.7292
▁thailava	-11.7292
intage	-11.7292
▁mug	-11.7292
▁paarungada	-11.7293
iyana	-11.7294
▁badh	-11.7295
onnu	-11.7297
405	-11.7297
▁matham	-11.7298
▁adikk	-11.73
▁loosa	-11.7301
126	-11.7303
▁ivangala	-11.7307
avaru	-11.7308
▁kho	-11.7308
▁Thirumb	-11.7308
▁veika	-11.7308
▁soul	-11.7308
pundai	-11.7309
▁yeduth	-11.731
▁irukudhu	-11.731
▁viduva	-11.7311
▁pushpa	-11.7313
▁பேசிய	-11.7315
nika	-11.7316
ாப்ள	-11.7316
தோ	-11.7318
!!!!!!!	-11.732
▁பிரிந்த	-11.732
inha	-11.7325
enum	-11.7328
ினால்	-11.7329
ply	-11.7329
▁rasika	-11.733
▁valli	-11.733
yd	-11.7331
▁mig	-11.7331
▁mudiuma	-11.7332
▁எழு	-11.7333
▁renda	-11.7334
thalam	-11.7336
male	-11.7337
ahhh	-11.734
▁jh	-11.734
▁சொந்தங்கள	-11.7341
▁pangalinga	-11.7341
ayae	-11.7342
agala	-11.7343
▁ago	-11.7344
bn	-11.735
speed	-11.7351
▁நு	-11.7351
▁jam	-11.7352
▁pap	-11.7353
▁koode	-11.7355
▁இயக்க	-11.7355
bf	-11.7356
▁athiga	-11.7359
▁ile	-11.7359
▁kudukum	-11.7362
▁ஏன	-11.7365
▁thevdia	-11.7365
▁thuku	-11.7366
▁Suma	-11.7366
▁Pesura	-11.7367
▁kelavan	-11.7369
▁mac	-11.7371
▁சலுகைகள	-11.7371
▁Sc	-11.7372
▁avanukku	-11.7373
னுங்க	-11.7373
▁கால்	-11.7377
267	-11.738
▁standard	-11.7381
▁ongala	-11.7392
▁2)	-11.7394
கவுண்டர்	-11.7394
▁படம	-11.7399
▁panuven	-11.74
▁Paru	-11.74
▁vaaz	-11.74
▁masam	-11.7403
▁dikh	-11.7404
க்கம்	-11.7405
▁veettu	-11.7405
▁வரல	-11.7405
▁வரணும்	-11.7407
▁theriyaatha	-11.7409
▁suru	-11.741
▁valga	-11.741
▁baat	-11.7413
mae	-11.7413
anathu	-11.7413
yw	-11.7417
▁ட்ரைலரை	-11.7418
thuuu	-11.7418
▁modha	-11.742
▁வீட்டுக்கு	-11.7422
▁since	-11.7424
▁வேளாள	-11.7424
▁irunthinga	-11.7425
▁kedaikum	-11.7427
சன்	-11.7428
▁pogalam	-11.743
▁மாற்று	-11.743
283	-11.7432
▁yaarukum	-11.7433
▁!!!!!	-11.7433
othi	-11.7434
sim	-11.7436
vange	-11.7437
maathiri	-11.7438
▁tur	-11.7441
634	-11.7441
م	-11.7443
▁laval	-11.7443
▁erika	-11.7443
▁cash	-11.7443
ralam	-11.7443
▁piri	-11.7446
▁vijai	-11.7447
▁ndra	-11.7448
▁gat	-11.7449
natha	-11.7449
YA	-11.7452
nale	-11.7454
▁அடிச்சா	-11.7455
▁0.5	-11.7455
▁thiramai	-11.7455
eraiya	-11.7456
▁55	-11.7457
ency	-11.746
▁hun	-11.7463
▁எதுவும	-11.7466
▁est	-11.7466
▁சீ	-11.7468
▁nallava	-11.7469
▁pooo	-11.7469
▁Pona	-11.747
thuvum	-11.7472
▁dal	-11.7472
▁vik	-11.7472
gle	-11.7472
▁anta	-11.7472
thukaga	-11.7474
▁pannungada	-11.7475
▁Kat	-11.7475
▁astro	-11.7479
▁maka	-11.7482
vika	-11.7483
vaya	-11.7485
▁திரையிட	-11.7486
▁eluthi	-11.7486
▁hittu	-11.7486
!?	-11.7487
some	-11.7489
ையில்	-11.749
rukan	-11.7493
▁irrundha	-11.7494
▁param	-11.7494
▁nadik	-11.7496
angaali	-11.7496
288	-11.7497
▁அளவுக்க	-11.7498
▁chap	-11.75
▁vidrom	-11.7501
▁annava	-11.7501
▁தெரிந்த	-11.7502
vani	-11.7504
▁panraanga	-11.7504
▁mathavanga	-11.7506
adipin	-11.7506
▁irukkara	-11.7507
▁panla	-11.751
ose	-11.7511
▁pudung	-11.7518
▁released	-11.7518
▁erukura	-11.7519
ITH	-11.7522
▁queen	-11.7523
▁Uyir	-11.7525
pes	-11.7525
▁varuth	-11.7529
▁cow	-11.753
▁உணர்வ	-11.7531
▁State	-11.7531
qr	-11.7533
▁Ath	-11.7533
Super	-11.7537
nenga	-11.7538
▁அப்டி	-11.754
aquin	-11.7541
▁Thalai	-11.7544
▁கரு	-11.7544
ncy	-11.7546
▁mathir	-11.7546
Padam	-11.7547
▁தமிழ்நாட்டு	-11.7548
▁thatta	-11.7548
top	-11.7549
▁variya	-11.755
▁six	-11.7551
▁nakk	-11.7552
nsi	-11.7552
▁Or	-11.7553
ggg	-11.7553
▁ஐய	-11.7553
▁dhi	-11.7554
▁சிலை	-11.7556
▁TAMIL	-11.7556
▁rule	-11.7556
▁kamiya	-11.7556
what	-11.7556
▁Si	-11.7558
▁pava	-11.7559
▁வாக்கு	-11.7559
139	-11.7561
▁vaanguna	-11.7562
uvum	-11.7563
▁கிராம	-11.7565
▁dup	-11.7566
anaa	-11.7567
▁tharuva	-11.7569
609	-11.7569
tharu	-11.7569
▁rub	-11.7569
▁:(	-11.757
▁படைத்த	-11.7572
▁maj	-11.7576
▁Epadi	-11.7576
▁bre	-11.7577
▁vellai	-11.7578
big	-11.7579
▁exp	-11.758
▁அவனை	-11.7581
lit	-11.7584
▁nambikai	-11.7585
Yuvan	-11.7585
lie	-11.7585
▁Arr	-11.7587
▁kathura	-11.7588
paaru	-11.7588
▁vanthutan	-11.7589
ngalum	-11.7589
▁தானா	-11.759
▁leader	-11.759
யோட	-11.759
▁mate	-11.7591
▁Sall	-11.7591
▁says	-11.7593
▁jeb	-11.7594
▁iss	-11.7594
wr	-11.7595
▁எழுந்த	-11.7596
avo	-11.7596
▁episode	-11.7597
	-11.7598
jz	-11.7599
Asuran	-11.76
▁Van	-11.76
222	-11.7602
▁Idhe	-11.7602
▁kekuthu	-11.7604
EVER	-11.7604
ruchi	-11.7605
▁solva	-11.7605
▁maruthu	-11.7606
▁சாக	-11.7607
▁பொன்	-11.7607
▁pappu	-11.7607
965	-11.7608
ę	-11.7609
vainga	-11.761
▁solluringa	-11.761
sky	-11.7611
ruppanga	-11.7612
கூட	-11.7613
▁cul	-11.7613
▁paiyaa	-11.7613
rapa	-11.7613
rik	-11.7614
fq	-11.7614
▁hig	-11.7617
▁unkala	-11.7618
▁வெளிவர	-11.7619
▁poid	-11.7619
cup	-11.7621
81	-11.7622
ranjith	-11.7622
▁Vidya	-11.7622
jc	-11.7624
ification	-11.7625
▁mutt	-11.7627
www	-11.7628
onfirm	-11.7629
▁Adai	-11.763
▁fam	-11.763
▁thalaivare	-11.7631
kidu	-11.7633
▁சுடல	-11.7633
yada	-11.7634
1011	-11.7634
▁parat	-11.7634
▁mayira	-11.7635
259	-11.7636
rh	-11.7637
யன்	-11.7637
▁later	-11.7638
்ல	-11.764
▁ஒன்ற	-11.764
▁podalam	-11.764
வர்களை	-11.7641
tq	-11.7641
▁pwoli	-11.7643
maya	-11.7644
▁karuna	-11.7644
207	-11.7644
puli	-11.7647
siya	-11.7647
layae	-11.7649
▁serupu	-11.765
aro	-11.765
evi	-11.765
▁Lal	-11.765
▁sto	-11.7651
▁shri	-11.7653
▁nach	-11.7654
lya	-11.7655
▁soil	-11.7657
▁சொத்து	-11.7658
ail	-11.7659
uf	-11.766
▁spoil	-11.766
mv	-11.766
▁59	-11.7661
▁jag	-11.7662
ungi	-11.7663
▁nana	-11.7663
▁Tq	-11.7665
▁சலுகை	-11.7666
▁pode	-11.7666
▁hat	-11.7666
▁kekra	-11.7668
▁Rasigan	-11.7669
hq	-11.7671
▁irunthanga	-11.7676
summa	-11.7677
▁iw	-11.7678
▁anth	-11.7679
▁ஆள்	-11.7679
tur	-11.7679
▁Othaaa	-11.7681
▁????	-11.7683
▁yethum	-11.7685
▁uppu	-11.7685
▁kap	-11.7687
2000	-11.7687
▁kathuk	-11.7688
பட்டி	-11.7688
▁crct	-11.7689
▁நேர	-11.7689
▁pannina	-11.769
▁itna	-11.769
school	-11.769
▁avoid	-11.769
▁nas	-11.7692
▁nithya	-11.7692
▁தெலுங்க	-11.7692
ond	-11.7693
யம்	-11.7699
▁sundar	-11.7702
▁konj	-11.7703
▁thand	-11.7704
lf	-11.7705
▁pannirukku	-11.7705
▁varaathu	-11.7705
153	-11.7706
▁solanum	-11.7708
ccv	-11.7709
🥰	-11.7711
▁தூண்டி	-11.7712
▁குழு	-11.7713
▁எனும்	-11.7718
▁vegam	-11.7719
othu	-11.7719
▁Theva	-11.772
▁dailogue	-11.772
▁rice	-11.7721
▁ng	-11.7721
▁briyani	-11.7721
orning	-11.7723
Thalaivar	-11.7726
▁keten	-11.7727
ுக்க	-11.7728
▁Adeii	-11.7729
▁muta	-11.7729
▁politician	-11.7731
▁beauty	-11.7735
407	-11.7736
▁christian	-11.7736
▁bold	-11.7737
allum	-11.7737
▁Tharu	-11.7738
▁oy	-11.7738
▁solluga	-11.7738
much	-11.7739
▁irukuradhu	-11.7739
kirargal	-11.7739
▁subject	-11.774
▁nenai	-11.7741
ే	-11.7742
1032	-11.7742
irum	-11.7743
▁marai	-11.7744
ravangaluku	-11.7745
ipu	-11.7746
▁நாசமா	-11.7747
▁kannula	-11.7747
▁koma	-11.7747
▁tight	-11.7747
▁seiyanum	-11.7748
▁Thalaaa	-11.7749
▁leh	-11.775
▁PR	-11.7752
▁2:	-11.7753
1006	-11.7755
▁atchi	-11.7756
▁solala	-11.7757
iyoda	-11.7757
▁sirippa	-11.7758
dil	-11.7758
▁pannra	-11.776
▁thitta	-11.776
shorts	-11.7762
173	-11.7763
வன	-11.7764
▁porandhu	-11.7765
▁aven	-11.7766
▁echakala	-11.7767
▁sirikura	-11.7768
▁எதிரா	-11.7769
▁iq	-11.7772
▁வரவேற்பு	-11.7772
▁பண	-11.7773
ಡ	-11.7774
▁thonuchu	-11.7774
▁Konja	-11.7775
2019	-11.7775
▁irrukura	-11.7775
gv	-11.7777
▁33	-11.7777
▁pannara	-11.7777
▁பற்றிய	-11.7778
echi	-11.7778
▁ACTOR	-11.778
▁Telangana	-11.778
▁சவுக்கடி	-11.778
▁சைக்கோ	-11.778
▁amount	-11.778
KAITHI	-11.778
▁யோவ்	-11.778
▁புதுக்கோட்டை	-11.778
▁aaaaaa	-11.778
▁BIG	-11.778
▁Thevudiya	-11.778
▁Haris	-11.778
ுடியா	-11.778
▁தோணுது	-11.778
▁Milion	-11.778
▁¤”	-11.778
▁Iruntha	-11.7781
▁Original	-11.7781
▁vannavar	-11.7781
▁Valthukal	-11.7781
▁சத்தம்	-11.7781
▁Niraiya	-11.7781
▁Kadaram	-11.7781
▁Elise	-11.7781
▁உருவாக்குற	-11.7781
▁வசனங்கள்	-11.7781
▁myskin	-11.7782
▁வரவேண்டும்	-11.7782
▁tharisanam	-11.7782
▁இருக்கட்டும்	-11.7782
▁imp	-11.7782
▁Feb	-11.7782
▁trilar	-11.7782
▁vaith	-11.7782
▁thiraipadam	-11.7783
▁காத்திருக்கும்	-11.7783
▁nenaikuravanga	-11.7783
▁இருக்காது	-11.7784
aari	-11.7784
▁oomb	-11.7784
▁இருக்காரு	-11.7785
gudhu	-11.7786
▁mukhyam	-11.7786
▁silai	-11.7787
▁Narayanan	-11.7788
▁பார்க்கலாம்	-11.7788
xcellent	-11.7789
▁Avane	-11.7789
▁inneram	-11.779
▁FILM	-11.7791
laaa	-11.7791
▁BACK	-11.7791
▁காத்திருப்போம்	-11.7791
▁teser	-11.7792
▁ungoppan	-11.7792
▁Retweets	-11.7792
pj	-11.7792
▁Ettan	-11.7792
▁Kaidhi	-11.7793
▁பார்க்கவும்	-11.7795
▁pootuga	-11.7795
▁தலைவர்கள்	-11.7795
runu	-11.7795
▁interval	-11.7795
▁nadakadhu	-11.7795
▁Jeyam	-11.7795
bx	-11.7795
▁nearing	-11.7796
jayam	-11.7796
▁solution	-11.7796
superb	-11.7797
▁oscar	-11.7797
▁fellows	-11.7797
▁below	-11.7798
▁fanzz	-11.7798
pram	-11.7798
▁aamaiyan	-11.78
▁kudika	-11.7801
▁vidamaten	-11.7801
▁Ida	-11.7801
▁flight	-11.7802
▁atleast	-11.7802
▁ponduga	-11.7802
vidunga	-11.7804
jt	-11.7804
llllll	-11.7805
▁நாடககாதல்	-11.7806
▁naaa	-11.7807
▁pannuviya	-11.7807
▁2026	-11.7807
▁Kadaisiya	-11.7807
▁pudikalana	-11.7807
▁mysskin	-11.7808
▁SE	-11.7808
▁asith	-11.7808
▁Trisha	-11.7809
▁poduthu	-11.7809
▁Munnadi	-11.7809
▁yarachum	-11.781
▁viriyumo	-11.7811
▁மனசுல	-11.7811
only	-11.7813
▁Parak	-11.7814
▁hel	-11.7814
mate	-11.7815
▁Wig	-11.7816
▁Thevadiya	-11.7817
▁spb	-11.7817
▁blo	-11.7818
▁pannuvaru	-11.7818
▁filim	-11.7818
udhan	-11.7818
▁blank	-11.7818
▁தொடர்	-11.7819
▁கொ	-11.7819
▁center	-11.782
▁Evalo	-11.7821
▁sasikumar	-11.7821
▁feature	-11.7822
▁poit	-11.7822
▁yaarellam	-11.7823
▁Sathyama	-11.7823
▁aanu	-11.7823
▁கெத்த	-11.7824
▁parambarai	-11.7824
▁credits	-11.7824
▁frst	-11.7824
நான்	-11.7825
▁pechi	-11.7825
nti	-11.7826
▁expectations	-11.7826
▁varma	-11.7828
யர்	-11.7829
▁Fire	-11.7829
hhhhh	-11.7829
▁darbar	-11.7829
▁ethirthu	-11.783
▁Iruken	-11.783
mn	-11.7831
▁Kaapaan	-11.7831
▁kadupa	-11.7834
▁suthama	-11.7836
▁christians	-11.7837
▁subscriber	-11.7837
▁okkanum	-11.784
▁dailog	-11.784
grams	-11.7841
▁Nandha	-11.7842
▁pundamavane	-11.7842
▁mudichi	-11.7842
▁kalathula	-11.7842
inches	-11.7844
rathula	-11.7846
▁KAR	-11.7847
▁height	-11.7849
▁நல்	-11.7849
▁credit	-11.7849
▁deiii	-11.785
▁saapda	-11.7851
▁ingayum	-11.7851
fl	-11.7852
▁missing	-11.7852
▁aayiram	-11.7855
▁sample	-11.7855
Dubbing	-11.7856
▁கோட்டை	-11.7857
▁veralevel	-11.7857
nding	-11.7858
vangalukku	-11.7858
▁pathachu	-11.7859
▁without	-11.7862
job	-11.7863
▁system	-11.7863
▁🦁	-11.7863
udha	-11.7864
▁sollirukan	-11.7864
▁aduthavangala	-11.7864
iah	-11.7864
▁வீரம்	-11.7865
UTHU	-11.7865
▁pooja	-11.7865
▁கடவுள்	-11.7866
▁sambar	-11.7867
▁pesadha	-11.7867
▁madhiriye	-11.7868
▁ros	-11.7869
▁koli	-11.7869
▁kadhara	-11.787
kithu	-11.787
▁கடத்த	-11.7871
▁ponalum	-11.7871
▁🤟	-11.7873
▁Rendum	-11.7875
▁Mudinja	-11.7876
▁nanbaa	-11.7876
▁ipti	-11.7876
▁kodumaiya	-11.7881
fk	-11.7881
link	-11.7883
▁anchor	-11.7883
▁NU	-11.7883
▁lost	-11.7884
▁uk	-11.7885
▁காரன்	-11.7887
▁artist	-11.7887
▁varudha	-11.7888
▁paruppu	-11.789
▁pannitan	-11.789
▁sollun	-11.789
▁prag	-11.789
PIN	-11.7891
▁irukravan	-11.7892
▁புள்ள	-11.7894
▁endrum	-11.7894
▁ib	-11.7895
▁score	-11.7896
▁maranna	-11.7897
▁TR	-11.7898
▁Kadharu	-11.7899
▁கண்ண	-11.7899
▁thapp	-11.79
▁Kal	-11.7903
TA	-11.7905
▁aanda	-11.7905
▁saaho	-11.7905
▁yenaku	-11.7906
▁🤝	-11.7907
▁nalladhu	-11.7908
▁vandhutu	-11.791
▁thappuna	-11.791
▁poradhu	-11.7911
▁thoong	-11.7911
vaan	-11.7914
▁Daiii	-11.7915
▁edupa	-11.7915
koothi	-11.7915
unt	-11.7917
▁arasial	-11.7918
269	-11.7919
▁malai	-11.792
shalini	-11.792
▁pirichi	-11.7921
avanuku	-11.7922
▁vachir	-11.7922
bv	-11.7923
jx	-11.7924
▁potrundha	-11.7924
▁maana	-11.7925
murthy	-11.7928
▁Thiruma	-11.7928
kanam	-11.7929
▁alle	-11.7929
▁படையாட்சி	-11.7931
haha	-11.7932
▁Mannu	-11.7933
▁pakke	-11.7934
▁vijaya	-11.7936
bga	-11.7936
ray	-11.7937
408	-11.7937
▁கிழி	-11.7938
168	-11.7938
▁DHA	-11.794
▁mand	-11.794
qt	-11.7942
▁thread	-11.7942
roud	-11.7943
jin	-11.7944
▁anaa	-11.7944
▁pannitaru	-11.7945
EAT	-11.7945
padatha	-11.7945
koo	-11.7946
appadi	-11.7947
▁thottu	-11.7948
▁வளர்க	-11.7949
▁iyya	-11.795
▁sky	-11.795
kur	-11.7951
ONE	-11.7952
▁pandradhu	-11.7953
▁nav	-11.7954
▁His	-11.7957
agan	-11.7962
qk	-11.7964
▁erikka	-11.7965
▁biriyani	-11.7965
▁captain	-11.7966
ctor	-11.7966
▁kuptu	-11.7968
wise	-11.7969
▁Thana	-11.7969
▁adiya	-11.797
kiri	-11.797
258	-11.7971
dhula	-11.7971
வளவன்	-11.7975
pul	-11.7977
▁ef	-11.7978
ria	-11.7978
0029	-11.798
▁kootani	-11.7982
▁result	-11.7983
▁athoda	-11.7985
▁pesur	-11.7985
▁valkai	-11.7986
▁madum	-11.7987
▁மருத்துவர	-11.7989
▁yela	-11.7989
▁vinoth	-11.7989
▁papen	-11.799
▁Eduthu	-11.799
▁ood	-11.7991
▁cine	-11.7992
▁ky	-11.7992
▁text	-11.7994
▁Jee	-11.7998
▁vachirukinga	-11.8002
▁hay	-11.8002
▁kadh	-11.8004
andu	-11.8005
▁kandara	-11.8006
▁eg	-11.8006
irupen	-11.8006
veri	-11.8008
oooooooo	-11.8009
▁எவனா	-11.801
unny	-11.801
▁pov	-11.8011
▁krna	-11.8011
600	-11.8013
▁Per	-11.8013
▁yemathura	-11.8015
▁kanduka	-11.8017
ville	-11.8018
SK	-11.8018
▁potrukanga	-11.802
▁thonga	-11.802
ddy	-11.8022
▁korean	-11.8022
manu	-11.8023
xa	-11.8024
xw	-11.8028
rukken	-11.8028
▁ealla	-11.8029
▁காத்து	-11.8029
▁aakum	-11.8031
▁வெறியன்	-11.8033
maga	-11.8035
▁madhan	-11.8037
llen	-11.8038
▁னா	-11.8038
▁stunts	-11.8038
keren	-11.8039
tm	-11.804
179	-11.8041
ك	-11.8041
_9	-11.8041
▁masssssssss	-11.8041
▁aye	-11.8043
▁coment	-11.8044
▁சொல்லு	-11.8045
ih	-11.8046
rp	-11.8046
▁லா	-11.8047
▁apaditha	-11.8047
▁pandrom	-11.8048
▁sans	-11.8048
▁aanal	-11.8049
▁Ungo	-11.8049
▁ren	-11.8051
▁pea	-11.8051
ras	-11.8052
koda	-11.8057
▁Ethir	-11.8058
▁ஒண்ணு	-11.8059
qa	-11.806
ony	-11.806
erfect	-11.806
jw	-11.8061
dathu	-11.8062
▁karma	-11.8062
had	-11.8062
▁poravan	-11.8062
tathu	-11.8063
ova	-11.8064
▁அம	-11.8067
▁kavithai	-11.8069
jit	-11.8069
▁endral	-11.8072
zm	-11.8073
▁thava	-11.8076
▁சூப்பரா	-11.8076
▁pidichu	-11.8078
itan	-11.808
▁aambala	-11.8082
▁panuvanga	-11.8083
▁suda	-11.8084
▁poch	-11.8087
▁updates	-11.8087
▁இப்	-11.8089
▁oruthara	-11.809
குல	-11.809
▁draw	-11.8093
▁theriyu	-11.8094
▁ilaiya	-11.8096
▁ps	-11.8097
uvathu	-11.8098
▁epdida	-11.8101
▁Coma	-11.8101
▁41	-11.8101
▁jun	-11.8102
கா	-11.8104
▁doll	-11.8104
▁sollung	-11.8108
170	-11.8109
▁moolai	-11.811
1013	-11.811
bit	-11.811
LA	-11.8111
dk	-11.8112
▁ariv	-11.8113
hur	-11.8115
▁Kanna	-11.8116
▁inam	-11.8116
▁இனத்தை	-11.8116
▁ival	-11.8116
diga	-11.8116
▁Onnu	-11.8118
▁vaayila	-11.8119
tag	-11.812
▁சொல்வத	-11.812
vea	-11.812
▁konnu	-11.8122
▁kadhar	-11.8122
411	-11.8122
▁differ	-11.8123
▁kast	-11.8123
▁உயர	-11.8124
▁ا	-11.8124
▁dos	-11.8125
akanum	-11.8125
▁andra	-11.8127
▁niruthu	-11.8127
eerkal	-11.8128
▁sirichen	-11.8128
▁suthura	-11.8128
water	-11.8129
1004	-11.8129
▁villian	-11.8133
▁irukingala	-11.8133
▁Young	-11.8134
▁tamila	-11.8134
▁valu	-11.8135
▁Santhosh	-11.8139
▁dro	-11.8142
bai	-11.8142
▁panan	-11.8144
▁proper	-11.8144
eswari	-11.8144
▁‍	-11.8145
▁aaguma	-11.8145
pain	-11.8149
▁OFFice	-11.815
▁matran	-11.815
▁மே	-11.815
▁nadan	-11.815
▁Irukum	-11.8151
▁கர்ணன	-11.8151
▁vaitha	-11.8153
have	-11.8154
▁vanguva	-11.8155
▁purinjavan	-11.8155
tiy	-11.8156
▁அடை	-11.8159
lty	-11.816
▁Karuna	-11.816
▁sooo	-11.8161
thaya	-11.8161
▁kathuka	-11.8161
▁orae	-11.8162
ski	-11.8163
anganu	-11.8164
▁medical	-11.8165
wwwwwwwwwwwwwwww	-11.8168
thanum	-11.8168
adhe	-11.8169
▁enakk	-11.8169
43	-11.8169
mart	-11.817
pinga	-11.8174
▁puthusu	-11.8178
uthunga	-11.818
▁nadakkuthu	-11.8181
chana	-11.8181
▁Pro	-11.8182
▁இனிமே	-11.8182
vp	-11.8182
▁thonum	-11.8183
▁santh	-11.8183
▁vanthuruku	-11.8183
anala	-11.8184
ikalam	-11.819
▁kaatta	-11.8191
▁kulanthai	-11.8192
▁varutha	-11.8192
▁yem	-11.8194
▁ooth	-11.8196
▁bb	-11.8197
▁moonja	-11.8198
187	-11.8198
▁போர	-11.8198
kuthi	-11.8199
146	-11.82
▁seyya	-11.82
▁marubadiyum	-11.8203
▁semaaa	-11.8203
ிற	-11.8206
▁Sirapa	-11.8207
radhukku	-11.8207
▁aav	-11.8207
▁vilambaram	-11.821
▁adikum	-11.821
▁காதலிக்க	-11.821
▁Nadaka	-11.821
▁வைச்ச	-11.821
▁Dh	-11.8211
▁invest	-11.8212
ஞ்ச	-11.8212
▁doo	-11.8214
637	-11.8216
ving	-11.8219
save	-11.8219
thom	-11.8221
vh	-11.8222
▁முன்ன	-11.8223
▁மாத்தி	-11.8227
▁ayo	-11.8228
▁Mutt	-11.8229
▁sollitanga	-11.8231
brother	-11.8232
▁thevar	-11.8232
ippom	-11.8232
ped	-11.8233
▁annanum	-11.8234
▁nenaikala	-11.8236
kg	-11.8238
▁poduvom	-11.824
iyama	-11.8241
▁Yena	-11.8242
ங்கு	-11.8243
act	-11.8243
lon	-11.8243
▁manan	-11.8244
eppa	-11.8246
▁jol	-11.8247
▁sti	-11.8247
durai	-11.825
▁muti	-11.8251
லயும்	-11.8252
ட்டை	-11.8252
204	-11.8255
▁படித்த	-11.8255
▁நாய	-11.8255
▁pesala	-11.8257
▁விழ	-11.8257
▁potadhu	-11.8257
127	-11.8257
aba	-11.826
taanga	-11.826
mpu	-11.826
▁nambura	-11.8263
▁Eva	-11.8263
▁Ooru	-11.8263
▁maatanga	-11.8265
▁inspiration	-11.8266
nch	-11.8266
▁nerathula	-11.8266
▁ஆம்பள	-11.8271
▁dial	-11.8272
▁moda	-11.8274
ம்மா	-11.8275
▁vanthaa	-11.8275
mathri	-11.8276
▁vatha	-11.8277
iyungal	-11.8277
▁சமூகத்தி	-11.8279
▁Poola	-11.8279
▁aapu	-11.8281
607	-11.8282
▁Lol	-11.8282
▁அனுப்பு	-11.8283
▁அக்கா	-11.8286
▁kathaiya	-11.8286
▁kak	-11.8287
lor	-11.8287
▁fees	-11.8291
lusu	-11.8291
▁கலாய்	-11.8292
RAVI	-11.8293
▁கண்	-11.8295
▁hal	-11.8298
▁poitinga	-11.8299
▁பெண்ண	-11.8299
▁nata	-11.83
▁sikh	-11.83
madam	-11.83
▁mook	-11.8301
▁nejama	-11.8301
▁deb	-11.8303
▁sapit	-11.8305
wy	-11.8306
418	-11.8307
▁அல்லு	-11.8307
▁Face	-11.8307
▁aduku	-11.8309
▁chup	-11.8311
▁இன்ற	-11.8312
thilla	-11.8312
▁athum	-11.8314
cf	-11.8314
▁எப்பவும	-11.8314
▁dhu	-11.8315
fast	-11.8317
rang	-11.8318
▁mav	-11.832
athayum	-11.832
▁சினிமாவ	-11.8322
▁bud	-11.8322
▁pannirukka	-11.8323
duva	-11.8323
м	-11.8323
▁ei	-11.8324
▁paduthura	-11.8325
▁kandula	-11.8325
ingla	-11.8326
ழைய	-11.8326
▁திரௌபதியை	-11.8328
test	-11.8329
irukinga	-11.8329
▁rang	-11.8331
▁solir	-11.8332
▁solluranga	-11.8334
ege	-11.8334
▁pathutan	-11.8335
▁mit	-11.8336
▁Ayya	-11.8337
403	-11.834
▁WHO	-11.8344
▁ஏமாற்றி	-11.8345
▁pancha	-11.8345
help	-11.8346
▁நாட்ட	-11.8347
▁கம்மாளர்	-11.8348
lready	-11.8349
152	-11.8349
278	-11.8351
▁ஜெ	-11.8353
▁prop	-11.8355
▁கருப்ப	-11.8356
▁ellarume	-11.8357
▁sera	-11.8358
▁kunda	-11.836
ved	-11.8362
▁உயர்த்தி	-11.8363
por	-11.8365
▁சமூகத்தினர்	-11.8368
▁gaj	-11.8369
rnu	-11.837
mber	-11.8371
▁gre	-11.8373
▁thitti	-11.8374
▁Solra	-11.8375
xc	-11.8375
▁yeduka	-11.8375
pudi	-11.8376
▁paara	-11.8378
▁priya	-11.8379
▁பேருக்கு	-11.838
▁emathura	-11.8382
▁rajava	-11.8382
▁Vali	-11.8382
ollu	-11.8385
▁aduth	-11.8388
▁evana	-11.8395
▁Enak	-11.8396
rl	-11.8397
▁mahan	-11.8398
yon	-11.8399
qn	-11.8402
free	-11.8403
▁காப்பாற்ற	-11.8404
▁enanu	-11.8404
▁eilla	-11.8409
ack	-11.8409
▁pac	-11.841
▁neethan	-11.841
dg	-11.8411
▁காதலித்த	-11.8412
ovo	-11.8415
▁enik	-11.8416
giradhu	-11.842
▁anupuna	-11.842
▁32	-11.842
pas	-11.8424
▁samajh	-11.8424
▁bottle	-11.8426
▁dee	-11.8426
▁ux	-11.8427
▁ayu	-11.8428
▁varanam	-11.8429
▁thangam	-11.8431
ience	-11.8432
haan	-11.8433
▁mund	-11.8433
▁parakum	-11.8433
▁vaay	-11.8435
453	-11.8435
▁kathar	-11.8436
▁vaaipu	-11.8436
▁kondada	-11.844
▁Ann	-11.844
न	-11.8441
▁unit	-11.8442
lz	-11.8443
▁ninaik	-11.8447
▁nallavan	-11.8451
rapo	-11.8452
mata	-11.8454
▁cel	-11.8454
▁vadivel	-11.8454
▁seitha	-11.8456
▁ow	-11.8456
>	-11.8457
▁agave	-11.8457
▁lovely	-11.846
▁Ro	-11.8461
▁parthi	-11.8461
stic	-11.8465
1012	-11.8467
▁iy	-11.8468
▁channels	-11.8468
▁varava	-11.8471
▁siv	-11.8474
▁குடும்பத்தை	-11.8476
▁kelava	-11.8476
zha	-11.8479
▁abu	-11.848
ikurathu	-11.8483
zw	-11.8483
▁chair	-11.8483
matum	-11.8486
thelam	-11.8486
▁Ade	-11.8486
cinema	-11.8487
irathu	-11.8492
▁NAYA	-11.8492
▁vaarthai	-11.8494
▁கொடுக்க	-11.8494
▁பாதுகாப்ப	-11.8494
▁vithu	-11.8496
▁avungala	-11.8499
▁dumb	-11.8499
daniki	-11.85
▁உண்மையிலே	-11.85
▁bhe	-11.8501
▁verra	-11.8502
▁potathu	-11.8503
▁plzzz	-11.8503
▁push	-11.8505
▁milk	-11.8507
298	-11.8508
utan	-11.8508
▁savu	-11.8509
pun	-11.851
என்	-11.851
▁sapidu	-11.8511
▁veena	-11.8512
▁hello	-11.8513
ழ	-11.8515
onnum	-11.8515
▁47	-11.8516
▁pesuvan	-11.8517
▁மிரட்ட	-11.8517
athirku	-11.8519
▁dre	-11.8519
▁happ	-11.8519
ayaa	-11.852
vadu	-11.8521
▁nakkal	-11.8521
▁vedika	-11.8523
▁Katti	-11.8523
வர்களுக்கு	-11.8524
▁ukkanthu	-11.8525
▁ellama	-11.8526
sree	-11.8528
▁Matt	-11.8529
▁poruthu	-11.8529
rth	-11.8531
▁sli	-11.8532
▁adipoli	-11.8532
▁thug	-11.8533
▁solre	-11.8533
▁kuri	-11.8534
▁diz	-11.8534
▁Unn	-11.8536
vetri	-11.8537
▁plzzzz	-11.8538
305	-11.854
▁yoga	-11.8542
▁xg	-11.8542
▁child	-11.8543
▁aruvi	-11.8545
▁Kaa	-11.8546
▁malar	-11.8547
▁kagave	-11.8548
swami	-11.8549
boss	-11.855
yq	-11.8551
▁Onnume	-11.8551
▁Vachi	-11.8554
▁fb	-11.8554
▁gta	-11.8556
Semma	-11.8556
▁padhi	-11.8557
konda	-11.8557
dila	-11.8558
kattu	-11.8558
▁details	-11.8559
▁neg	-11.856
sethupathi	-11.8561
▁kuth	-11.8561
▁ennna	-11.8562
▁craft	-11.8563
wz	-11.8564
▁pande	-11.8565
eat	-11.8567
▁varuvaru	-11.8567
அது	-11.8569
▁wash	-11.857
▁ollu	-11.857
youtube	-11.8571
▁mathan	-11.8571
Waiting	-11.8574
$	-11.8575
▁cont	-11.8575
uts	-11.8575
▁manithar	-11.8575
▁few	-11.8576
▁parru	-11.8577
▁baap	-11.8578
▁arachi	-11.8579
inalum	-11.8583
Oru	-11.8583
Teaser	-11.8584
dw	-11.8584
first	-11.8587
▁kaar	-11.8588
249	-11.8588
264	-11.8588
Bgm	-11.8589
▁nadichu	-11.8589
▁yarra	-11.8589
girathu	-11.859
▁fresh	-11.8591
▁train	-11.8591
▁Rom	-11.8592
alakshmi	-11.8592
▁முடி	-11.8593
▁dalit	-11.8594
▁nallathan	-11.8595
▁jesus	-11.8595
Kaithi	-11.8595
▁yanaku	-11.8598
▁kollanum	-11.8598
▁oppo	-11.8599
dollar	-11.86
▁Yappa	-11.86
kandippa	-11.86
▁chella	-11.8601
Singam	-11.8601
▁உயிர	-11.8601
▁varalaru	-11.8601
▁kude	-11.8604
▁yepa	-11.8605
▁edukku	-11.8606
kaappaan	-11.8606
▁Paka	-11.8607
▁அவங்கள	-11.8607
kadai	-11.8609
▁VARA	-11.861
151	-11.861
▁kup	-11.861
▁irritate	-11.8611
review	-11.8611
▁Epa	-11.8614
▁ungamma	-11.8615
akum	-11.8615
▁satham	-11.8617
poda	-11.8617
vivegam	-11.8617
cross	-11.8619
▁kun	-11.862
▁irrukanga	-11.862
▁lite	-11.8621
▁keezha	-11.8623
▁illathavan	-11.8623
yaar	-11.8624
people	-11.8629
ingana	-11.8631
▁viv	-11.8631
▁pogama	-11.8632
▁🤔🤔🤔🤔	-11.8634
▁மகா	-11.8635
▁hota	-11.8636
▁நடிகை	-11.8636
▁kamicha	-11.8637
▁thankyou	-11.864
jathi	-11.864
▁zee	-11.8641
▁thagudhi	-11.8641
▁sapuda	-11.8641
▁kavan	-11.8642
லைக்	-11.8645
▁thali	-11.8645
▁ney	-11.8646
kiranga	-11.8647
▁muh	-11.8647
▁likh	-11.8655
▁near	-11.8658
▁Pudicha	-11.8659
1021	-11.8661
▁பிராமணர்	-11.8661
▁Yana	-11.8662
▁porama	-11.8662
▁சிங்க	-11.8662
moorthy	-11.8666
patha	-11.8668
▁vanmam	-11.8668
avargal	-11.867
▁vantu	-11.8673
▁unnai	-11.8676
▁Dub	-11.8676
▁anb	-11.8678
kata	-11.8679
▁vedikka	-11.8681
▁Malay	-11.8681
kili	-11.8682
▁saniyan	-11.8683
▁தெறிக்க	-11.8685
▁neenka	-11.8686
▁piditha	-11.8687
▁buthi	-11.8687
▁chill	-11.8688
▁kanan	-11.8689
▁parthavanga	-11.8689
ommala	-11.8692
▁phir	-11.8694
▁sani	-11.8694
▁pullainga	-11.8694
▁mura	-11.8694
▁ட்ரெய்லர	-11.8697
oooooooooooo	-11.87
▁elu	-11.87
▁Manitha	-11.87
▁mool	-11.87
▁உண்மைய	-11.87
▁hd	-11.8701
▁நாளா	-11.8703
attai	-11.8703
▁laiyum	-11.8704
▁othuka	-11.8706
▁THALAIVA	-11.8706
▁erundhu	-11.8706
view	-11.8706
mada	-11.8706
pora	-11.8708
▁killer	-11.8709
▁thevdya	-11.8709
▁etu	-11.8711
iger	-11.8712
▁sethuru	-11.8712
▁kalyana	-11.8712
xxx	-11.8712
TY	-11.8713
▁கதர	-11.8714
▁chii	-11.8714
karathu	-11.8714
▁Irukkum	-11.8715
ology	-11.8716
▁sirikka	-11.8716
maiyana	-11.8716
▁gym	-11.8719
qo	-11.8719
▁வெறியர்கள	-11.8722
▁காட்டிய	-11.8722
amman	-11.8723
▁paakur	-11.8723
inthu	-11.8726
ARR	-11.8728
▁pannur	-11.8728
nunu	-11.873
▁seru	-11.8733
▁Kalyan	-11.8733
▁expectation	-11.8733
rit	-11.8735
ర	-11.8736
▁sink	-11.8736
▁Pakistan	-11.8737
kale	-11.8738
▁saapt	-11.8738
▁aatam	-11.8739
▁meethi	-11.8739
▁பத்து	-11.8742
▁debate	-11.8742
hk	-11.8743
▁Wowww	-11.8744
▁pitch	-11.8744
media	-11.8744
Komali	-11.8745
▁saaga	-11.8745
ente	-11.8748
▁poradura	-11.8748
322	-11.8749
english	-11.8749
varkal	-11.875
▁pathavaga	-11.8753
ified	-11.8753
▁ellathayum	-11.8753
சு	-11.8753
▁nambala	-11.8753
▁வாய்	-11.8753
ப்பெற	-11.8754
▁pannitinga	-11.8755
▁pugal	-11.8756
▁vanthuruka	-11.8756
▁setta	-11.8758
ql	-11.876
▁sambavatha	-11.876
zk	-11.8761
▁aji	-11.8761
▁sapid	-11.8762
▁aadura	-11.8762
▁nambika	-11.8762
▁spread	-11.8762
▁BB	-11.8762
▁maan	-11.8762
udaya	-11.8762
sycho	-11.8764
▁Serious	-11.8766
▁புண்டை	-11.8766
▁boomi	-11.8767
vita	-11.8767
606	-11.8767
▁podunka	-11.8768
****	-11.8769
▁kolu	-11.8772
▁panniruk	-11.8775
▁venuna	-11.8775
▁thampi	-11.8776
▁podur	-11.8777
▁pannug	-11.8777
▁Trend	-11.8778
▁ipdila	-11.8779
dhukku	-11.8779
▁தெரியவில்லை	-11.878
gira	-11.878
▁JAYARAJ	-11.878
▁கன்னியாகுமரி	-11.878
▁தக்காளி	-11.878
▁Graphics	-11.878
▁Manirathnam	-11.878
▁சமத்துவ	-11.878
▁Ratchasan	-11.878
▁kandaraoli	-11.878
▁தஞ்ச	-11.8781
▁Which	-11.8781
▁சாவுங்கடா	-11.8781
ம்னு	-11.8781
▁PADAM	-11.8781
▁Amitabh	-11.8781
▁vazthukkal	-11.8781
காத்திருக்கிறோம்	-11.8781
▁running	-11.8781
▁மிஸ்	-11.8781
▁எமது	-11.8781
▁குரூப்ஸ்	-11.8781
▁nadodigal	-11.8781
▁Lyric	-11.8781
▁இரத்தம்	-11.8781
▁Gandhi	-11.8781
▁conversation	-11.8781
▁Saaho	-11.8781
▁kannadi	-11.8782
▁நியாயம்	-11.8782
ntu	-11.8782
▁competition	-11.8782
▁இருக்கணும்	-11.8782
▁degrade	-11.8782
▁அம்பேத்கர்	-11.8782
▁Sunday	-11.8783
▁yesterday	-11.8783
▁நாளைக்கு	-11.8783
▁Cartoo	-11.8783
▁vaera	-11.8784
▁கீழே	-11.8784
▁ellaraiyum	-11.8784
▁Mudiyum	-11.8784
▁sudu	-11.8784
uy	-11.8784
▁MOVIES	-11.8784
▁Poguthu	-11.8784
▁July	-11.8785
▁kulipom	-11.8786
▁இருக்கலாம்	-11.8786
▁Epavum	-11.8786
▁vadachennai	-11.8786
▁thoothukudi	-11.8787
▁பொழப்பு	-11.8787
▁இல்லனா	-11.8787
▁ethiri	-11.8787
▁விசிக	-11.8787
▁nalum	-11.8788
▁இயக்கம்	-11.8788
▁yaralayum	-11.8788
▁தம்பிகள்	-11.8789
▁Doubt	-11.8789
cher	-11.8789
CCV	-11.8789
▁saarpaga	-11.8789
▁Udhayanidh	-11.8789
med	-11.879
வண்ணியர்	-11.879
▁BAIRAVA	-11.879
▁AV	-11.8791
▁maadhri	-11.8791
▁வெளியே	-11.8791
▁WATCH	-11.8792
▁ஒழுங்கா	-11.8792
▁kaandula	-11.8792
▁Hassan	-11.8792
▁வைப்போம்	-11.8792
▁Zero	-11.8792
eku	-11.8793
▁Eagerly	-11.8793
▁thel	-11.8793
▁emotional	-11.8793
▁pathan	-11.8794
▁enum	-11.8794
▁பேன்ஸ்	-11.8794
▁பற்றியும்	-11.8794
▁serntha	-11.8795
▁sequence	-11.8795
▁முன்னோட்டம்	-11.8795
▁triler	-11.8795
▁Ovoru	-11.8796
▁பேரை	-11.8796
▁Sivakumar	-11.8796
▁அவ்ளோ	-11.8796
▁thinni	-11.8798
bay	-11.8799
▁nari	-11.8799
▁nenachutu	-11.8799
▁maadham	-11.88
▁keerthi	-11.8801
money	-11.8801
▁savungada	-11.8801
▁valimai	-11.8802
▁suspens	-11.8803
▁sollathinga	-11.8804
nf	-11.8804
▁நகர்	-11.8805
galey	-11.8805
▁pidikalana	-11.8805
▁jyada	-11.8805
▁avengers	-11.8805
கின்றனர்	-11.8806
▁sid	-11.8806
▁oombittu	-11.8807
▁neela	-11.8807
▁வருமா	-11.8807
ruu	-11.8807
▁irundhaalum	-11.8807
▁kalavaram	-11.8809
▁யாரை	-11.881
▁Sangi	-11.881
▁Vetrimaaran	-11.8811
▁ரஜினியை	-11.8811
▁GIVE	-11.8811
▁Hiphop	-11.8811
ndram	-11.8811
▁unala	-11.8812
▁புடுங்க	-11.8812
▁ub	-11.8813
▁பாடமாக	-11.8813
ttom	-11.8814
▁bahubali	-11.8814
▁stuck	-11.8814
▁தெரியுமா	-11.8814
279	-11.8814
▁esp	-11.8815
▁parthutu	-11.8816
▁பெரியார்	-11.8816
▁vanthuduchi	-11.8818
▁guts	-11.8818
▁குழுவிற்க	-11.8819
▁42	-11.8819
▁katrom	-11.882
ril	-11.882
hj	-11.8821
ater	-11.8821
daily	-11.8821
▁பரவாயில்லை	-11.8823
▁Tamizh	-11.8823
▁solluran	-11.8823
▁irukatum	-11.8823
▁நிறைந்த	-11.8824
▁superrr	-11.8825
▁ellai	-11.8826
▁engaya	-11.8826
198	-11.8827
▁எதிர்பார்த்து	-11.8827
▁crypto	-11.8828
iam	-11.8828
▁அமைதியா	-11.8828
▁Ivalo	-11.8828
vas	-11.8829
▁chest	-11.883
▁பொழுது	-11.883
▁iran	-11.883
▁pavingala	-11.8831
▁சிறு	-11.8831
▁lekin	-11.8831
df	-11.8831
▁cyber	-11.8833
▁rasiga	-11.8834
▁unakaga	-11.8834
▁material	-11.8834
217	-11.8834
▁பீம்	-11.8835
▁usual	-11.8837
apadi	-11.8837
rated	-11.8838
yenna	-11.8839
▁பங்கம்	-11.884
▁evening	-11.884
▁irungada	-11.8841
▁mutiyathu	-11.8841
▁foot	-11.8841
ndrathu	-11.8842
▁குறி	-11.8842
▁ithuvum	-11.8843
▁waitting	-11.8843
▁direction	-11.8844
▁பாத்துட்ட	-11.8844
▁been	-11.8845
▁Irumbu	-11.8845
▁சத்ரிய	-11.8845
gitu	-11.8845
▁movaney	-11.8845
▁padathayum	-11.8845
▁melaye	-11.8847
▁nakkanum	-11.8848
▁ѕ	-11.8848
▁realme	-11.8849
▁sight	-11.8849
▁தலைமுறை	-11.885
▁சமுகத்தின	-11.885
▁jump	-11.885
▁செலவு	-11.885
▁vekama	-11.885
▁scence	-11.8852
▁general	-11.8852
▁kang	-11.8853
▁vun	-11.8854
▁வாழ்ந்து	-11.8856
▁விஷ	-11.8857
▁VARUM	-11.8857
▁aagumnu	-11.8858
▁goundar	-11.8858
ots	-11.886
▁pandraru	-11.8862
▁சென்ற	-11.8863
▁soluva	-11.8864
inho	-11.8864
▁இளைய	-11.8864
▁paathuko	-11.8866
anni	-11.8866
thukkum	-11.8867
▁tharumaru	-11.8869
▁zen	-11.8869
▁alludhu	-11.887
▁poon	-11.887
▁amb	-11.8872
▁உழைத்த	-11.8873
army	-11.8874
▁Varan	-11.8875
▁vaiya	-11.8876
--	-11.8876
▁expected	-11.8878
▁welcome	-11.8879
▁needed	-11.8879
▁yarru	-11.8879
▁appavum	-11.888
rá	-11.8882
▁oosi	-11.8882
▁கட்டு	-11.8883
▁motor	-11.8883
▁அரிசி	-11.8885
▁rosa	-11.8885
▁thung	-11.8885
▁sota	-11.8886
▁illayada	-11.8888
endo	-11.8888
naiku	-11.8889
▁kumaru	-11.889
▁467	-11.889
▁cycle	-11.8892
▁marakama	-11.8892
Vasool	-11.8893
zl	-11.8893
▁mudiyadha	-11.8893
▁சீமை	-11.8894
506	-11.8895
aum	-11.8896
▁வாய்ப்ப	-11.8896
▁thalla	-11.8896
ச	-11.8897
▁veerama	-11.8898
▁உதவி	-11.8899
▁mudincha	-11.8899
▁vazi	-11.8899
allu	-11.8901
▁Krishna	-11.8901
▁vanakkam	-11.8902
▁இடத்தில	-11.8903
ikk	-11.8903
prakash	-11.8904
▁muli	-11.8905
▁pannunka	-11.8906
▁🤘🤘	-11.8907
▁definite	-11.8908
▁forget	-11.8908
▁pathute	-11.8908
▁pathuk	-11.8908
mmmmmmmmmmmmm	-11.8909
▁panta	-11.8909
▁hos	-11.891
▁thaaru	-11.8912
406	-11.8912
▁thongu	-11.8913
▁meri	-11.8913
▁konjo	-11.8914
▁vanthavan	-11.8915
▁felt	-11.8916
▁natla	-11.8916
272	-11.8917
▁panitan	-11.8919
▁paakuringa	-11.8919
▁NG	-11.8919
itaru	-11.8919
▁vachiko	-11.8921
▁rose	-11.8921
▁task	-11.8922
174	-11.8922
▁பன்னா	-11.8922
▁ethukuda	-11.8923
▁liked	-11.8923
kesh	-11.8924
350	-11.8925
▁freefire	-11.8926
kart	-11.8926
lia	-11.8928
▁urutt	-11.8929
▁trailera	-11.893
▁Baga	-11.893
ATHU	-11.893
▁Mujh	-11.8932
▁digital	-11.8932
▁tharum	-11.8932
▁பறவை	-11.8932
ARUN	-11.8933
gay	-11.8933
294	-11.8933
▁sonnar	-11.8934
▁irrukunu	-11.8934
▁diff	-11.8935
▁Paaaa	-11.8936
▁Vive	-11.8937
dur	-11.8937
▁bla	-11.8937
▁jin	-11.8939
yp	-11.894
umnu	-11.8941
▁vadhu	-11.8941
స్	-11.8944
▁thakka	-11.8945
▁player	-11.8949
▁varumpothu	-11.8949
▁Paravala	-11.8951
bw	-11.8953
▁Engineer	-11.8953
▁using	-11.8955
▁Manushan	-11.8956
▁heroes	-11.8956
magan	-11.8957
நாடு	-11.8958
▁டே	-11.8959
▁panda	-11.896
▁athukulla	-11.896
▁Songs	-11.8961
vic	-11.8962
irunga	-11.8962
642	-11.8962
▁aaha	-11.8964
▁Evanum	-11.8964
▁ariva	-11.8966
▁ullavan	-11.8967
▁asura	-11.8967
▁ungla	-11.8968
▁attatha	-11.8968
sse	-11.8968
▁poduren	-11.8969
▁padat	-11.897
▁keduthu	-11.897
▁theer	-11.897
▁engayum	-11.8971
cd	-11.8974
▁Kumaran	-11.8974
▁oombuda	-11.8976
▁niriya	-11.8976
▁onlinejobs	-11.8977
▁trick	-11.8982
▁mattom	-11.8984
ros	-11.8985
▁shah	-11.8985
adum	-11.8986
▁jee	-11.8986
low	-11.8986
▁yap	-11.8987
mati	-11.8987
▁told	-11.8988
chchi	-11.8988
▁niya	-11.8989
▁enakum	-11.8989
▁rep	-11.8989
▁evar	-11.8989
▁sapud	-11.8991
▁adikra	-11.8993
▁notice	-11.8993
▁டாக்டர	-11.8994
color	-11.8996
vitu	-11.8996
▁azhu	-11.8997
▁april	-11.8999
▁singa	-11.9
286	-11.9001
▁sappuda	-11.9003
arhal	-11.9005
றேன்	-11.9005
▁ரசிகர்கள	-11.9007
167	-11.9007
மனிதனாக	-11.9007
▁sirithal	-11.9007
LO	-11.9009
▁aappu	-11.9011
▁bahut	-11.9012
▁క	-11.9012
▁kaam	-11.9013
maran	-11.9014
▁nadinga	-11.9014
▁coc	-11.9014
bor	-11.9015
▁Munda	-11.9015
▁saiva	-11.9016
▁AP	-11.9016
▁kitna	-11.9016
kuna	-11.9018
ruvaru	-11.9018
డ	-11.9019
▁kattuna	-11.902
apathi	-11.9021
▁yah	-11.9022
▁poranth	-11.9023
▁exa	-11.9024
Ava	-11.9024
▁yaaa	-11.9028
▁irik	-11.9031
▁select	-11.9031
ming	-11.9032
▁kattum	-11.9033
▁kart	-11.9033
▁seivanga	-11.9034
▁keli	-11.9035
▁solluva	-11.9036
eren	-11.9037
ships	-11.9038
▁நாடகம்	-11.9038
▁mem	-11.904
romance	-11.9042
kkan	-11.9042
▁pidikala	-11.9043
▁bakwas	-11.9044
▁seidh	-11.9044
niga	-11.9044
▁seathu	-11.9045
jd	-11.9046
▁pakku	-11.9047
▁ches	-11.9048
▁padanum	-11.9048
hukku	-11.9048
▁talaiva	-11.9051
mates	-11.9051
▁taa	-11.9053
unge	-11.9053
▁inaiku	-11.9053
▁santhosa	-11.9054
▁Thara	-11.9054
uram	-11.9054
▁vilayadu	-11.9054
▁sharp	-11.9055
▁value	-11.9055
▁maatra	-11.9059
▁iruki	-11.9059
சூத்திரன்	-11.906
▁kudicha	-11.906
▁mandaya	-11.906
▁yarukku	-11.9061
▁vendaam	-11.9061
hee	-11.9061
▁ken	-11.9061
▁vitte	-11.9062
ILA	-11.9063
▁kamika	-11.9063
▁anti	-11.9063
520	-11.9069
yla	-11.9069
▁pinni	-11.9073
thri	-11.9073
▁sounds	-11.9074
ackground	-11.9074
ris	-11.9076
▁cro	-11.9077
▁vaangura	-11.9078
▁soldre	-11.9078
pus	-11.9079
▁தெ	-11.9081
▁விவசாயி	-11.9083
▁mother	-11.9083
▁udai	-11.9084
idade	-11.9085
▁yethu	-11.9086
▁og	-11.9086
shika	-11.9086
▁nilam	-11.9087
▁irupaan	-11.9087
▁நன்றா	-11.9088
▁adhukulla	-11.9088
tara	-11.909
eem	-11.9092
▁kalutha	-11.9092
▁ennatha	-11.9093
▁malayalikal	-11.9094
rq	-11.9094
▁Com	-11.9095
▁ஏமாத்த	-11.9099
▁abirami	-11.91
▁meethu	-11.91
▁poiy	-11.9102
▁unk	-11.9102
fun	-11.9102
tram	-11.9102
qc	-11.9104
▁Li	-11.9104
▁shape	-11.9105
▁பொய்	-11.9105
▁ug	-11.9109
▁பழக்கம	-11.911
▁மறந்து	-11.9111
''	-11.9112
▁naasama	-11.9113
▁pananu	-11.9114
▁எத	-11.9116
▁keata	-11.9117
leh	-11.9119
ల	-11.912
▁cheyya	-11.9123
ON	-11.9123
▁scen	-11.9124
hhhhhhhhhhhhhhhh	-11.9126
Unga	-11.9126
▁வீட்டில	-11.9126
▁seconds	-11.9128
▁pannalama	-11.9129
▁thakuthi	-11.913
bab	-11.9132
▁எப்போது	-11.9133
▁சமூகத்திற்க	-11.9133
▁Boy	-11.9134
223	-11.9135
▁appove	-11.9136
136	-11.9138
▁vatta	-11.9141
▁அவுங்க	-11.9141
▁daaaaaa	-11.9142
▁Idu	-11.9142
wer	-11.9144
▁thevaya	-11.9144
umpodhu	-11.9144
▁Paatha	-11.9147
▁kodukkura	-11.9148
▁vandhinga	-11.9149
lena	-11.9149
lation	-11.915
rrrrrr	-11.9152
voice	-11.9153
▁Thevid	-11.9154
▁படுத்த	-11.9154
▁ignore	-11.9155
▁akkarai	-11.9158
▁ookura	-11.916
▁karke	-11.916
att	-11.9162
▁athai	-11.9163
▁chahiye	-11.9164
▁பையன	-11.9166
▁jasthi	-11.9166
▁murukku	-11.9167
▁race	-11.9167
▁naatula	-11.9167
▁Vanitha	-11.9168
lip	-11.9169
▁azhagana	-11.9169
vanuku	-11.917
▁vendiyatha	-11.917
▁oombuna	-11.9171
dre	-11.9171
aries	-11.9171
uppu	-11.9171
kkala	-11.9175
▁aq	-11.918
▁சொல்றாங்க	-11.9187
OM	-11.9188
▁otu	-11.919
yyyyyyy	-11.9191
▁tw	-11.9192
▁é	-11.9192
onum	-11.9192
xi	-11.9193
drathu	-11.9193
arunu	-11.9194
333	-11.9195
▁🤔🤔🤔	-11.9195
▁sow	-11.9195
kers	-11.9195
▁mudiyath	-11.9196
▁ipove	-11.9198
hf	-11.9199
▁தலையை	-11.92
▁Heroin	-11.92
▁appavi	-11.9201
upu	-11.9202
ARAL	-11.9203
▁எல்லோரு	-11.9203
poguthu	-11.9203
aguthu	-11.9206
xxxxxxxxxxxxxxx	-11.9208
▁rs	-11.9208
eke	-11.9209
avanukku	-11.9209
▁erup	-11.921
▁thalaimurai	-11.9212
▁Yanna	-11.9213
ruba	-11.9214
▁found	-11.9214
▁apdina	-11.9214
▁aagu	-11.9214
▁kalaku	-11.9215
▁aata	-11.9217
▁solreenga	-11.9218
▁karte	-11.922
▁ame	-11.9222
bhu	-11.9224
▁erukaru	-11.9224
ford	-11.9225
post	-11.9225
▁screens	-11.9225
248	-11.9226
▁பெற்றோர்	-11.9227
nun	-11.9228
▁தொட	-11.9229
▁PU	-11.923
aila	-11.9231
guy	-11.9232
▁tee	-11.9232
135	-11.9233
▁parkanum	-11.9234
▁munnera	-11.9235
dho	-11.9235
▁Romb	-11.9237
ங்களா	-11.9239
▁பார	-11.9239
▁unge	-11.9243
luga	-11.9245
xg	-11.9248
▁fish	-11.9249
hiram	-11.9251
▁Hari	-11.9252
▁kaari	-11.9253
▁hv	-11.9254
form	-11.9254
முறை	-11.9257
▁marr	-11.9258
ikirathu	-11.9259
▁avva	-11.9259
alae	-11.9259
▁தெளிவா	-11.926
▁கேட்டா	-11.9261
▁therinchi	-11.9261
▁thul	-11.9263
▁mos	-11.9266
▁accha	-11.9266
▁abt	-11.9266
gc	-11.9266
▁அப்பாவி	-11.9268
▁pundanu	-11.9268
idly	-11.9268
▁vanthut	-11.9269
216	-11.9269
▁pennai	-11.927
▁nigal	-11.9274
▁disc	-11.9277
▁yema	-11.9277
▁thappe	-11.9278
▁karana	-11.928
▁option	-11.9281
etter	-11.9283
▁thadav	-11.9286
▁evano	-11.9286
kra	-11.9289
க்கிறது	-11.9289
▁முக்கியமா	-11.929
▁kund	-11.9292
▁vetchi	-11.9292
▁erunga	-11.9293
▁paapen	-11.9295
ink	-11.9296
inar	-11.9296
▁maad	-11.9296
ப்படுகிறது	-11.9298
dru	-11.93
▁lie	-11.93
▁Tharama	-11.93
▁சுய	-11.9301
▁maadri	-11.9302
Point	-11.9304
▁paduthula	-11.9305
▁நாலு	-11.9305
▁christ	-11.9306
ென்றால்	-11.9306
DAY	-11.9307
▁irumbu	-11.9307
▁patthu	-11.9309
599	-11.9309
▁டிரைலர	-11.931
daiya	-11.931
▁avlotha	-11.9311
▁silra	-11.9312
jee	-11.9312
▁hj	-11.9312
▁panratha	-11.9313
mun	-11.9313
▁saap	-11.9313
▁vaazha	-11.9314
▁konna	-11.9314
▁போராட	-11.9315
wx	-11.9316
chinna	-11.9316
nnoda	-11.9316
▁Thiru	-11.9317
itte	-11.9318
▁vendiyadhu	-11.932
▁PER	-11.9321
▁gro	-11.9322
யப்பா	-11.9323
▁chell	-11.9326
▁potur	-11.9327
ellaam	-11.9327
lish	-11.9328
▁nool	-11.9328
▁puriyama	-11.9333
ையை	-11.9334
றானுங்க	-11.9334
▁vidio	-11.9334
▁Paaa	-11.9335
▁thur	-11.9335
lite	-11.9336
irukkan	-11.9337
▁Wo	-11.9338
▁solraru	-11.9339
eeeeeeeeeeeeeee	-11.9339
ista	-11.9339
thalaiva	-11.934
▁தலைய	-11.934
▁அவரவர்	-11.9341
▁irukkumo	-11.9343
▁disliked	-11.9344
iyea	-11.9344
▁poye	-11.9345
mmmmmm	-11.9345
[...]
